<unk>	0
<s>	0
</s>	0
▁e	-3.28277
▁,	-3.37932
▁ko	-3.65059
,	-3.76299
▁on	-3.76948
▁.	-3.93845
▁ɓe	-4.01958
.	-4.10614
i	-4.17858
'	-4.22475
▁ɓen	-4.29097
▁o	-4.54576
▁ka	-4.54625
ɓe	-4.71082
▁mo	-4.71509
▁Alla	-4.73809
▁fii	-4.75327
▁	-4.79744
▁wi	-4.89243
▁no	-4.92401
▁Ko	-4.99955
▁:	-5.07245
a	-5.08502
o	-5.16631
▁maɓɓe	-5.21058
▁mi	-5.21203
▁kadi	-5.22192
de	-5.31491
▁«	-5.33795
▁woni	-5.33926
▁makko	-5.36741
▁si	-5.3971
▁O	-5.41874
e	-5.46367
▁ɗun	-5.47599
▁»	-5.4836
▁mon	-5.49479
▁nden	-5.53946
▁kon	-5.57167
▁men	-5.58759
▁ɗin	-5.5892
▁ɗen	-5.59312
n	-5.65271
-	-5.67396
▁maa	-5.68794
▁yo	-5.7011
▁"	-5.70401
ɗo	-5.75465
▁an	-5.75516
▁Iisaa	-5.76718
▁nde	-5.77399
▁Men	-5.80909
▁On	-5.81268
▁mun	-5.81921
▁non	-5.86085
▁yimɓe	-5.88417
:	-5.90164
u	-5.95937
▁kala	-5.96191
▁fow	-5.98204
▁E	-6.00992
▁nder	-6.01278
ii	-6.0364
▁hoore	-6.03925
▁ngal	-6.0782
▁Si	-6.0807
▁?	-6.08423
on	-6.08734
nde	-6.08974
▁wa	-6.12241
".	-6.15407
▁a	-6.17958
say	-6.18257
▁haa	-6.22396
▁!	-6.22712
ee	-6.229
▁Joomi	-6.23103
▁hara	-6.2441
gol	-6.26763
▁[	-6.28455
▁yi	-6.29613
▁kono	-6.33589
▁Kono	-6.34267
▁wanaa	-6.34305
▁leydi	-6.36871
▁ɗon	-6.46534
▁Ɓe	-6.48543
▁ɗi	-6.49781
▁ɗum	-6.51624
▁haray	-6.52242
en	-6.55439
▁Mi	-6.57633
]	-6.6133
▁ngol	-6.61532
▁Pellet	-6.62488
▁hay	-6.62917
ugol	-6.63089
▁onon	-6.63575
aa	-6.64615
▁wano	-6.64733
▁sabu	-6.65335
▁waɗi	-6.66226
▁ndin	-6.66969
▁ma	-6.6792
▁immor	-6.68453
▁Ɓay	-6.68532
▁hakkunde	-6.70948
aali	-6.71656
▁(	-6.72206
▁hiɓe	-6.72964
▁en	-6.73844
no	-6.74421
ɗon	-6.74441
▁oo	-6.74676
▁Awa	-6.75027
▁amen	-6.76283
?	-6.77165
▁Almasiih	-6.79141
▁won	-6.80539
▁Makko	-6.82104
▁min	-6.82758
▁wonde	-6.84721
▁ɓuri	-6.84724
▁kanko	-6.84871
▁ɗoo	-6.84885
ay	-6.8489
)	-6.88174
▁lan	-6.88427
▁huunde	-6.89354
▁goo	-6.9266
▁pellet	-6.92699
▁aduna	-6.93632
▁himo	-6.93865
ude	-6.95852
▁gooto	-6.96297
▁tawi	-6.96756
▁ndun	-6.97756
▁hinaa	-6.98395
▁Tawi	-6.98475
▁hino	-7.01549
▁Allah	-7.01894
;	-7.02489
ta	-7.0354
▁alaa	-7.03752
▁ɓaawo	-7.03774
▁wota	-7.04377
▁am	-7.04388
▁tawii	-7.05282
▁Kanko	-7.05572
▁dow	-7.0695
oowo	-7.07713
▁A	-7.0785
▁ngun	-7.07863
▁woo	-7.0896
▁miɗo	-7.09889
▁ɗe	-7.10615
ma	-7.11844
al	-7.14137
▁goonga	-7.1474
Ko	-7.1499
▁yeeso	-7.16016
▁kammu	-7.17935
▁kamɓe	-7.1802
▁woodani	-7.20304
ke	-7.21051
gal	-7.2249
▁Joomiraaɗo	-7.2249
▁gomɗimɓe	-7.22507
ji	-7.22827
▁jamaa	-7.23021
▁tigi	-7.24718
▁lepte	-7.25782
▁Nde	-7.25825
▁goɗɗo	-7.26652
▁laawol	-7.26922
▁hiɗon	-7.28633
jo	-7.31056
▁Mo	-7.3279
le	-7.34112
▁wonaa	-7.35083
noo	-7.35784
▁Min	-7.35928
▁Kal	-7.3613
▁andi	-7.36558
▁Ruuhu	-7.37358
▁honɗu	-7.37863
▁ɓay	-7.37911
ɗe	-7.37992
l	-7.3956
▁nii	-7.39649
▁ɓerɗe	-7.39994
▁tun	-7.40179
▁gomɗinal	-7.40716
▁Sariya	-7.4099
▁wonii	-7.41067
▁Maaku	-7.41386
▁Ɓen	-7.42305
▁ton	-7.42341
▁awa	-7.4237
▁kan	-7.42878
▁taalibaa	-7.43145
ere	-7.43591
▁ɗan	-7.4435
▁Amen	-7.4524
▁ngon	-7.47535
un	-7.47548
▁lam	-7.48414
▁Hi	-7.48652
jaabii	-7.48759
ooɓe	-7.49116
ike	-7.49341
ɗi	-7.50487
▁moƴƴere	-7.5053
ɗaa	-7.50651
ka	-7.51655
▁wonnde	-7.51711
▁laamu	-7.52118
▁hari	-7.52549
▁sadaka	-7.5308
▁saa	-7.53393
▁ɓee	-7.53979
sa	-7.5429
▁ari	-7.54652
juuɗe	-7.55218
▁saare	-7.56249
▁jeyaa	-7.58499
▁maaɗa	-7.58729
▁K	-7.58913
▁majji	-7.58992
▁ɗiɗi	-7.59509
▁fewndo	-7.60519
▁Aayeeje	-7.61468
▁P	-7.62089
▁golle	-7.62307
▁Muusaa	-7.6257
▁debbo	-7.62949
▁moƴƴi	-7.63178
▁suudu	-7.63296
▁mari	-7.63652
▁neɗɗ	-7.64172
▁faalaa	-7.65252
ri	-7.65329
▁Nulaaɗo	-7.65698
▁ngurndan	-7.66096
▁tuma	-7.66194
▁Allaahu	-7.67041
▁maaki	-7.67427
uusu	-7.681
▁yahi	-7.68494
ngal	-7.69101
▁kammuul	-7.69141
▁Pe	-7.6919
?"	-7.69387
▁kun	-7.69514
▁Gomɗii	-7.69757
▁homb	-7.69834
▁honno	-7.72511
▁ɲa	-7.72702
re	-7.73268
▁ɓandu	-7.73588
▁ɗiɗo	-7.73646
▁Yahuudiyankee	-7.74452
!	-7.74764
ɗen	-7.75057
uɗo	-7.75224
tr	-7.75441
▁mooɗon	-7.76411
▁Ɓ	-7.76593
aade	-7.77361
▁innde	-7.77853
eji	-7.77866
aaki	-7.78307
▁na	-7.78886
oo	-7.80752
y	-7.81987
▁peewal	-7.82015
▁ndi	-7.82069
▁Yo	-7.82144
▁jeyaaɗo	-7.82273
▁yedduɓe	-7.83214
▁wonaali	-7.83535
▁musiɓɓe	-7.83703
an	-7.83858
▁ɓur	-7.84249
ko	-7.84405
▁malaa	-7.85611
eede	-7.86891
▁ley	-7.8712
wo	-7.87624
▁Ka	-7.87738
▁ɓernde	-7.87741
▁bone	-7.88571
▁mbo	-7.88714
▁mum	-7.89063
▁ndee	-7.89704
▁reft	-7.89766
▁yiite	-7.89963
▁rewɓe	-7.92897
▁mayre	-7.93236
▁jemma	-7.93418
▁wonan	-7.93599
aama	-7.93802
▁ndu	-7.93804
▁woɓɓe	-7.95106
▁ado	-7.95767
▁kuuɗe	-7.95771
awto	-7.95879
maa	-7.96326
▁No	-7.96711
ngol	-7.96882
▁ndiyan	-7.97682
ni	-7.98229
▁jooni	-7.98306
ataa	-7.99166
▁sappo	-7.99254
▁taw	-7.99681
▁mawnde	-7.99776
wata	-8.00188
▁ɓiɓɓe	-8.00293
▁maande	-8.00492
aaji	-8.00629
▁yottinoo	-8.00661
uulu	-8.00824
▁m	-8.01451
agol	-8.01544
▁Yeru	-8.01633
▁wona	-8.03215
▁hande	-8.03456
salaam	-8.03646
▁giggol	-8.03685
▁Kaa	-8.04036
di	-8.04792
▁wonu	-8.04923
(	-8.0569
▁Ɗun	-8.06722
▁haqiiqa	-8.06974
▁Hin	-8.07245
▁junuubu	-8.07324
▁fota	-8.07854
▁Wot	-8.07915
eteeɗo	-8.07935
▁Hara	-8.07942
▁Ñalnde	-8.08014
▁jom	-8.08667
▁Ibraahiima	-8.0869
▁Deftere	-8.08721
▁ɓiɗɗo	-8.08738
nguɗi	-8.0916
▁buy	-8.09417
iila	-8.09848
▁Him	-8.10002
▁baw	-8.10088
▁gila	-8.10134
▁Ma	-8.10392
unoo	-8.10441
ata	-8.10676
iri	-8.10725
▁ɲalaa	-8.1083
▁njoɓdi	-8.10975
▁adii	-8.11034
▁ƴetti	-8.11707
▁andaa	-8.12494
▁Wat	-8.12516
taa	-8.12618
▁Annduɗo	-8.13935
▁yoga	-8.14732
▁arii	-8.15288
▁juulird	-8.16153
▁wonkii	-8.16444
▁Baaba	-8.17825
annde	-8.17982
▁waawataa	-8.17995
▁hi	-8.18364
▁Moƴƴo	-8.18701
▁Reft	-8.18776
▁nokku	-8.1898
▁gomɗinɓe	-8.19039
▁ho	-8.20059
▁lanɗo	-8.2099
▁tati	-8.2201
▁wondi	-8.22441
▁mayde	-8.22763
▁yurmeende	-8.22854
▁hin	-8.22917
▁yiɗi	-8.23239
▁faamu	-8.23582
ibaaru	-8.23655
faade	-8.2376
▁Am	-8.23877
▁ɓ	-8.24372
▁Yahuudiyanke	-8.24435
du	-8.24931
ikaaɓe	-8.2534
▁mawɗo	-8.2543
ani	-8.25706
ɗum	-8.2616
▁moƴƴude	-8.26249
▁gite	-8.26287
▁Seniiɗo	-8.26955
ikaajo	-8.26964
▁wonɗo	-8.26965
▁daaluyee	-8.27022
▁Jom	-8.27078
▁worɓe	-8.2788
▁Nulaaɓe	-8.28911
▁Menen	-8.29025
▁lo	-8.29593
▁piiji	-8.29613
▁An	-8.30529
▁balɗe	-8.30534
▁nanii	-8.30568
▁waɗude	-8.30867
▁ngen	-8.30954
▁n	-8.31088
▁anndi	-8.31177
▁Yaay	-8.31195
▁mu	-8.31434
▁Ɓiɗ	-8.31541
▁mayɓe	-8.31651
▁heeferɓe	-8.32384
▁menen	-8.32511
▁waɗii	-8.32816
▁ben	-8.32943
▁Wa	-8.33046
oyay	-8.33224
▁k	-8.33977
la	-8.34183
▁Fariisiyaa	-8.34198
▁neɗɗanke	-8.34232
▁yumma	-8.34262
li	-8.34584
h	-8.34638
je	-8.34647
na	-8.34735
▁F	-8.3508
▁ɓiɗɓe	-8.35167
▁musiɗɗo	-8.3517
▁gorko	-8.35381
▁gomɗii	-8.3586
▁ngu	-8.35929
▁M	-8.36082
▁waɗa	-8.36132
nii	-8.36295
▁tawata	-8.36399
▁andini	-8.36424
ɓɓe	-8.37038
▁Onon	-8.37059
▁telen	-8.3706
▁alanaa	-8.37214
▁kongol	-8.37743
nooɓe	-8.38439
▁haala	-8.38505
▁baabiraa	-8.39164
uunu	-8.39618
▁yeru	-8.39896
▁wondu	-8.40394
Men	-8.40746
"	-8.40867
otaako	-8.4098
▁cappanɗ	-8.40997
m	-8.41246
▁faale	-8.41404
▁hiɗa	-8.41518
▁seeɗa	-8.41572
▁Tum	-8.41928
▁ƴiiƴan	-8.42008
▁yamiroore	-8.42037
▁doole	-8.42081
▁yamiri	-8.42193
ohoojo	-8.42525
▁ɓeya	-8.42824
▁haani	-8.42898
▁H	-8.42905
▁ɗii	-8.43007
ol	-8.43024
▁jokki	-8.43369
▁noone	-8.43829
▁laana	-8.44211
ndu	-8.4458
▁gaani	-8.44685
ru	-8.44801
*	-8.45061
▁jeeɗiɗi	-8.45126
▁tawnoo	-8.45678
aji	-8.45701
▁diiwal	-8.46153
▁Hay	-8.46272
▁Malaa	-8.46528
▁wonnoo	-8.46541
ajo	-8.46862
▁laakara	-8.47279
▁ca	-8.47548
▁hommbo	-8.48334
▁Darngal	-8.48351
▁ɓuttu	-8.48371
▁diina	-8.48413
▁maw	-8.48468
oore	-8.48581
ndi	-8.48822
▁anndaa	-8.49284
▁Ɗum	-8.49592
awna	-8.49965
▁aldaa	-8.50507
▁Sim	-8.51046
▁yalti	-8.51177
▁maandeeji	-8.51782
].	-8.52688
▁duuɓi	-8.5275
▁sahaabaa	-8.52879
▁wonanii	-8.53328
],	-8.53399
▁nay	-8.53489
▁heɓi	-8.5352
▁w	-8.53561
▁tooñooɓe	-8.5389
Alla	-8.53978
▁Ben	-8.54201
▁N	-8.54265
Joomi	-8.54437
▁Fir	-8.54438
▁woodanii	-8.54444
▁so	-8.54635
▁noddi	-8.54831
▁poomaa	-8.55107
▁kulol	-8.56173
▁jawle	-8.56319
▁mangu	-8.56322
▁gomɗini	-8.56592
immi	-8.56616
▁aru	-8.56852
aynoo	-8.56973
ɲun	-8.57307
▁deftere	-8.57356
),	-8.57373
▁windii	-8.58009
▁iwri	-8.58118
ra	-8.58551
▁S	-8.58649
▁Yiite	-8.58665
▁Joo	-8.58727
▁waɗugol	-8.5884
▁kin	-8.59459
▁konngol	-8.59464
▁golli	-8.5989
▁;	-8.60007
▁laatino	-8.60135
▁jinna	-8.60562
▁bireedi	-8.6095
▁Yaaquuba	-8.60991
▁mayri	-8.61067
▁koyɗe	-8.61193
▁honto	-8.61391
si	-8.61584
▁Isra	-8.61868
▁tawde	-8.61887
▁h	-8.62
▁kisan	-8.62185
ngin	-8.62193
▁kisiyee	-8.62248
▁misal	-8.6225
▁ganndal	-8.62282
▁huli	-8.62574
te	-8.62827
▁yani	-8.6302
uɓe	-8.63236
▁hooree	-8.63255
▁suufaaɓe	-8.63433
▁ngii	-8.63863
▁waawi	-8.64311
▁laati	-8.64443
ki	-8.64897
▁ndaygu	-8.6493
▁I	-8.65013
▁laat	-8.65172
▁naati	-8.65335
▁dental	-8.65979
▁weltaare	-8.65985
▁Ibuliisa	-8.66045
▁aray	-8.6612
▁mofte	-8.66585
anii	-8.66985
▁fedde	-8.67117
▁ñalnde	-8.67297
▁julde	-8.67345
Aade	-8.6753
▁nani	-8.67694
▁few	-8.67868
▁immini	-8.6806
▁jaabi	-8.68289
▁hewtii	-8.68336
▁conc	-8.68601
rde	-8.68654
▁ahadi	-8.68748
▁wo	-8.6946
tike	-8.69829
▁Daawuuda	-8.69961
▁taho	-8.69994
▁neene	-8.70032
▁woodi	-8.7115
▁Jaliilu	-8.71277
▁Won	-8.7154
aaɗo	-8.72296
▁ɗam	-8.72426
▁leggal	-8.72649
▁ɗee	-8.72707
am	-8.73144
mɓe	-8.73345
▁gomɗin	-8.73629
jungo	-8.73688
▁Fooluɗo	-8.74036
ana	-8.74067
ure	-8.74608
▁f	-8.75083
▁majje	-8.75288
▁sifa	-8.75306
▁ngo	-8.75544
▁feere	-8.75694
▁gaay	-8.75839
▁annabaa	-8.76208
▁landi	-8.76407
▁gomɗinɗo	-8.76633
▁ɗuuɗude	-8.76932
▁nge	-8.76942
▁darii	-8.76943
▁ɗuuɗuɓe	-8.76958
▁tor	-8.77822
▁hon	-8.77907
▁Maa	-8.781
ngu	-8.78106
▁oya	-8.7811
▁ɓadii	-8.78425
▁hawa	-8.78602
ftal	-8.78697
▁ara	-8.79295
▁b	-8.79386
ah	-8.79649
▁fayɓe	-8.79885
▁geɓal	-8.79904
tu	-8.79993
▁waɗ	-8.80056
▁ɲaamo	-8.80301
▁jooɗii	-8.8047
ton	-8.80648
▁waɗu	-8.80774
▁junuub	-8.81065
ira	-8.81166
▁acci	-8.8117
▁naange	-8.81426
ti	-8.81892
tee	-8.82805
▁tampere	-8.82841
▁yaha	-8.82842
▁ɲaaw	-8.82868
▁adinooɓe	-8.82876
▁jiwo	-8.82939
▁bee	-8.82974
ngo	-8.83084
ya	-8.83332
▁gomɗinaa	-8.83484
▁jogii	-8.83707
=	-8.83767
oton	-8.84152
aare	-8.84185
wal	-8.84205
jinnaaji	-8.84316
▁Jahannama	-8.84341
▁tuubuubuyee	-8.84353
▁ruttorde	-8.84358
▁Yahuuda	-8.84426
▁tagi	-8.84429
▁fenaande	-8.84485
▁meere	-8.84616
▁enen	-8.84902
▁nafa	-8.8514
▁J	-8.85805
▁bela	-8.85868
▁muusuɗe	-8.85903
jan	-8.8594
▁laamateeri	-8.85941
▁mawnude	-8.85946
▁feewuɓe	-8.85959
▁iwi	-8.86229
▁Anndee	-8.86804
▁tagu	-8.87345
▁woondiri	-8.87361
▁tikkere	-8.8749
▁jullere	-8.87497
▁leƴƴi	-8.87567
▁le	-8.88271
▁waɗan	-8.88862
mi	-8.88865
▁Hinnotooɗo	-8.89108
▁kaŋŋe	-8.89159
▁ɓeynguure	-8.89204
Si	-8.89475
▁woniri	-8.89491
▁heen	-8.89541
eɗen	-8.89673
▁B	-8.89696
).	-8.89774
hooreejo	-8.89779
▁moƴƴo	-8.90602
▁ndiyam	-8.90782
▁majjere	-8.90809
▁nangi	-8.90896
▁heɓii	-8.90961
▁Jey	-8.91163
▁ɓural	-8.91207
▁du	-8.91612
aana	-8.92094
▁Ñeeñuɗo	-8.92406
▁njaram	-8.92408
▁Pi	-8.92415
▁ɗuum	-8.92424
▁wonani	-8.93306
ooje	-8.93363
▁laatii	-8.93452
uji	-8.93482
▁Al	-8.93649
▁nguurndam	-8.94103
▁pelle	-8.94131
▁tooñuɓe	-8.94194
▁dey	-8.94277
▁kurkaadu	-8.94517
▁takko	-8.94572
▁ontigi	-8.94696
E	-8.94781
▁Wo	-8.95225
lmasiihu	-8.95241
ayno	-8.95267
▁lorra	-8.95604
▁ɓadike	-8.95833
dii	-8.9603
▁boni	-8.96083
▁hulu	-8.96238
Pellet	-8.9633
▁seedee	-8.9641
▁umm	-8.96631
ree	-8.96708
▁daali	-8.9674
▁ar	-8.96853
▁ɗaɓɓu	-8.96933
▁hiɗe	-8.97266
▁ɗuuɗi	-8.97447
▁baharu	-8.97578
▁fodoore	-8.97583
▁kaaƴe	-8.97591
▁giɗo	-8.97667
nooɗo	-8.97676
▁cuuɗi	-8.97801
▁iwru	-8.97845
▁yamir	-8.97883
▁wonndu	-8.98017
▁waaju	-8.98405
▁tiiɗi	-8.9869
mmi	-8.99123
▁humondir	-8.99132
▁jann	-8.99357
Mariyama	-8.99378
▁reweteeɗo	-8.99472
▁la	-8.99482
etee	-8.99628
▁maayii	-9.00306
nnde	-9.00403
in	-9.00506
wii	-9.00992
▁t	-9.01092
▁Karamoko	-9.01181
▁ñalaande	-9.01191
▁Haforoowo	-9.01197
▁mbeleeɗe	-9.01199
▁jokku	-9.01221
aanaare	-9.01241
▁addi	-9.01302
▁)	-9.01573
▁jannoo	-9.01608
etaake	-9.02015
▁Meɗe	-9.02334
▁goɗɗu	-9.02405
▁Haa	-9.02635
▁joom	-9.02911
▁teddungal	-9.03039
▁galle	-9.03098
▁ngesa	-9.0313
▁battane	-9.03139
▁Julde	-9.03147
▁neemaaji	-9.03147
▁Bar	-9.03185
▁Yuu	-9.03664
▁and	-9.03743
▁Tun	-9.04037
r	-9.04085
▁Alqur	-9.0412
iji	-9.04261
Min	-9.04473
to	-9.04751
tugol	-9.0492
▁paykun	-9.04945
▁lewru	-9.04972
▁Aljanna	-9.05044
▁sikke	-9.05286
▁hayre	-9.05327
▁Saa	-9.05436
▁waɗani	-9.05442
▁tama	-9.05507
▁s	-9.05832
mo	-9.06296
▁kaso	-9.06314
▁wiiɲu	-9.0684
▁Heroodu	-9.06871
▁bonii	-9.06875
▁Nuuhu	-9.06888
▁wootere	-9.06926
▁Enee	-9.07072
▁torii	-9.07121
▁yiɗaa	-9.07563
aaɓe	-9.07601
▁hewti	-9.07813
oy	-9.07832
ino	-9.08391
▁tawno	-9.0846
▁wonugol	-9.08668
▁Y	-9.08742
▁magge	-9.08776
▁darja	-9.08822
▁jamaanu	-9.08875
▁baaba	-9.08903
▁feewuɗo	-9.08917
▁gaynii	-9.08995
▁j	-9.09104
tii	-9.09135
▁ñalorma	-9.09886
▁nokk	-9.10265
▁Pu	-9.10504
▁ɲaawoo	-9.10632
▁dokkal	-9.10838
▁jowi	-9.10858
▁fawaaki	-9.10891
ande	-9.10947
▁Oo	-9.10969
▁waɗay	-9.11366
▁wowlu	-9.11404
▁nduu	-9.11472
nee	-9.11602
▁maayo	-9.11922
▁maayi	-9.12016
▁ruuhu	-9.12197
ete	-9.12288
▁moƴƴe	-9.12311
Mo	-9.12316
▁wuuri	-9.12412
▁Hiɗa	-9.1243
▁arsike	-9.12505
▁poomayanke	-9.12666
▁se	-9.12749
▁sulfu	-9.1284
▁pittaali	-9.12843
▁fiyaaku	-9.12997
▁-	-9.13074
▁wonɗon	-9.1325
▁ɲaam	-9.13631
naa	-9.13853
▁jibini	-9.14012
▁gomɗinii	-9.14256
▁jaab	-9.14347
Ɗum	-9.14434
▁Baab	-9.14812
laaji	-9.14824
▁bolondaa	-9.14926
▁Defte	-9.14932
▁Room	-9.14943
▁guluuje	-9.14987
▁heewi	-9.14998
▁Fi	-9.15102
▁bonɗi	-9.15127
oɗon	-9.15241
▁aaden	-9.15242
▁ŋalɗi	-9.15403
oyta	-9.15847
▁me	-9.15968
▁ɓeyngu	-9.16623
▁Ba	-9.16646
▁Anndi	-9.17079
▁goonguɓe	-9.17141
▁jey	-9.17166
▁goonɗinɓe	-9.17315
▁honɗum	-9.17336
▁wel	-9.17578
rii	-9.17738
▁Yim	-9.17859
anee	-9.18066
▁sikku	-9.18436
▁tawa	-9.18745
▁tamm	-9.18763
▁ja	-9.18871
▁wonay	-9.18873
▁Laati	-9.18919
▁bakkaatu	-9.18921
taako	-9.19004
▁W	-9.19068
▁seytaane	-9.19109
▁hoolaare	-9.19295
▁gundoo	-9.1933
▁Yuusufu	-9.19395
▁jannde	-9.19508
▁yahude	-9.19565
▁maayde	-9.19626
▁heddii	-9.19857
▁muuyi	-9.20228
▁bon	-9.20554
▁ɲaama	-9.20685
▁wuurir	-9.20688
ral	-9.21114
hanna	-9.21432
▁niwre	-9.21446
▁jurriya	-9.21447
▁njoddi	-9.21451
▁gomɗuɓe	-9.21456
▁golloton	-9.21468
eeji	-9.21474
▁Taw	-9.21723
▁wond	-9.21881
▁Muuyi	-9.22359
anaa	-9.22359
orde	-9.22407
▁mbaadi	-9.22879
▁heɓu	-9.22967
▁hend	-9.22967
gooto	-9.23012
ndude	-9.23026
gu	-9.23542
▁y	-9.23665
▁boobo	-9.2371
▁fodaari	-9.23735
▁faasiqiiɓe	-9.23764
▁noppi	-9.23879
▁fello	-9.23936
▁wonti	-9.23956
▁Har	-9.23995
▁moƴƴiri	-9.24041
▁moodi	-9.24096
▁neema	-9.24185
▁honɗ	-9.24428
▁Goonga	-9.24541
ndeeji	-9.24666
▁naɓi	-9.24696
▁he	-9.24703
s	-9.24757
▁Mbel	-9.24881
ama	-9.24944
Mi	-9.25031
▁laa	-9.25082
▁fawii	-9.25166
▁wowlan	-9.25394
iiya	-9.25719
irta	-9.25965
▁canɗi	-9.2607
▁Ɓi	-9.26085
▁Sinn	-9.26228
▁moƴƴuɓe	-9.26437
▁iw	-9.26461
▁miijo	-9.26501
t	-9.26605
▁ɲaametee	-9.26646
▁to	-9.26766
▁Hul	-9.26976
laat	-9.27018
▁lette	-9.27187
wol	-9.27544
▁wowl	-9.276
▁baali	-9.27708
uure	-9.284
▁kullii	-9.28436
▁annabaajo	-9.28498
▁Jooma	-9.28506
▁maggal	-9.28512
▁daande	-9.28672
▁kaalisi	-9.28949
▁nan	-9.28996
▁ba	-9.2904
ali	-9.29121
▁woori	-9.292
▁D	-9.29451
▁ne	-9.29487
▁yaadu	-9.29521
hi	-9.29801
do	-9.29914
▁ardi	-9.30042
▁wulaa	-9.30098
usa	-9.30129
▁tippud	-9.30474
▁kaafa	-9.30616
▁faa	-9.30655
▁sagalle	-9.30865
▁jawdi	-9.30872
▁weendu	-9.30882
▁Aljannaaji	-9.30889
▁laato	-9.30894
▁defte	-9.30948
▁gese	-9.31021
▁kaawake	-9.31048
▁wara	-9.31138
▁hiɗi	-9.31307
▁Lepte	-9.31363
▁niɓe	-9.31407
▁maraa	-9.31608
▁gand	-9.31952
▁hundu	-9.32031
▁yeddi	-9.32192
▁fa	-9.32691
▁ngoni	-9.32876
oɓe	-9.33358
▁kuugal	-9.33365
▁geece	-9.33366
▁laabi	-9.33409
▁lajal	-9.33437
▁kaa	-9.3364
▁ayɓe	-9.33658
▁Reweteeɗ	-9.33819
▁Bone	-9.33962
▁ɗofto	-9.3409
▁okki	-9.34192
▁ha	-9.34195
▁fawi	-9.34245
▁immi	-9.34252
▁Ɗ	-9.34255
▁hito	-9.34537
▁mbi	-9.3461
▁longini	-9.34625
uɗaa	-9.34756
▁dogi	-9.34766
aajo	-9.35131
▁su	-9.35175
▁hul	-9.35265
▁rew	-9.35402
▁waɗiri	-9.35533
▁heɓir	-9.35747
oji	-9.35752
▁Nanoowo	-9.35938
▁jertinoowo	-9.35955
▁ɓannguɗo	-9.36014
▁heɓaali	-9.36035
▁leɗɗe	-9.36064
▁dolokke	-9.36165
▁ki	-9.36215
▁waɗaali	-9.36341
▁fuɗɗ	-9.36377
ulu	-9.36615
▁haaju	-9.36841
oode	-9.36894
aande	-9.36915
▁ardu	-9.37017
▁hujja	-9.37056
▁wondunoo	-9.3709
ika	-9.37301
ano	-9.37404
▁ɓurɗ	-9.37498
▁fenni	-9.37757
▁Alaa	-9.3782
▁okkaa	-9.38215
▁yah	-9.38224
▁ga	-9.38232
▁koy	-9.38477
▁sirkooɓe	-9.38604
▁Yu	-9.38992
▁kene	-9.39111
▁Immo	-9.39358
▁faam	-9.39432
▁Daali	-9.39686
▁miijoo	-9.39951
▁hoɗo	-9.40015
▁ɓornii	-9.40237
▁tag	-9.40508
▁ndaara	-9.40533
▁ña	-9.40538
▁moƴƴan	-9.40801
▁humondiri	-9.40901
▁jeyi	-9.40991
▁fahin	-9.4133
▁imm	-9.41336
Enee	-9.41467
▁newnan	-9.41539
be	-9.41694
uɗon	-9.41764
▁ñaamo	-9.42221
▁acc	-9.42636
▁yewta	-9.42722
▁Israa	-9.4308
▁dambu	-9.43265
yaagal	-9.43427
▁sikka	-9.43546
▁te	-9.43609
▁jokk	-9.43901
▁jaɓ	-9.43954
▁keynguu	-9.44049
▁ballal	-9.44056
▁tedduɗo	-9.44087
▁ɓanngunde	-9.44122
▁bomɓe	-9.44125
▁Ɓural	-9.44133
▁Aadama	-9.44197
dude	-9.44268
▁jonni	-9.4448
▁waɗata	-9.44487
▁nguu	-9.44627
▁nodda	-9.44633
noɗon	-9.45112
▁aran	-9.45527
Ontuma	-9.45529
▁toon	-9.45766
▁yedduɗo	-9.46055
▁addani	-9.46092
▁Baalu	-9.46446
▁jippini	-9.46844
▁denndaangal	-9.46901
▁feccere	-9.46904
▁Taguɗo	-9.46936
tuusa	-9.46968
▁fiyaake	-9.47
▁mba	-9.47045
kun	-9.47101
▁Aaya	-9.47118
▁Yurmeende	-9.47124
▁Goɗɗ	-9.47201
▁faw	-9.47288
▁asewe	-9.47593
▁haɗi	-9.47863
▁sakko	-9.4792
▁bonɓe	-9.48235
▁yeɗi	-9.4834
▁nano	-9.48469
▁feɲɲinan	-9.4857
▁maccu	-9.48717
▁yiɗu	-9.48868
▁ɗaɓɓ	-9.49249
▁yiltiti	-9.49263
▁naat	-9.49288
▁junuubi	-9.49523
O	-9.4982
▁mbarjaari	-9.49911
▁toragol	-9.49937
▁laaɓuɓe	-9.49949
▁jaka	-9.50051
▁bonɗe	-9.50059
▁yiitere	-9.50078
too	-9.50099
▁fowtetee	-9.50117
▁nuli	-9.50119
▁Woni	-9.50184
▁andu	-9.50217
eeli	-9.50218
▁wowla	-9.5035
▁T	-9.50382
iɗɗo	-9.50432
utal	-9.50508
▁waɗir	-9.50552
▁ƴett	-9.50583
▁g	-9.50609
▁Aray	-9.50759
▁Anndu	-9.50777
▁Ha	-9.51
▁haal	-9.51124
baasi	-9.51148
▁rewru	-9.51167
▁bind	-9.51177
▁hannde	-9.5118
otee	-9.51462
▁yaari	-9.5154
▁ndii	-9.51584
bindi	-9.5184
▁koode	-9.52112
▁sakkitor	-9.52288
▁mbela	-9.5277
iiɗo	-9.52807
▁Humpitiiɗo	-9.52874
▁teemedere	-9.52885
▁seeditoore	-9.52893
▁winndere	-9.52903
▁colli	-9.52938
▁Iil	-9.52951
▁mayru	-9.52966
▁reweteeɗi	-9.52995
▁jinaa	-9.5308
▁Haray	-9.53089
iilayankee	-9.53205
▁arata	-9.53673
daasi	-9.53805
▁ndaari	-9.53819
▁wonaano	-9.54156
▁suka	-9.54208
▁Ɗi	-9.54299
▁ɗunɗo	-9.54358
▁ndaar	-9.54613
▁nayo	-9.54833
▁moƴƴ	-9.54881
▁Tim	-9.55393
▁yonii	-9.55631
▁cuɗaari	-9.55991
▁yenaande	-9.55993
▁Naasira	-9.55997
▁satteende	-9.56017
▁hormorde	-9.56054
▁yeesoojo	-9.56067
▁sanamuuji	-9.56151
▁yahugol	-9.56307
aaka	-9.56352
▁arunoo	-9.56473
▁Hiɗ	-9.56568
▁sera	-9.56835
▁G	-9.56933
▁jokkuɓe	-9.5714
▁p	-9.57226
▁feƴƴii	-9.574
▁ɓalli	-9.57504
▁waaj	-9.57613
ala	-9.57665
▁maaya	-9.57684
▁halki	-9.5769
iiɓe	-9.57701
ɗoo	-9.57882
▁feɲɲin	-9.5802
▁yiila	-9.58121
▁ballo	-9.58163
▁bonnere	-9.58229
aani	-9.58496
?!	-9.58626
▁wirnii	-9.58704
▁anndu	-9.58881
▁wuur	-9.58897
hun	-9.58932
▁yeddii	-9.59137
▁jahannama	-9.59215
▁wooturu	-9.59217
▁giiɗe	-9.59219
▁altindiraa	-9.59221
▁focciingol	-9.59222
gootooɓe	-9.5926
▁miskin	-9.593
▁joomiraaɓe	-9.59373
▁Lam	-9.59423
▁ɲaamu	-9.59429
▁fus	-9.59528
▁awdi	-9.59583
▁teddin	-9.59749
fennuɓe	-9.59801
ɗun	-9.60061
▁wur	-9.60118
."	-9.60567
Menen	-9.60606
▁mantor	-9.60869
▁soo	-9.60913
angal	-9.61322
▁anndude	-9.61369
wulu	-9.61432
raa	-9.61578
▁Ndaar	-9.61597
▁hiɗ	-9.61972
▁hare	-9.6203
▁mbatu	-9.62329
▁gasa	-9.62335
▁yaadi	-9.62337
▁gaa	-9.6247
iiji	-9.62523
▁aljanna	-9.62529
▁lebbi	-9.62545
▁baŋŋe	-9.62548
▁ñaawoore	-9.62636
▁laaɓal	-9.62654
▁oon	-9.62703
▁muuyani	-9.62782
▁ardotoo	-9.62788
▁firo	-9.62816
▁mise	-9.62826
▁Laa	-9.62885
▁Wan	-9.63017
▁mar	-9.63068
▁land	-9.63073
▁ɗoft	-9.63424
▁tan	-9.63582
▁dakamme	-9.6392
▁Jippini	-9.64072
▁fi	-9.64178
da	-9.64645
lla	-9.64992
▁ta	-9.65963
▁gaño	-9.65992
▁naata	-9.65995
▁neemoraaɗi	-9.66001
▁nooneeji	-9.66113
▁Reen	-9.6614
▁yaa	-9.66196
▁dewal	-9.66232
▁rewugol	-9.66268
ooji	-9.66284
▁faggitii	-9.66313
▁loot	-9.66471
otoo	-9.66859
oosi	-9.66934
oya	-9.66976
dugol	-9.66981
▁arani	-9.67071
▁go	-9.67145
▁yeɗa	-9.67294
▁faandii	-9.67325
▁laaɓi	-9.67719
▁furee	-9.67793
▁bum	-9.67824
▁jeeji	-9.67834
▁yeɗ	-9.6799
iya	-9.68254
▁yaltin	-9.68429
▁salmini	-9.68486
ngii	-9.68582
▁Na	-9.68684
uul	-9.68758
▁yeddot	-9.68789
▁hoɗu	-9.68802
▁heɓa	-9.68927
go	-9.69038
ewnii	-9.69125
▁annduɗo	-9.6945
▁Okki	-9.69544
▁Annabaajo	-9.69567
▁Bimbi	-9.69568
▁fittaandu	-9.6957
▁pewje	-9.69583
▁juulirɗe	-9.69623
▁muuɗum	-9.69654
▁fenooɓe	-9.69666
▁ɗuuɗuɗi	-9.69691
▁jiyaaɗo	-9.69693
▁ɗuuɗuɗo	-9.69703
▁keeferaaku	-9.69746
▁Hinnorante	-9.69746
▁Fe	-9.69771
▁wowli	-9.69852
▁suɓii	-9.69985
▁nodd	-9.6999
▁sen	-9.70068
ankaaku	-9.70211
▁do	-9.70244
fii	-9.70278
▁laatinoo	-9.70311
▁haanaa	-9.70425
▁pucci	-9.70805
▁ontuma	-9.70871
▁sella	-9.7095
▁yahu	-9.71105
▁yottin	-9.71176
▁tiiɗund	-9.71406
▁da	-9.71446
▁addan	-9.71508
▁anndin	-9.71567
▁Yi	-9.71582
iɗo	-9.71821
▁yeɗaa	-9.72298
aɓe	-9.72316
▁ngam	-9.72363
▁watti	-9.7237
▁ɗaɓɓa	-9.72383
▁heɓay	-9.72466
▁jogitii	-9.72589
▁ronki	-9.72642
▁tanƴini	-9.72923
▁fo	-9.73073
On	-9.73152
▁foti	-9.73209
▁Misira	-9.73256
▁heege	-9.73259
▁gollaynoo	-9.73292
▁laakun	-9.73293
▁Yurmeteeɗo	-9.73294
▁ɲaw	-9.73307
▁Seytaane	-9.73357
▁Laamu	-9.73359
▁Sulaymaana	-9.73455
▁sunninaa	-9.73549
▁guri	-9.73571
amiina	-9.736
▁jeegoo	-9.73607
▁yedd	-9.73761
▁warugol	-9.73804
▁kurkaa	-9.73833
▁dokk	-9.73913
▁waajo	-9.73959
raali	-9.74082
▁Yawtan	-9.74107
!".	-9.74114
iree	-9.7421
▁naatu	-9.74461
welo	-9.7455
▁fe	-9.7456
ije	-9.74658
▁ɓii	-9.7493
makko	-9.7495
taake	-9.74996
▁co	-9.75037
▁maaku	-9.7504
▁yaltini	-9.75279
▁tawdaa	-9.7545
▁aroyay	-9.75634
▁lutti	-9.75665
▁jogito	-9.75711
▁wonunoo	-9.75846
tooɗo	-9.76051
▁moft	-9.76212
tooɓe	-9.76474
▁han	-9.76707
▁wonndi	-9.76748
▁dand	-9.7675
ayɓe	-9.76869
d	-9.76897
nge	-9.76961
▁barki	-9.76985
ey	-9.77007
▁genaale	-9.771
▁Taalibaa	-9.77102
▁senngo	-9.7712
▁wakkilaare	-9.77124
▁bunɗo	-9.77139
▁Maryama	-9.77153
▁ila	-9.7716
▁ɗoftike	-9.77175
▁suddiiɓe	-9.77246
▁Haaruuna	-9.77308
▁ngoo	-9.77321
▁mawndi	-9.77353
▁liƴƴ	-9.77394
▁moƴƴinooɓe	-9.77469
▁gomɗintaa	-9.77518
▁joganii	-9.77535
tagol	-9.77647
▁bonɗo	-9.77708
▁Wi	-9.77771
▁Nul	-9.78185
▁njan	-9.78407
▁sariya	-9.78496
▁yamiroo	-9.78728
▁huutor	-9.78865
▁war	-9.79054
iraaɓe	-9.79233
▁njeeɗiɗo	-9.79258
▁anniyee	-9.79428
▁Eeh	-9.79502
▁annabi	-9.79661
▁immintin	-9.79727
▁ard	-9.8002
atah	-9.80082
▁Fili	-9.8009
▁mbii	-9.80365
▁addanii	-9.80375
usiɓɓe	-9.80476
▁Lanɗ	-9.80754
▁Masedoni	-9.81099
▁pellital	-9.81101
▁mbawdi	-9.81103
▁kiikiiɗe	-9.81103
▁hitaande	-9.81112
▁Yuusufa	-9.81116
▁gaɗa	-9.81118
▁duŋayee	-9.81123
▁nelaaɗo	-9.81125
▁arsiki	-9.81152
▁Annabiijo	-9.8121
▁hayruɓe	-9.81221
▁Konngol	-9.8124
▁hulooɓe	-9.81241
▁waawaali	-9.81257
▁jippin	-9.81271
▁duule	-9.81276
▁makkun	-9.8129
▁majjuɓe	-9.81292
▁d	-9.81315
▁yottingol	-9.8133
iyii	-9.81395
▁ɓurti	-9.81505
▁galleej	-9.81528
▁yaasi	-9.81547
▁andunoo	-9.81675
ɗan	-9.81699
▁yewtu	-9.81824
taare	-9.82035
▁malaaɓe	-9.82102
yo	-9.82148
▁hand	-9.82172
▁woɗɗitii	-9.82486
▁himme	-9.82514
▁fodi	-9.8258
▁yara	-9.82648
▁jikku	-9.82653
▁reedu	-9.82775
▁hawri	-9.82807
eɓe	-9.82859
koɗooli	-9.82935
▁faamude	-9.83067
uuna	-9.83219
▁yewti	-9.83598
▁Fewn	-9.83649
uru	-9.83792
▁noon	-9.83888
▁janfa	-9.83945
▁dar	-9.83963
▁les	-9.84068
▁reen	-9.8407
▁rewa	-9.84075
▁suno	-9.84144
uuji	-9.84154
oyte	-9.84156
▁heewu	-9.842
▁nd	-9.84318
irnoo	-9.84326
▁holli	-9.84372
▁welo	-9.84526
▁neeɓi	-9.84667
▁Mbo	-9.84747
▁itti	-9.84803
annoo	-9.84819
▁waru	-9.84925
▁Ho	-9.84937
▁jippinaa	-9.85035
▁hum	-9.85131
▁golla	-9.8521
▁nanngi	-9.85247
▁caggal	-9.85273
▁duumotooɓe	-9.85277
▁henndu	-9.85298
▁nunɗal	-9.85303
Wat	-9.85331
▁Alah	-9.85373
▁tere	-9.85375
▁inɗe	-9.85397
▁woondoore	-9.85397
▁naafiqiiɓe	-9.85494
▁Senayee	-9.85819
▁bewre	-9.85867
▁moƴƴa	-9.85875
▁koneeli	-9.86043
▁waaw	-9.8607
▁ɗ	-9.86141
▁araali	-9.86169
▁fuɗɗii	-9.86481
w	-9.86614
▁ɗowdi	-9.86775
▁yewt	-9.86779
▁anditi	-9.86861
▁waɗunoo	-9.86906
▁ron	-9.86911
▁l	-9.86963
▁ñaame	-9.87072
▁jan	-9.87127
▁fee	-9.87138
lorma	-9.8714
aano	-9.87208
▁yalta	-9.87223
▁ɲ	-9.87256
▁sa	-9.87269
▁Jamaa	-9.87278
▁Ar	-9.87559
▁gollata	-9.8806
▁Bal	-9.88161
▁hewtoyi	-9.88269
▁hollu	-9.8837
rdu	-9.88384
▁timmu	-9.88441
▁jaa	-9.88463
ron	-9.88546
▁hoor	-9.88638
▁Yahu	-9.88697
▁wela	-9.88931
▁sujjan	-9.88964
▁majjini	-9.8901
▁haɗa	-9.89222
▁Dand	-9.89302
▁weltor	-9.89444
’	-9.89614
▁mbilewu	-9.89615
▁jarduk	-9.89619
▁annoora	-9.89627
▁Laawol	-9.89628
▁yeddondiral	-9.89685
▁kulle	-9.89697
▁gootal	-9.89748
▁bonnooɓe	-9.89767
▁rewooɓe	-9.89799
▁Giɗo	-9.89833
▁laaɓuɗi	-9.89859
▁mawɗe	-9.89927
▁heewuɗo	-9.90032
▁Gi	-9.90154
▁Gereekiyankee	-9.90172
▁andee	-9.9019
▁daalani	-9.9028
▁Janto	-9.90294
irde	-9.90502
ɗam	-9.90529
koy	-9.90554
nay	-9.90579
▁yett	-9.90762
ttudi	-9.90819
oyto	-9.90918
eteende	-9.90921
▁tooñe	-9.90955
Alqur	-9.91514
▁ƴi	-9.91563
▁laɓɓin	-9.91651
▁waɗitii	-9.91654
▁sikki	-9.91808
ora	-9.91847
▁Ñal	-9.92067
abaajo	-9.92102
▁lew	-9.92143
▁tooñ	-9.92386
ndori	-9.92394
▁jo	-9.9244
▁ɗoftii	-9.92458
▁immo	-9.92496
nno	-9.92687
▁rutt	-9.92727
▁feewi	-9.92736
▁laawi	-9.92766
▁yaltina	-9.92839
▁yamiraa	-9.92961
▁hen	-9.92984
▁firi	-9.93158
unooɓe	-9.93514
▁jogor	-9.93752
▁daal	-9.93775
▁wonata	-9.93782
▁yiɗir	-9.94074
▁noogay	-9.9416
▁adadu	-9.94162
▁Luutu	-9.94168
▁teewu	-9.94169
▁ɗatal	-9.94177
▁mawnin	-9.94183
▁duulere	-9.94217
▁coggu	-9.94227
▁hakkil	-9.9424
▁gollooɓe	-9.94254
▁alah	-9.94261
▁mantoore	-9.94285
▁jebbiliiɓe	-9.94292
▁teddude	-9.94297
▁lampu	-9.94298
▁wirniiɗi	-9.94341
▁Annabaaɓe	-9.94356
▁hewt	-9.94356
▁wuuru	-9.94383
ombo	-9.94516
▁timmin	-9.94529
▁salii	-9.94651
▁wat	-9.94675
!"	-9.94763
▁layyor	-9.94835
▁taguɗo	-9.94851
▁toɓo	-9.94878
▁Nge	-9.94991
▁timmi	-9.95122
gii	-9.95145
▁maayataa	-9.95189
▁re	-9.95199
▁Kere	-9.95273
▁goonɗin	-9.95565
▁hooti	-9.95592
▁hool	-9.95627
▁toro	-9.9564
▁nul	-9.95652
▁immintini	-9.95807
▁tentini	-9.95927
▁jonn	-9.9593
Hara	-9.96145
atike	-9.96154
▁wonir	-9.96359
▁waaway	-9.96377
▁laator	-9.96394
▁wakkilini	-9.96476
wi	-9.96515
▁wonduɓe	-9.96523
▁fennii	-9.9658
▁naatir	-9.96601
▁Fil	-9.96639
▁ƴawi	-9.96646
▁wonira	-9.96745
▁faalira	-9.96801
▁moƴƴini	-9.9682
kuru	-9.9692
mbere	-9.97134
▁fitina	-9.97194
▁Jippinaa	-9.97369
▁weltori	-9.97431
▁wowlata	-9.97587
▁kurkaaduu	-9.97773
▁taway	-9.97916
A	-9.98084
▁jiccii	-9.98228
ingol	-9.98563
▁ella	-9.98731
▁hol	-9.98778
▁nawliigu	-9.98922
▁jeetati	-9.98922
▁bimmbi	-9.98922
▁tutateeri	-9.98922
▁ƴibbe	-9.98923
▁ɓoggi	-9.98924
▁yaafuyee	-9.98927
▁ɓanngannduyeeji	-9.98955
um	-9.98963
▁toraa	-9.99091
▁seeɗaaɓe	-9.99098
▁waree	-9.99192
▁goɗɗ	-9.99246
are	-9.99414
▁miran	-9.99433
▁rewude	-9.99439
▁ittugol	-9.99452
▁arma	-9.99475
▁waɗuɗo	-9.99662
▁wari	-9.99676
rnoo	-9.9979
▁laaɗe	-9.99803
▁suuɗii	-9.99811
▁Hey	-9.99888
▁hittuɗ	-9.99948
▁jaŋtaa	-10.0013
▁heɓataa	-10.0018
anooki	-10.0031
oyi	-10.0032
▁rim	-10.0034
▁jogitor	-10.0043
▁marɗo	-10.0044
naaki	-10.0045
▁ngalu	-10.005
▁jiyaa	-10.0069
▁okkor	-10.0069
uɗi	-10.0071
▁be	-10.0088
ssaaq	-10.0096
▁maanaa	-10.0109
Arma	-10.0115
Anndee	-10.0127
▁wowlee	-10.0129
]:	-10.0131
▁okkii	-10.0135
▁Yaa	-10.0136
unde	-10.0137
tah	-10.0158
▁pet	-10.0163
▁ji	-10.0166
▁Kam	-10.0167
▁waɗana	-10.0171
indiri	-10.0181
daa	-10.0183
▁wall	-10.0188
▁naatata	-10.021
ɗa	-10.0221
ewndo	-10.024
▁duumii	-10.0249
▁iwruɗo	-10.0251
▁ɓanti	-10.0263
▁kul	-10.0315
▁wakkilin	-10.034
▁felliti	-10.0354
▁sokol	-10.0354
▁joomi	-10.0359
▁mehi	-10.0362
▁fewjoo	-10.038
▁yahay	-10.0381
▁ɓeyd	-10.0383
▁geɗal	-10.0392
▁masiibo	-10.0392
▁eɓɓoore	-10.0394
▁Hattanɗo	-10.0395
▁kuddi	-10.0395
▁ɗate	-10.0404
▁subaka	-10.0405
▁nowru	-10.0407
▁rewoton	-10.0407
▁yewtere	-10.041
▁accu	-10.041
noowo	-10.0414
▁angiri	-10.0417
▁heɓira	-10.0418
▁fof	-10.0419
▁suɓaaɓe	-10.042
▁yaaru	-10.0435
▁Aaz	-10.0439
▁L	-10.044
▁jang	-10.044
▁gomɗinaali	-10.0443
▁ɗiɗooɓe	-10.0443
otooɗo	-10.0443
▁moƴƴal	-10.0466
▁mawnintinii	-10.0478
ebbo	-10.0483
▁Wuur	-10.0486
▁feeɲani	-10.0493
▁hawroy	-10.0505
▁tori	-10.0507
▁ɓata	-10.0517
▁bo	-10.052
otooɓe	-10.052
▁hakkee	-10.0525
ba	-10.0534
▁dew	-10.0536
▁fool	-10.0539
▁Ɲa	-10.0544
▁ng	-10.0544
▁waɗtita	-10.0548
▁tipp	-10.0549
▁tooɲ	-10.0553
▁Wonaa	-10.056
▁gollir	-10.0588
ipu	-10.0596
reeji	-10.0599
▁mawni	-10.0599
▁jammaa	-10.0601
▁niɓɓi	-10.0603
▁laatoo	-10.0609
nndo	-10.0616
▁andir	-10.0622
▁jam	-10.0622
▁wonann	-10.0628
▁waɗaynoo	-10.0668
rta	-10.067
▁meɗ	-10.0679
oyii	-10.0694
▁jarni	-10.0705
▁bandiraa	-10.0706
▁pe	-10.0712
imɓe	-10.0713
▁waɗanii	-10.0716
▁yaltu	-10.0718
▁feeɲi	-10.0722
▁bi	-10.0723
▁annde	-10.0748
▁janan	-10.0748
▁bonn	-10.0757
▁ter	-10.0759
kiiji	-10.0759
▁c	-10.0763
iraa	-10.077
▁taƴiti	-10.0773
▁nun	-10.0779
aaya	-10.079
▁heɓ	-10.0804
▁yar	-10.0856
itii	-10.0858
k	-10.0863
ndugol	-10.0877
▁yamirii	-10.0878
▁fewnata	-10.0881
▁woondir	-10.0888
rude	-10.0909
▁nafakka	-10.0919
▁koyɗol	-10.0919
▁ñalngu	-10.0919
▁hasboore	-10.0919
▁Fodoore	-10.0919
▁ɓadaade	-10.092
▁dimɗe	-10.0921
▁Maaɗa	-10.0925
▁wallooɓe	-10.0926
▁laaɓunde	-10.0926
▁tawaa	-10.0927
findee	-10.0927
▁hulataa	-10.0931
Fello	-10.0932
ku	-10.0933
▁muññiiɓe	-10.0934
▁Mawɗo	-10.0936
▁faala	-10.0938
▁weelaa	-10.0939
▁Banii	-10.0941
▁Yeddu	-10.0941
▁laaɓuɗo	-10.0944
▁faalaɗon	-10.0944
▁Ta	-10.0948
▁boneeji	-10.0948
▁maggii	-10.0949
▁tawɗo	-10.095
▁gomɗinooɓe	-10.0951
▁dandu	-10.0954
▁gomɗi	-10.0954
▁tageefo	-10.0966
▁nanude	-10.0986
▁huccitii	-10.0999
▁nawni	-10.1019
elajo	-10.1032
▁wonndema	-10.1035
▁jokka	-10.1051
▁arano	-10.1071
▁himm	-10.1082
▁yahata	-10.1087
ina	-10.1093
▁Ndee	-10.1115
▁humpitii	-10.1116
▁ɓurɗe	-10.1142
lepte	-10.1146
nabaa	-10.1163
Muusaa	-10.1165
▁payk	-10.1166
▁La	-10.1187
▁mofta	-10.1187
ammi	-10.1191
▁sel	-10.1192
maɓɓe	-10.1193
▁ya	-10.1193
f	-10.1205
▁ardii	-10.1209
ndondi	-10.1222
▁habbi	-10.1222
▁jaɓi	-10.1243
▁bel	-10.1249
▁fodd	-10.1261
iipu	-10.1276
▁maayu	-10.128
▁wonanay	-10.1287
▁fewni	-10.1293
▁wonɗe	-10.1294
▁waɗaa	-10.1295
▁De	-10.1301
▁Hina	-10.1314
▁keyee	-10.132
mon	-10.1322
▁annda	-10.1325
▁fel	-10.1342
▁cal	-10.1344
▁taƴa	-10.1351
unoɗon	-10.1369
▁tabiti	-10.1382
▁moƴƴin	-10.1383
▁Anti	-10.1388
▁aroyi	-10.1389
▁moƴƴu	-10.1391
▁jeenay	-10.1394
pa	-10.1397
▁maadi	-10.1399
▁andin	-10.1399
▁wattan	-10.1417
▁Ast	-10.1418
▁halfinaa	-10.1435
▁fot	-10.1456
▁sunnine	-10.1464
?".	-10.1465
▁de	-10.1465
▁mbullaari	-10.1474
▁Damaasi	-10.1474
▁gollaynoɗon	-10.1474
▁ɓabbe	-10.1475
▁abbere	-10.1475
▁ñalawma	-10.1477
▁ngelooba	-10.1477
▁noddaandu	-10.1477
▁ɗoftaare	-10.1478
▁mbileejo	-10.1479
▁batte	-10.1479
▁Ñeeño	-10.148
▁gabbe	-10.1481
▁gire	-10.1484
▁golloowo	-10.1485
▁baafal	-10.149
▁koyeera	-10.149
▁muñal	-10.1491
▁welsindiiɓe	-10.1494
▁talan	-10.1495
▁ɗoftagol	-10.1496
▁yeɗii	-10.1496
▁bonnugol	-10.1499
▁tampi	-10.1513
▁mawngal	-10.1514
wto	-10.1515
▁Hannde	-10.1517
▁ɓeydi	-10.1547
▁Zab	-10.1547
▁wooto	-10.1548
▁juulir	-10.1551
▁kibaaru	-10.1561
▁hoyn	-10.1569
▁tu	-10.1575
▁nanu	-10.1579
▁newanii	-10.1581
▁jomba	-10.1588
oytaa	-10.1589
▁Salminan	-10.159
▁jaɓu	-10.1598
▁yamira	-10.1599
▁ƴettu	-10.1602
▁seed	-10.1602
▁dii	-10.1602
▁yahaa	-10.1613
▁aani	-10.1619
ondiral	-10.1626
▁fewna	-10.164
▁ɓangin	-10.1641
▁Feewu	-10.1646
▁maayɓe	-10.1647
Ee	-10.1652
▁Sa	-10.1656
mba	-10.1662
▁hoɗ	-10.1666
▁jogit	-10.1669
ga	-10.1676
▁nafataa	-10.1685
▁toɗɗi	-10.1699
▁tiiɗu	-10.1706
▁yedda	-10.1709
▁ƴantoo	-10.1711
woo	-10.1711
▁tew	-10.1733
▁faalanoo	-10.1754
ɗɗo	-10.1754
▁ñaama	-10.1755
iti	-10.176
non	-10.1766
▁ngaynaako	-10.1791
▁laatora	-10.1831
▁rewi	-10.1837
▁jertin	-10.1844
▁hittu	-10.186
▁majjii	-10.1868
▁Gomɗin	-10.1873
aatu	-10.1897
▁itta	-10.1898
▁laam	-10.1946
▁woondira	-10.1954
▁Ɓa	-10.1957
▁Too	-10.196
ereeji	-10.1977
uno	-10.1994
▁laaɓ	-10.2018
▁ittu	-10.2027
▁luttoo	-10.2028
▁may	-10.2033
▁makki	-10.206
▁Yur	-10.2061
▁funnaange	-10.2062
▁Efeesi	-10.2062
▁ɓanndinke	-10.2062
▁muuseendi	-10.2062
▁Seezariiya	-10.2062
▁sanne	-10.2063
▁meetelol	-10.2063
▁hoodere	-10.2063
▁liital	-10.2063
▁toɓɓere	-10.2064
▁remooɓe	-10.2064
▁weldiiɓe	-10.2065
▁dinaruu	-10.2066
▁haqqiltaa	-10.2066
▁saɗtuɗe	-10.2069
▁heeranii	-10.2071
▁tippir	-10.2073
▁adda	-10.2075
▁Miim	-10.2075
ayeeje	-10.2083
▁nanataa	-10.2083
▁Nulu	-10.2085
▁werlii	-10.2088
▁gollude	-10.2091
▁Mariya	-10.2091
▁Gooto	-10.2092
▁hollugol	-10.2095
▁rewata	-10.2099
▁toode	-10.2107
▁waɗooɓe	-10.212
▁bugii	-10.2121
▁galo	-10.2122
▁dimo	-10.2124
▁leyɗe	-10.2128
▁tiiɗude	-10.2134
▁Tii	-10.2136
▁okk	-10.2152
▁anndon	-10.2158
▁ɗiya	-10.2171
▁ñaam	-10.2178
▁fewn	-10.2185
loore	-10.2194
▁Kaf	-10.2199
▁nganndi	-10.22
▁junuubankee	-10.2204
▁heɗ	-10.2216
nugol	-10.2221
▁jibinaa	-10.223
▁maakani	-10.2231
▁hoyna	-10.2237
▁goongo	-10.2241
Ɓe	-10.2251
▁wahayini	-10.2257
▁taa	-10.227
taaki	-10.2279
▁tuggo	-10.2281
▁jaɓii	-10.2285
▁arda	-10.2291
▁ɗu	-10.2293
▁lamndo	-10.2304
▁acca	-10.2305
▁nanunoo	-10.2308
▁junuubanke	-10.2316
▁junngo	-10.2322
▁sankaa	-10.2324
▁itt	-10.2325
▁laɓɓina	-10.2328
▁wayl	-10.2328
▁acciti	-10.2328
▁jeyanoo	-10.2332
▁joginoo	-10.2335
▁ɲaami	-10.2336
▁yurmaa	-10.2336
▁tooñi	-10.234
Allah	-10.2343
▁yalt	-10.2348
▁sellina	-10.2367
▁Winnd	-10.2369
▁fewndiiɗ	-10.2373
aango	-10.2378
▁timma	-10.2383
Gomɗii	-10.2393
hu	-10.2395
jiwɓe	-10.2398
▁naɓa	-10.2402
▁mottondiri	-10.2403
rɗe	-10.2422
▁jogiti	-10.2425
▁watta	-10.2431
▁fu	-10.2444
▁jogori	-10.2445
▁immintinee	-10.2452
masiihu	-10.2483
oɗaa	-10.249
eten	-10.2511
▁yiiru	-10.2524
▁jaɓuɗo	-10.2527
▁ye	-10.253
tataa	-10.2531
▁ɗenngal	-10.2543
yaaɓe	-10.2544
▁anndee	-10.2548
▁jal	-10.2558
▁En	-10.2564
▁baki	-10.2565
▁add	-10.2571
▁waɗataa	-10.2594
ori	-10.2595
hoore	-10.2597
▁tata	-10.2616
▁ɲalla	-10.2624
yee	-10.2633
▁nafata	-10.2644
▁hersa	-10.2657
▁yeey	-10.2662
naali	-10.2668
▁darn	-10.2669
taade	-10.2671
▁tippii	-10.2678
▁haanuɗ	-10.2685
▁ɲokondo	-10.2687
▁miɲɲiraa	-10.2687
▁Yuunusa	-10.2687
▁buruure	-10.2687
▁ladde	-10.2688
▁loopal	-10.2689
▁Peewal	-10.269
▁fetere	-10.269
▁murtal	-10.2691
▁ñaametee	-10.2691
▁weeyo	-10.2692
▁deedi	-10.2696
▁ɓannguɗe	-10.2696
▁fanɗude	-10.2697
▁goote	-10.2698
▁dame	-10.2699
▁paɗe	-10.2703
▁moƴƴuɗi	-10.2704
heɓugol	-10.2706
▁sattuɗe	-10.2707
▁cemmbe	-10.2711
▁feddeeji	-10.2715
▁goɗɗum	-10.2716
▁gonɗi	-10.2717
▁juulde	-10.2718
▁laamɗo	-10.2719
▁siforii	-10.2719
▁hoolii	-10.2721
▁yaltugol	-10.2724
▁ɲaawir	-10.2725
▁Baw	-10.2726
▁fanɗi	-10.273
▁jog	-10.2732
▁iwdi	-10.2732
▁timm	-10.2738
ahuum	-10.2742
▁yooli	-10.2744
▁haanunoo	-10.2747
▁konu	-10.2752
▁Yah	-10.2755
▁ngaluuji	-10.2758
▁waalii	-10.276
▁In	-10.2763
▁janna	-10.2765
▁janani	-10.2772
▁gay	-10.2778
▁toŋan	-10.2779
▁nang	-10.2787
▁maamiraa	-10.2788
▁heedo	-10.28
suddiiɗo	-10.2803
▁haɗata	-10.2807
laasi	-10.2817
▁hayfin	-10.2818
▁windan	-10.2829
▁aade	-10.283
▁happu	-10.2836
▁daɗndi	-10.284
▁tiiɗ	-10.2849
▁tagir	-10.2852
▁udditii	-10.286
▁hendi	-10.2867
▁miij	-10.2872
▁tippi	-10.2877
eejo	-10.2877
▁fottir	-10.2885
▁alba	-10.2889
lugol	-10.2904
▁hatonjin	-10.2908
▁hendii	-10.2917
▁jeye	-10.2919
▁bonki	-10.2922
▁Su	-10.2926
ern	-10.2929
heɓude	-10.2944
▁eɓɓan	-10.2956
▁mban	-10.296
▁jonnaa	-10.2968
▁njow	-10.2976
▁feɲɲinanaa	-10.2978
▁Jo	-10.2988
anoo	-10.2995
▁wulla	-10.3017
▁hollay	-10.3017
▁feeñi	-10.303
saaya	-10.3031
▁sellini	-10.3049
▁yaltata	-10.305
▁hawti	-10.3053
▁laaɓaa	-10.306
▁ƴetta	-10.3064
▁meemu	-10.3068
▁tamp	-10.3069
▁joge	-10.3075
▁warir	-10.3088
▁jannu	-10.3089
ƴe	-10.3103
▁tumb	-10.3113
▁jogoree	-10.3122
▁hanno	-10.313
▁arti	-10.3131
▁yan	-10.3133
▁danndi	-10.3141
▁doga	-10.3147
▁feƴƴ	-10.3163
▁miiji	-10.317
▁hu	-10.3187
aawu	-10.3187
eeɓe	-10.3195
▁Maande	-10.3199
eppe	-10.3199
▁nandolla	-10.3202
▁manta	-10.3205
▁ɗaanii	-10.3207
iwol	-10.3211
▁ndeen	-10.3219
▁wul	-10.322
wa	-10.3224
▁tuubu	-10.3231
▁wowlani	-10.3252
▁Me	-10.3261
▁inni	-10.3273
▁seer	-10.3281
dayn	-10.3283
▁jokkay	-10.3286
▁feɲɲinani	-10.3288
b	-10.3296
ray	-10.3303
bi	-10.3307
▁ɓoylii	-10.3309
▁yaltii	-10.331
▁Sab	-10.3314
▁Yahe	-10.333
anay	-10.3337
▁wontir	-10.3342
▁jarrabuyee	-10.3354
▁curki	-10.3354
▁ɗemngal	-10.3354
▁ngayngu	-10.3354
▁newaare	-10.3355
▁ngujjo	-10.3356
▁nawnuɓe	-10.3357
▁noddaa	-10.3357
▁nanuɗo	-10.3358
▁bagi	-10.3358
el	-10.3359
▁waɗirani	-10.336
▁Tedduɗo	-10.3362
▁ñiiɓirde	-10.3363
▁baaso	-10.3364
duusi	-10.3367
▁sonnaajo	-10.3371
▁bajjo	-10.3371
▁pankare	-10.3373
ɗuɗo	-10.3376
▁miile	-10.3378
▁toraare	-10.3382
▁immintinaa	-10.3384
▁Yiɗi	-10.3389
▁saanga	-10.339
▁nanɗe	-10.339
mbo	-10.3391
▁Samuuda	-10.3399
▁woodan	-10.3407
▁juulɓe	-10.3417
▁hattanɗo	-10.3422
▁mant	-10.3423
▁ittiri	-10.3424
▁iwruɗ	-10.3429
yimɓe	-10.343
ndike	-10.3434
▁jojji	-10.3438
immii	-10.3439
▁seeditii	-10.3446
▁fawa	-10.3448
▁weltii	-10.345
▁mbuuɗ	-10.3453
▁ñiiɓ	-10.3466
▁jibin	-10.3479
▁wuro	-10.3482
▁heɗii	-10.3482
▁woondii	-10.349
▁Aadi	-10.3501
▁hun	-10.3503
▁waawuɗo	-10.3508
Magad	-10.3511
aaku	-10.3513
▁meemi	-10.3514
▁rewu	-10.3518
▁Tawreeta	-10.3524
▁daneej	-10.3525
▁faami	-10.3536
▁hibbi	-10.3547
▁Arsi	-10.3568
▁hewtini	-10.3571
▁yaad	-10.3572
▁hulee	-10.3576
aaɗi	-10.3579
▁tawoyi	-10.3583
▁hoyre	-10.3589
▁yiɗiri	-10.3591
▁naf	-10.3602
▁ɓuru	-10.3615
▁udditi	-10.3619
▁junuubankeej	-10.3623
aɗi	-10.363
▁mottondir	-10.3661
▁heɓantaa	-10.3661
▁weltin	-10.3662
uudu	-10.3665
ha	-10.3678
itagol	-10.3684
tere	-10.3686
▁ɗaɓɓir	-10.3693
▁nawnaa	-10.3694
▁rewataa	-10.3714
Isra	-10.3721
oytee	-10.3722
▁feƴƴi	-10.3723
▁naɓ	-10.3743
▁waawir	-10.3747
▁Woodani	-10.375
yoo	-10.3752
ɗɗe	-10.3761
▁tagaa	-10.3768
▁lanndo	-10.377
▁Rew	-10.3802
▁mooɓa	-10.381
▁hitti	-10.3811
aje	-10.3812
ɓ	-10.382
▁Laat	-10.3822
ɲol	-10.3829
ddii	-10.3829
ade	-10.3834
▁Hol	-10.3846
▁fonti	-10.386
▁heɓiri	-10.3871
▁tagiri	-10.3898
bbo	-10.3909
ƴorde	-10.3927
▁jiɓi	-10.3941
Aad	-10.3984
▁ɓulli	-10.3986
▁fuɗɗi	-10.3988
▁al	-10.3989
▁nodditi	-10.399
▁Sad	-10.3992
▁pa	-10.3995
▁seeditan	-10.4
▁ŋaɲɲaa	-10.4011
▁heew	-10.4011
▁teeme	-10.4012
▁faabo	-10.4028
ari	-10.4033
teeɗo	-10.4035
toɗon	-10.4038
▁Jaɓ	-10.4061
▁Zakariyaa	-10.4068
▁jiiɓoldu	-10.4068
▁hirnaange	-10.4068
▁ngawri	-10.4068
▁mawnintinaare	-10.4069
▁wuyɓe	-10.4069
:"	-10.4069
▁mbatulaajo	-10.4069
▁jiiɓaare	-10.407
▁gorol	-10.4072
▁ndarndagol	-10.4072
▁Ado	-10.4073
tal	-10.4073
▁haacaango	-10.4075
▁ƴoyre	-10.4075
▁geddi	-10.4075
▁mokobaa	-10.4075
▁feloore	-10.4076
▁alɗuɓe	-10.4076
▁maggol	-10.4078
▁hawrondir	-10.408
▁fewnoowo	-10.4083
▁ɗuuɗuɗe	-10.4084
▁penaale	-10.4084
▁limoore	-10.4086
▁ngaari	-10.4086
▁aranun	-10.4089
▁annd	-10.4091
▁yiltito	-10.4095
▁jalnori	-10.4096
▁yiɗuɗo	-10.4099
▁hing	-10.4108
▁faamataa	-10.4117
▁Muñño	-10.4118
▁tooñude	-10.4122
▁goopi	-10.4124
▁yeddugol	-10.4131
▁jaaboo	-10.4138
▁goongaaj	-10.4143
▁sujjani	-10.4145
▁wonɗ	-10.4149
▁Lewi	-10.4151
mu	-10.4153
ndo	-10.4162
▁musiɗ	-10.4166
▁taƴ	-10.4173
▁suuɗ	-10.4175
▁dartii	-10.4175
ow	-10.4182
▁saatin	-10.4184
▁woɗɗito	-10.4185
hiima	-10.4188
▁hawr	-10.4191
▁ƴettaa	-10.4194
▁hattantaa	-10.4197
▁yiltit	-10.4209
▁Za	-10.4212
▁Ngol	-10.4226
▁sunna	-10.4228
▁fuɗi	-10.4242
▁Fo	-10.4245
▁woll	-10.4248
▁yankinan	-10.4251
lo	-10.4262
Siri	-10.4269
oto	-10.4271
▁selli	-10.4282
▁annduɓe	-10.429
▁suu	-10.429
▁seeditaa	-10.4293
▁goongin	-10.4319
▁laaɓir	-10.4334
▁laamii	-10.4347
▁Ñala	-10.4368
▁waraa	-10.4376
▁ɲii	-10.4383
▁ɗuurno	-10.4385
▁waajotoo	-10.4392
▁yaafo	-10.4393
tun	-10.4396
▁rewird	-10.4407
▁heɓoyay	-10.4427
▁sujji	-10.4428
▁hollii	-10.4433
yre	-10.4434
▁bak	-10.4438
▁sorti	-10.4451
uuru	-10.4474
nike	-10.4489
▁maakan	-10.4511
▁windani	-10.4517
▁huɗo	-10.4523
▁nanngiri	-10.4523
ireedi	-10.4532
▁ɲaamata	-10.4538
▁laatan	-10.4551
▁waajaa	-10.456
▁laaɓa	-10.4564
▁jaɓan	-10.4576
▁darni	-10.4585
▁hundi	-10.4587
▁cukk	-10.4588
reedu	-10.4588
▁piyi	-10.4601
▁C	-10.4608
▁fes	-10.4624
▁Baa	-10.4634
▁sooƴ	-10.4638
Ndee	-10.4643
lii	-10.4648
uɗe	-10.4655
▁Waɗ	-10.4672
iino	-10.4679
▁holl	-10.4683
▁waɗee	-10.4686
▁nana	-10.4704
▁Isma	-10.4705
▁woɗɗi	-10.4706
▁faandi	-10.4707
▁ɓor	-10.4711
▁jokkaa	-10.473
▁duumo	-10.4731
antoore	-10.4733
▁moolanaaɗ	-10.474
▁Imm	-10.4742
oohoojo	-10.4746
▁nandita	-10.4749
▁yaaf	-10.4762
▁feln	-10.4773
▁addu	-10.4792
nta	-10.4794
▁newnanaa	-10.4803
▁immin	-10.4816
▁tagiraa	-10.4832
▁nguleendi	-10.4837
▁geyngol	-10.4838
▁fammeere	-10.4838
▁ɗaɗol	-10.4838
▁Samariyankee	-10.4838
▁Bajjo	-10.4838
▁rawnoode	-10.4838
▁wirngallo	-10.4838
▁ngayka	-10.4838
▁yankinaare	-10.4838
▁jelu	-10.4838
▁ñamaande	-10.4839
▁mawnungal	-10.484
▁haqqilooɓe	-10.484
▁hoynooje	-10.484
▁mboddi	-10.4841
▁heɗagol	-10.4844
▁majjam	-10.4845
▁fenoowo	-10.4846
▁fooluɗo	-10.4846
▁Daala	-10.4848
▁ŋalɗini	-10.4849
▁jarnugol	-10.4849
▁sakkitiiɓe	-10.4852
▁tiiɗungal	-10.4853
▁baasal	-10.4855
▁Maalik	-10.4856
▁aranal	-10.4858
▁werde	-10.4858
▁maggo	-10.486
ir	-10.4862
▁naɓan	-10.4862
▁Maakan	-10.4863
▁gootun	-10.4863
▁fenniino	-10.4865
▁yettoo	-10.4866
▁firtugol	-10.4867
Jooma	-10.4871
▁rewaynoo	-10.4874
▁ndaaru	-10.4878
▁ŋari	-10.4882
▁Joom	-10.4887
▁ɓanngu	-10.4891
▁fanaa	-10.4893
▁majjin	-10.4896
▁bawɗe	-10.4898
▁tiiɗuɗe	-10.4899
▁moƴƴol	-10.49
▁moƴƴereeji	-10.4902
▁yiɗ	-10.4907
▁hedd	-10.4909
▁seediiɓe	-10.4911
▁malal	-10.4912
▁jogi	-10.4916
▁hajju	-10.4917
▁falo	-10.4917
liyuus	-10.4918
▁Enen	-10.4922
▁see	-10.4925
▁ndaɗɗudi	-10.4926
▁banndiraa	-10.4929
▁raɗor	-10.493
▁yari	-10.4931
▁Ɓur	-10.4933
▁lootir	-10.4935
ppugol	-10.4948
▁lootaynoo	-10.4956
▁noddu	-10.4959
▁Ɗen	-10.496
▁gunndoo	-10.4971
▁tuubii	-10.4972
▁nayaɓ	-10.4979
▁yoo	-10.4983
▁jango	-10.4983
▁sakkaa	-10.4986
qu	-10.4998
anta	-10.5
▁accataa	-10.5
▁Nulii	-10.5007
inoowo	-10.5013
daali	-10.5022
▁nayi	-10.5033
▁joɗɗinir	-10.5033
▁waawu	-10.504
▁Yettoore	-10.5047
▁yeddu	-10.5062
▁fotti	-10.5067
▁halfin	-10.5073
▁ɓeyditi	-10.509
irii	-10.51
▁joo	-10.5113
▁yeddondir	-10.5114
▁maranaa	-10.5117
ci	-10.5117
▁woto	-10.512
▁ɗuyt	-10.513
▁nanondir	-10.5146
▁karamoko	-10.5161
▁seeditoo	-10.5165
royta	-10.517
▁maaje	-10.5173
▁yewtir	-10.5183
amuuji	-10.5187
▁ad	-10.5188
▁fillitan	-10.5193
itugol	-10.5193
▁okkay	-10.5193
▁marnoo	-10.5202
▁yejjiti	-10.5204
iisi	-10.5206
▁ɗa	-10.5213
▁donkin	-10.5222
▁gomɗina	-10.5229
adii	-10.5232
▁fuɗɗo	-10.5242
▁hersin	-10.5245
▁manti	-10.5261
▁baa	-10.527
▁feññin	-10.5272
▁rimata	-10.5284
]?	-10.5305
▁jippo	-10.5322
ɗ	-10.534
raama	-10.5352
▁arane	-10.5353
▁waajitoto	-10.5357
ɗuɓe	-10.5375
ro	-10.5375
mmere	-10.5376
ynoo	-10.5376
debbo	-10.5377
▁Gomɗi	-10.5388
▁naatay	-10.5402
▁labaa	-10.5402
▁ƴant	-10.5415
ore	-10.5415
▁mul	-10.5417
▁feewir	-10.5446
▁windi	-10.5449
▁makka	-10.5467
iwii	-10.5468
▁hula	-10.5469
▁lepta	-10.5477
▁wuuruɗ	-10.5484
▁inn	-10.5488
▁jogoraa	-10.5506
▁wattii	-10.5507
▁nanir	-10.5514
▁waawata	-10.5519
▁adday	-10.5525
▁hawnii	-10.5527
▁serti	-10.5532
▁jonnit	-10.5532
▁halfini	-10.5548
▁jokkata	-10.555
anooka	-10.555
Meeɗe	-10.5555
ul	-10.5556
▁Qa	-10.5557
▁hoɗi	-10.5558
▁Ibra	-10.556
▁heɗotoo	-10.5561
▁haɗu	-10.5575
▁jonna	-10.5576
▁reeni	-10.5576
▁janngaam	-10.5576
▁fooli	-10.5582
anaama	-10.5582
▁pooɗ	-10.5583
faa	-10.5594
▁suɓ	-10.5596
▁wonno	-10.5596
▁soɓe	-10.5602
▁daaka	-10.5609
▁wood	-10.561
▁nj	-10.5611
▁haforan	-10.5615
▁luutondir	-10.5615
Ma	-10.5615
▁feƴƴu	-10.562
▁mooɓ	-10.5629
▁jalbir	-10.5651
▁nawr	-10.5657
▁uggini	-10.5659
▁hoolor	-10.5659
▁peera	-10.5662
▁Fuuta	-10.5671
▁nawri	-10.5671
▁fijindaaru	-10.5671
▁kasannge	-10.5671
▁esiraawo	-10.5671
▁Ishaaqa	-10.5671
▁jalbeendi	-10.5671
▁suriire	-10.5672
▁lekki	-10.5672
▁Yettiniiɗo	-10.5672
▁townitaare	-10.5672
▁wuluure	-10.5672
riiyu	-10.5672
▁hakkillaaji	-10.5672
▁ɓataake	-10.5673
▁feetere	-10.5673
▁remoowo	-10.5673
▁halkaare	-10.5674
▁mbabba	-10.5675
▁Belajo	-10.5676
▁mabba	-10.5677
▁kumpital	-10.5677
▁fiyakuuji	-10.5679
▁rewir	-10.5679
▁darjaaji	-10.568
▁fawtiiɗo	-10.568
▁hakkille	-10.5682
▁noddoton	-10.5683
▁jantagol	-10.5684
▁beru	-10.5684
▁nebban	-10.5685
▁Iska	-10.5685
▁sanamu	-10.5687
▁Laakara	-10.5689
▁Ganndal	-10.569
▁muuyuno	-10.569
Kisiyee	-10.5694
▁yananaaɓe	-10.5695
▁urngallo	-10.5695
▁tottir	-10.5696
▁gasataa	-10.5705
▁laɓɓinaaɓe	-10.5707
▁fal	-10.5707
▁ɓanndu	-10.5708
▁diine	-10.5708
▁Ɓey	-10.5711
▁waɗoyay	-10.5711
▁raɗii	-10.5711
▁ku	-10.5713
▁baagol	-10.5717
▁ndaarugol	-10.5723
▁Tiiri	-10.5731
▁heyre	-10.5733
▁puccu	-10.5735
▁aada	-10.574
▁yaron	-10.5746
▁humondira	-10.5747
▁kundu	-10.5749
▁ronnd	-10.576
▁Bon	-10.576
seeji	-10.5762
▁junuuba	-10.5764
▁tasakuyee	-10.577
▁fodde	-10.5776
▁hooliiɓe	-10.5778
▁ñ	-10.5793
▁darnde	-10.5794
▁ƴogg	-10.5797
▁ɗoftiiɓe	-10.5798
aaɗe	-10.5805
daaɗo	-10.5806
▁rutta	-10.5806
▁heɲa	-10.5807
yi	-10.5808
▁aadi	-10.581
▁seedii	-10.5818
▁metti	-10.5819
▁arde	-10.5824
▁Laam	-10.583
se	-10.5833
▁tinndi	-10.5835
or	-10.5841
▁jeyaama	-10.5845
▁Hooree	-10.5846
▁ɗeri	-10.5848
▁haɗno	-10.5856
mun	-10.5877
▁ittaa	-10.588
▁ƴaw	-10.5883
▁majj	-10.5887
▁hulii	-10.5891
▁ñammin	-10.5902
▁artir	-10.5904
▁ken	-10.5906
nu	-10.5912
▁heyr	-10.5919
▁liddondira	-10.5924
▁ñiiɓu	-10.5926
lle	-10.5931
▁hewtiti	-10.5932
▁himman	-10.5938
▁wutt	-10.5938
▁feƴƴata	-10.594
llaaji	-10.5941
▁ruuhuu	-10.5946
▁aynde	-10.5946
▁artoy	-10.5947
▁ɗuuɗa	-10.5948
▁tebb	-10.5951
▁ɓeydit	-10.597
▁yaafan	-10.597
▁cen	-10.5972
▁ronka	-10.5974
▁watt	-10.5975
▁bugo	-10.5981
▁tiiɗin	-10.599
rugol	-10.5995
niri	-10.5998
▁ser	-10.6002
▁uddit	-10.6013
▁duum	-10.6021
▁weli	-10.6027
▁Yamir	-10.603
angol	-10.6036
▁ɓa	-10.6039
▁humpita	-10.604
kko	-10.6049
▁fotay	-10.6065
▁kam	-10.6067
▁kenee	-10.6069
▁yiɗindir	-10.6072
▁joɗɗin	-10.6074
▁suuɗi	-10.6076
tiri	-10.6077
▁ɓorn	-10.608
▁wutti	-10.6085
▁yeɗiri	-10.6088
rne	-10.6099
▁welata	-10.6119
ataano	-10.6121
▁jooɗiiɓe	-10.6122
▁jannata	-10.6125
▁hawniiɗ	-10.6129
▁haɗ	-10.6131
Yeet	-10.6136
anɗe	-10.6147
▁hetti	-10.6147
▁waajor	-10.6156
▁nunɗ	-10.6167
▁fer	-10.6171
▁qirritii	-10.6181
▁kiɗɗ	-10.6184
▁Addan	-10.619
▁iwra	-10.6192
▁aybin	-10.6192
ɗiiɗo	-10.6192
if	-10.6195
aɲo	-10.6199
awii	-10.6206
▁holla	-10.6219
▁Jippin	-10.6224
▁udditan	-10.6228
▁town	-10.6234
rɗi	-10.6234
▁eltani	-10.6238
▁daalo	-10.6246
▁feli	-10.6249
▁ruttoo	-10.6249
▁danki	-10.625
No	-10.6259
▁task	-10.6275
▁moƴƴii	-10.6276
...	-10.6278
▁yaaj	-10.628
▁torotoo	-10.6288
▁ɗow	-10.6288
▁fewti	-10.6303
tiiɓe	-10.6305
▁woɗ	-10.6308
▁ɗama	-10.6308
▁Ɗuuɗ	-10.631
g	-10.6312
▁neeɓaa	-10.6317
▁andirt	-10.6318
eendi	-10.6328
▁noddiri	-10.6329
▁lootaa	-10.6334
▁neen	-10.6335
▁tam	-10.6338
▁lando	-10.6341
▁fuɗ	-10.6342
toto	-10.6343
▁tamaro	-10.6348
▁asewee	-10.6354
nagol	-10.636
▁yewtiri	-10.6368
taama	-10.6373
iɓe	-10.6378
bo	-10.6379
▁dim	-10.6384
▁yoori	-10.6403
teeɓe	-10.6404
▁toror	-10.6405
▁reene	-10.6407
zar	-10.6408
sonnaaɓe	-10.6423
▁ina	-10.6424
▁jarribor	-10.6428
▁dogir	-10.6433
▁gomɗinta	-10.6434
toroo	-10.6438
▁saɗtu	-10.644
▁nulii	-10.6462
orii	-10.6466
▁feeɲu	-10.6467
▁ruttoto	-10.6479
aybu	-10.6483
)".	-10.6485
rɗon	-10.6501
▁pen	-10.6511
▁wowlii	-10.6513
▁taƴu	-10.6516
▁liɓi	-10.6532
girii	-10.6532
▁arsi	-10.6541
dal	-10.6547
▁naatiri	-10.6552
iima	-10.6554
▁Ya	-10.6557
▁yiɗii	-10.6558
▁allaaj	-10.6563
▁ɗaani	-10.6565
▁faandani	-10.6567
▁yeddondire	-10.6567
▁moƴƴaa	-10.657
▁darnga	-10.6573
▁ɓanngannduyee	-10.6574
▁cuucal	-10.658
▁Muuyuno	-10.658
▁jolokooje	-10.658
▁keeci	-10.658
▁sukundu	-10.658
▁jippinee	-10.658
▁wullaandu	-10.658
▁cellal	-10.6581
▁yeewtere	-10.6581
▁tefoore	-10.6581
▁caatal	-10.6581
▁rutteteɗon	-10.6581
▁ɗoyngol	-10.6581
▁damal	-10.6582
▁Neema	-10.6582
▁kawtal	-10.6582
▁tooñetaake	-10.6584
▁ewnagol	-10.6584
▁aljannaaji	-10.6585
▁fefindiiɗo	-10.6586
▁ñawu	-10.6587
▁tampin	-10.6588
▁piindi	-10.659
▁ronku	-10.6591
▁Siduuna	-10.6592
▁fija	-10.6592
▁kasoojo	-10.6593
▁julle	-10.6593
▁kafidiiɓe	-10.6593
▁fooluɓe	-10.6595
▁res	-10.6596
▁tat	-10.6597
▁Immintin	-10.6597
▁juhal	-10.6599
▁bakkatuuji	-10.66
▁lannataa	-10.6601
▁bolle	-10.6601
▁ɓeydaade	-10.6604
▁keefeero	-10.6605
▁Galo	-10.6607
hadi	-10.6608
▁wulɗin	-10.6611
▁ardagol	-10.6613
▁kunte	-10.6621
▁nguli	-10.6622
▁fennu	-10.6624
▁hettugol	-10.6626
▁yeƴƴiti	-10.6627
▁Adde	-10.6629
▁laatanoo	-10.663
ŋtaa	-10.6632
▁yejjit	-10.6633
▁yewtaynoo	-10.6633
ñugol	-10.6634
▁waawugol	-10.6635
▁yoɓugol	-10.6638
▁lept	-10.6641
orɗi	-10.6642
su	-10.6655
▁Yiɗaa	-10.6656
▁mb	-10.6657
▁Accu	-10.6657
▁tuundi	-10.6657
▁hoddiri	-10.6658
▁edda	-10.666
lol	-10.6665
▁walli	-10.6671
▁arsik	-10.6678
▁ɓuraa	-10.6678
▁nafagol	-10.6681
▁naatugol	-10.6683
▁kurkan	-10.6685
";	-10.6688
▁puɗi	-10.6689
▁hunn	-10.6691
▁sappaɓ	-10.6692
▁teem	-10.6694
▁:"	-10.6695
▁tippini	-10.6698
udi	-10.6699
janngeteende	-10.67
Sa	-10.67
likii	-10.6707
▁Han	-10.6709
▁wakkil	-10.671
▁noddee	-10.6713
▁golluɗo	-10.6715
▁dandoyte	-10.6722
▁naatunoo	-10.6724
▁koyngal	-10.6731
▁ƴentinaa	-10.6732
▁sila	-10.6734
▁wonunde	-10.6742
▁anda	-10.675
▁fawu	-10.6755
▁yahaynoo	-10.6756
▁nulir	-10.6757
▁jogitora	-10.6757
rkuus	-10.6758
▁reenu	-10.6759
ara	-10.6759
▁kumpit	-10.6765
▁saami	-10.6766
▁fefindi	-10.6776
▁hoynu	-10.6779
▁jooma	-10.6779
▁lutt	-10.678
▁farilla	-10.6784
▁fotondiri	-10.6786
ndooj	-10.679
▁Saduu	-10.6798
▁jippinii	-10.6802
▁Sella	-10.6809
▁mooɓii	-10.6818
▁yel	-10.683
▁hoolo	-10.6832
▁law	-10.684
inoo	-10.6847
▁sellin	-10.6851
▁humpit	-10.6852
Sinn	-10.6858
▁naada	-10.6867
▁mbab	-10.6869
▁ware	-10.6883
▁ɓurtu	-10.6892
▁ndikki	-10.6905
eene	-10.6913
▁jippi	-10.6921
▁wunti	-10.6924
▁sonki	-10.6924
▁Eli	-10.6938
▁qab	-10.6941
▁hewtaa	-10.6941
tigi	-10.6942
▁qirrit	-10.6959
imbi	-10.697
▁bonfo	-10.6972
anndude	-10.6973
▁heɗoto	-10.6975
▁anndini	-10.6983
Wonkii	-10.6984
▁darjin	-10.6997
▁woniran	-10.7
▁jooɗod	-10.7
ppi	-10.7001
▁ɓi	-10.7012
▁dogu	-10.7013
▁woodaa	-10.7014
▁haanuɗo	-10.7026
nɗo	-10.7028
▁reeno	-10.7031
itataa	-10.7034
▁haɓɓ	-10.7037
▁accitu	-10.7038
▁weltinir	-10.7042
▁ñaawir	-10.7042
▁feɲɲina	-10.7048
▁dali	-10.7061
▁jaŋta	-10.7064
▁immito	-10.7067
▁longin	-10.7067
▁surr	-10.7077
▁lamɗo	-10.7082
▁lannoo	-10.7082
▁toowu	-10.7089
▁sellinaa	-10.7095
▁memi	-10.71
▁nangira	-10.7111
▁dolnu	-10.7129
▁fod	-10.7142
bu	-10.7144
ɗin	-10.7153
inooɓe	-10.7175
▁ɓeydana	-10.7196
▁tuub	-10.7197
es	-10.7206
lu	-10.7207
▁newii	-10.7209
▁feeɲ	-10.7212
eeri	-10.7224
p	-10.7248
▁Be	-10.7253
gite	-10.7263
▁toɗɗ	-10.7265
▁ittii	-10.7265
▁weltora	-10.7271
gorko	-10.7279
ulee	-10.7282
▁ɗonɗaa	-10.7284
Fir	-10.7289
ewnoo	-10.7289
▁mbaɗi	-10.7298
▁warira	-10.7305
▁Kammu	-10.7307
ɓundu	-10.7311
Yettoore	-10.7312
tagoore	-10.7319
aange	-10.7323
▁Bet	-10.7335
▁bugaa	-10.7339
noɗaa	-10.7339
hannde	-10.735
▁wennj	-10.736
▁accit	-10.7365
▁wowliri	-10.7372
affaa	-10.7374
▁noddata	-10.7378
ilata	-10.7385
▁Ña	-10.7388
▁pay	-10.739
▁towni	-10.7391
▁jolk	-10.7394
▁far	-10.7399
▁ŋaɲɲ	-10.7399
▁iwtir	-10.741
▁seeki	-10.7412
▁ɲaamataa	-10.7416
▁yiil	-10.7423
yaafa	-10.7424
▁keɓa	-10.7428
▁sif	-10.7432
▁mal	-10.7433
▁jonnu	-10.7437
▁aɲ	-10.744
▁ɓann	-10.7445
▁ronoo	-10.7447
▁jokkunoo	-10.7451
▁gomɗinir	-10.7456
K	-10.7459
▁huɗi	-10.7462
▁aroyoow	-10.7466
▁yoɓa	-10.7469
▁aynoo	-10.7473
▁weeɓitan	-10.7484
▁moolanaa	-10.7484
▁jippiniri	-10.7492
mugol	-10.7501
▁wowlay	-10.7501
wnii	-10.7501
▁tanƴin	-10.7505
ttugol	-10.7506
▁Ñaame	-10.7516
er	-10.7518
▁faljin	-10.752
▁minen	-10.7523
▁Mariyam	-10.7523
▁ɗuurnii	-10.7528
▁lu	-10.754
ɗɗoode	-10.7545
hoy	-10.7548
▁sokaa	-10.755
▁ɗimmo	-10.755
▁jalba	-10.7556
▁Mal	-10.7558
yti	-10.7561
▁accita	-10.7565
ariijo	-10.757
▁Kaŋko	-10.758
▁Linjiila	-10.758
▁asakal	-10.758
▁njorndi	-10.758
▁Duŋayee	-10.758
▁Surroowo	-10.758
▁feletere	-10.758
▁soɓɓundu	-10.758
▁ɓitteende	-10.758
▁suufaajo	-10.758
▁Sakkitiinde	-10.7581
▁cagaajo	-10.7581
▁faabagol	-10.7582
▁koltu	-10.7582
▁sariyaare	-10.7583
▁dogudu	-10.7583
▁Samari	-10.7583
▁karahan	-10.7583
▁deeƴere	-10.7583
▁ɓeyda	-10.7583
▁sirkata	-10.7584
▁sakkitiinde	-10.7585
▁saɗteende	-10.7585
▁jalkita	-10.7586
▁yewtereeji	-10.7587
▁hesu	-10.7588
▁daaɗe	-10.7589
▁ɗimmun	-10.7593
▁yurm	-10.7594
▁accitan	-10.7594
▁genndiraa	-10.7595
▁wern	-10.7596
▁uddital	-10.7596
▁li	-10.7599
▁mulugol	-10.7601
▁halakuyee	-10.7601
▁liddu	-10.7602
▁loope	-10.7603
▁yee	-10.7605
▁Jahiimi	-10.7605
▁aranol	-10.7606
▁tinaali	-10.7609
▁yottike	-10.761
▁bonnuɗo	-10.7613
▁weer	-10.7613
▁fennooɓe	-10.7613
▁hooli	-10.7617
▁darngal	-10.7618
▁accitugol	-10.7619
▁lim	-10.7621
▁kaydi	-10.7625
▁jurmotooɗo	-10.7628
▁nganndaa	-10.7632
▁welaa	-10.7635
▁bugee	-10.764
dingiral	-10.7644
▁yewtugol	-10.7646
▁noddira	-10.7647
▁dente	-10.7657
▁addana	-10.7658
▁insinano	-10.7659
▁yiit	-10.7662
▁añii	-10.7674
ejo	-10.7677
▁yahana	-10.7681
▁jatt	-10.7693
▁mawɗi	-10.7694
▁habbo	-10.7698
▁homɓe	-10.77
▁Fedde	-10.7701
▁raɗ	-10.7706
▁jooɗo	-10.771
▁jibinan	-10.772
▁hett	-10.7723
kugol	-10.7725
▁kunndul	-10.7728
▁yeɗay	-10.773
▁ɓannginan	-10.7731
▁cawt	-10.7735
▁mawnini	-10.7746
▁jaɓata	-10.7751
▁okku	-10.7753
ayɗi	-10.7757
▁So	-10.7762
▁hucciti	-10.7764
▁tigg	-10.7767
▁gayn	-10.7773
▁njani	-10.7782
▁Ƴettu	-10.779
▁mah	-10.7791
▁ndaɗɗu	-10.7794
▁ɓanginiri	-10.7796
▁rutti	-10.7802
▁toran	-10.7803
▁har	-10.781
abu	-10.7812
▁hersir	-10.7813
▁ɲaawee	-10.7814
▁anndal	-10.7818
▁Lew	-10.7818
ye	-10.7825
ooɗo	-10.7838
▁bonnu	-10.784
▁rondii	-10.7846
ɓugol	-10.785
oni	-10.7851
▁catii	-10.7851
▁sirkan	-10.7854
▁meeɗ	-10.7862
▁yiɗunoo	-10.787
iɗon	-10.7885
▁gomɗinay	-10.7898
▁bu	-10.7913
▁ƴettee	-10.7919
▁harmini	-10.7923
aynooɗo	-10.7925
▁ronndii	-10.7926
▁feññinan	-10.7926
▁aanu	-10.7939
▁liddotoo	-10.7942
Annditee	-10.7949
▁nanirɗ	-10.7955
▁naɓor	-10.7958
▁halk	-10.7959
▁korɗo	-10.796
▁muraa	-10.796
eece	-10.7966
moggo	-10.7978
▁yana	-10.7981
▁feƴƴay	-10.7991
irɗaa	-10.7993
dee	-10.8001
arɲit	-10.8005
▁woɗɗ	-10.801
▁Da	-10.8013
nnoo	-10.8016
▁ke	-10.8016
ndiri	-10.8019
▁jannayno	-10.8019
ettugol	-10.8021
▁ndarnd	-10.8028
▁wuurna	-10.8032
▁ardini	-10.8034
▁bugitii	-10.8039
tagugol	-10.8043
▁haɓɓi	-10.8048
▁huluɓe	-10.8054
▁ɓadondiraa	-10.8064
▁addata	-10.8077
▁ru	-10.8079
▁tikki	-10.808
▁ñiiɓi	-10.8097
▁ɲaawa	-10.8098
▁yoɓ	-10.8099
neede	-10.8101
▁ɲawnd	-10.8115
▁naadi	-10.8123
▁Ng	-10.8139
▁tippu	-10.8148
▁terto	-10.8157
▁dolnuɗ	-10.8157
▁ju	-10.816
▁kes	-10.8165
▁piy	-10.817
ne	-10.8172
▁hakkilan	-10.8184
▁liɓa	-10.8191
▁nulaa	-10.8192
diisa	-10.8195
▁warru	-10.8197
▁seedi	-10.8199
▁ruttita	-10.8201
Awa	-10.8202
uula	-10.8209
ɓanduu	-10.8213
▁tono	-10.8214
▁bug	-10.8214
irtaa	-10.8217
▁ɓanngina	-10.822
▁Annd	-10.8222
puru	-10.8228
▁ɗaa	-10.8229
▁huuwi	-10.824
▁hodo	-10.824
▁poomayankeej	-10.8242
▁baalii	-10.8244
▁As	-10.8245
ɗii	-10.8249
▁okkori	-10.8258
▁goll	-10.8273
▁okkitir	-10.8282
inii	-10.8282
▁mbaɗ	-10.8286
rani	-10.829
▁suɓaa	-10.8302
▁joɗɗini	-10.8312
▁dagii	-10.8315
▁Noddu	-10.8317
▁Tooñ	-10.8318
laa	-10.8322
tiiɗo	-10.8325
▁jipp	-10.8336
▁holniiɗ	-10.8341
▁hayr	-10.8346
▁mbel	-10.8351
▁yaara	-10.8357
▁anday	-10.8359
▁jokkondir	-10.8359
▁eɓɓi	-10.8367
▁fanki	-10.8371
▁Nd	-10.8373
▁Alana	-10.8385
▁Waɗi	-10.8395
▁Tagi	-10.8401
▁ayn	-10.8402
▁faal	-10.8402
kke	-10.8404
▁pottito	-10.8407
▁Kun	-10.8409
ono	-10.8412
▁waas	-10.8414
▁sikk	-10.8416
▁weeti	-10.8433
▁aadii	-10.8436
▁ɓeydan	-10.8443
▁sowii	-10.8448
▁fodaa	-10.8449
▁wallito	-10.8452
▁ɗo	-10.8462
▁jooɗoy	-10.8463
ila	-10.8472
▁yoɓir	-10.8475
kon	-10.8486
▁nanng	-10.849
▁weeɓitani	-10.8491
▁habb	-10.8497
▁pegg	-10.8508
▁andit	-10.8509
▁lidd	-10.8516
▁Laata	-10.8525
ƴƴi	-10.8526
▁laaɓan	-10.853
▁wull	-10.8539
▁wind	-10.8559
▁majjan	-10.856
irton	-10.856
▁yilti	-10.8561
▁neeɓ	-10.8563
▁aɲi	-10.8564
▁totta	-10.8574
seedeeɓe	-10.8575
▁deeƴu	-10.858
▁doŋ	-10.8581
▁Apol	-10.8582
▁mandil	-10.8603
nke	-10.8609
▁tosok	-10.8609
▁dee	-10.861
▁sendindir	-10.8612
▁feeɲoy	-10.8612
▁dolokk	-10.8612
▁faalano	-10.8614
▁jeego	-10.8619
▁Samuud	-10.8628
▁waɗta	-10.8631
▁faasiq	-10.8637
▁waɗiraa	-10.8643
▁fewtit	-10.865
raynoo	-10.8652
yankoo	-10.8671
▁neemin	-10.8681
▁Tert	-10.8681
ƴugol	-10.8682
aru	-10.8689
▁Aleksand	-10.8691
▁Madyana	-10.8691
▁leñol	-10.8691
▁pitilli	-10.8691
▁wortowal	-10.8691
▁ngeenaari	-10.8691
▁Giggol	-10.8691
▁konnaagu	-10.8691
▁wonta	-10.8691
▁ndonto	-10.8691
▁muuyanteeɗi	-10.8691
▁keerol	-10.8692
▁morlooɗe	-10.8692
▁innaangal	-10.8693
▁bulle	-10.8693
▁welayee	-10.8693
▁salndu	-10.8693
▁woyndu	-10.8693
▁Korenti	-10.8694
▁laaɓungal	-10.8694
▁yontere	-10.8695
▁fefindotonoo	-10.8696
▁yott	-10.8697
▁batteeji	-10.8697
▁Toowuɗo	-10.8697
▁bote	-10.8699
▁añuɓe	-10.8699
▁bugagol	-10.8699
▁feetuɗo	-10.87
▁fewjoore	-10.8701
ho	-10.8702
baajo	-10.8705
▁teddunde	-10.8707
▁mawngu	-10.8707
▁daragol	-10.8707
▁woɗɗunde	-10.8708
▁emmbere	-10.871
▁fowtorde	-10.8711
▁soɲit	-10.8712
▁ñiiɓal	-10.8712
ɗemɗe	-10.8714
▁miskiino	-10.8714
▁cortewol	-10.8714
▁ndaarɗe	-10.8715
▁saŋ	-10.8717
▁leeɓi	-10.8717
▁duumiiɗe	-10.8722
▁sikkitaare	-10.8723
▁kisal	-10.8725
▁tuuninta	-10.8725
▁sirkuɓe	-10.8727
▁dogugol	-10.8727
▁Tes	-10.8728
▁haforanal	-10.873
mmba	-10.8731
▁weet	-10.8732
▁lootugol	-10.8736
▁jonnugol	-10.8739
▁aynugol	-10.8741
▁Z	-10.8741
▁jipporde	-10.8741
▁nanngal	-10.8743
▁haɓa	-10.8744
▁feewuɗe	-10.8749
▁majjude	-10.875
▁Diina	-10.8751
▁nanoowo	-10.8753
▁jannoowo	-10.8755
▁daw	-10.8759
▁kammuyankeej	-10.876
▁kattanɗo	-10.8761
▁tuubi	-10.8762
▁walla	-10.8766
▁Ndaaru	-10.8767
▁keso	-10.8773
▁taƴitoyi	-10.8776
taali	-10.878
iijo	-10.8785
▁Harmini	-10.8789
▁iwr	-10.879
ɗugol	-10.879
▁naatee	-10.8793
waasuɓe	-10.8795
▁baaf	-10.8797
▁yankinanii	-10.8797
▁fotataa	-10.8797
▁jeyal	-10.8799
▁hebulanii	-10.88
▁seeditanii	-10.8801
yii	-10.8803
▁hoɓɓit	-10.8803
▁ɓurnoo	-10.8807
ereeti	-10.8808
▁sal	-10.881
▁yiɗugol	-10.8811
▁nafqi	-10.8816
▁diini	-10.8822
▁nandi	-10.8826
▁timmini	-10.883
ndar	-10.8832
ayti	-10.8833
aynoɗon	-10.8833
tude	-10.8834
▁ɗuurnoo	-10.8836
llal	-10.884
iron	-10.884
he	-10.8844
▁noddunoo	-10.8846
▁adunayankeej	-10.8854
Rewɓe	-10.8856
▁jento	-10.8856
▁wonirnoo	-10.8858
▁dog	-10.8867
ɲal	-10.887
wu	-10.8874
fo	-10.8876
eɗɗe	-10.8876
▁toow	-10.8892
▁tawti	-10.8893
▁jaw	-10.8897
▁koyɗi	-10.8899
▁huuwu	-10.8901
▁ewnaa	-10.8906
▁tabintinir	-10.8906
▁lorr	-10.8908
▁tabitir	-10.8919
▁luutondirayno	-10.8923
▁sadak	-10.8926
▁ruttotoo	-10.8945
▁teŋe	-10.8946
▁tenƴini	-10.8947
▁ŋatindir	-10.8947
▁feewaa	-10.8949
pe	-10.8955
▁ɲemb	-10.8955
▁wooduno	-10.896
▁bete	-10.8963
▁hiwr	-10.8965
▁Is	-10.8968
▁moolanaango	-10.897
▁jaabinani	-10.8974
▁yottii	-10.8992
▁ŋakkiraa	-10.8995
▁cowal	-10.8996
unooɗo	-10.8998
▁Tu	-10.8998
▁jibi	-10.9006
▁yiɗɓe	-10.901
▁okkora	-10.9011
indirgol	-10.9018
▁taƴi	-10.9025
tannde	-10.9028
▁bonni	-10.9029
▁Saɗtu	-10.9033
▁waajitor	-10.9036
uusa	-10.9037
▁diwn	-10.9041
▁laatoto	-10.9048
▁boofoo	-10.9049
▁wullu	-10.9055
▁sifor	-10.9056
▁wahayinaa	-10.9059
▁aɲii	-10.9062
ɗee	-10.9064
▁ruttetee	-10.9068
ndir	-10.9068
▁koɗol	-10.9072
ɓaali	-10.9072
▁ardo	-10.9074
▁feggin	-10.9081
▁jeen	-10.9089
aynde	-10.9095
uura	-10.9098
ge	-10.91
▁tampu	-10.9104
fow	-10.9111
▁waajii	-10.9119
tato	-10.9131
▁tiiɗuk	-10.9135
nji	-10.914
▁seeditor	-10.9147
▁sok	-10.915
▁loota	-10.9152
▁tabintin	-10.9152
▁koo	-10.9156
▁ɗaɓɓi	-10.9158
yno	-10.9167
▁jinn	-10.9174
▁tuuban	-10.9177
llugol	-10.9178
▁bonnay	-10.9178
▁yoni	-10.9179
▁fillit	-10.9181
▁nji	-10.9182
▁Hakk	-10.9183
fi	-10.9185
▁rima	-10.9193
▁konnguɗi	-10.9195
naama	-10.9197
▁tiiɗuɗ	-10.9197
▁dank	-10.9199
▁Ñaaw	-10.9202
▁gomɗinɗon	-10.9213
▁yoɓete	-10.9227
▁bonnii	-10.9232
▁anndina	-10.9238
▁winda	-10.9242
▁Ti	-10.9244
▁okka	-10.9247
▁muuyii	-10.9247
▁timmii	-10.9256
leydi	-10.9256
▁waɗtini	-10.926
▁hoɗon	-10.9262
▁woɗɗit	-10.9265
▁waaja	-10.9271
cce	-10.9287
▁Sar	-10.9287
laande	-10.9289
▁femp	-10.9294
▁arugol	-10.9309
▁ɓanngan	-10.931
▁Ley	-10.9323
yru	-10.9325
▁naatoyi	-10.9327
▁rinɗin	-10.9327
▁yaafaa	-10.9328
▁suuɗa	-10.9334
▁tooɲir	-10.9336
▁aynu	-10.9339
▁soɓu	-10.934
ndira	-10.9342
ojo	-10.9342
▁awm	-10.9344
antaa	-10.9348
▁jeenu	-10.9348
▁tagirii	-10.9349
itike	-10.9353
▁woondar	-10.9356
▁yarn	-10.9358
Adde	-10.9367
owo	-10.9368
▁yaar	-10.9373
nuuji	-10.9384
▁haɓid	-10.939
▁janngana	-10.9392
▁ñan	-10.9394
▁faab	-10.9399
looɗe	-10.9404
j	-10.9408
▁ɓetu	-10.9408
▁fewja	-10.942
▁satta	-10.9421
▁jalbi	-10.9429
▁Bu	-10.9438
▁jannga	-10.9443
baruuj	-10.945
▁jaɓir	-10.9452
▁daɗnda	-10.9457
Ɗaa	-10.9459
▁wuuriri	-10.9463
▁yaru	-10.9467
▁gere	-10.9474
▁nga	-10.948
▁waawa	-10.9483
▁tooɲu	-10.9485
rgol	-10.9488
▁Heew	-10.9498
▁mawn	-10.95
▁jaɓa	-10.9517
▁daaliran	-10.952
▁Koohoo	-10.952
▁anditir	-10.9525
▁ngonii	-10.9537
▁yoɓirt	-10.9558
aka	-10.9558
Nulaaɗo	-10.9559
raaɓe	-10.9559
▁waawaa	-10.9559
▁son	-10.9567
aɗo	-10.9571
▁laatin	-10.9575
▁yeetoto	-10.9578
amɓe	-10.9582
tirde	-10.9583
▁lunnd	-10.9591
▁Hoore	-10.9595
▁yaltiniri	-10.9604
▁fewtini	-10.9622
▁feru	-10.9631
▁Kaari	-10.9632
▁Jaŋto	-10.9633
▁heɓata	-10.9636
Kal	-10.9644
eydi	-10.9645
▁kafidaaɗ	-10.965
▁fenn	-10.9654
nah	-10.9655
▁po	-10.9656
▁suus	-10.9657
▁seedit	-10.9668
Janto	-10.9672
sabaa	-10.969
pii	-10.9692
ondiri	-10.9698
ndii	-10.97
iɗuɓe	-10.9702
▁jeyɗo	-10.9704
▁huɓɓ	-10.9713
▁araa	-10.9719
▁luttay	-10.9721
akkaatu	-10.9721
ɓen	-10.9724
▁sennd	-10.9735
eɗɗo	-10.9735
▁R	-10.9737
▁seedito	-10.9737
▁yejjitu	-10.9745
▁Aran	-10.9752
▁ɗuuɗii	-10.9753
▁reena	-10.9753
▁hir	-10.9753
▁wowlir	-10.9755
▁kurkana	-10.9764
▁ɲall	-10.9768
▁siɗɗ	-10.9769
▁waɗayno	-10.9779
▁yeesoo	-10.9808
me	-10.9815
tay	-10.9817
▁Ara	-10.9824
otonoo	-10.9827
▁kaas	-10.9829
▁daɗnd	-10.9829
▁danda	-10.983
▁mooɓit	-10.9834
▁ŋakkir	-10.9845
ini	-10.985
▁Fewni	-10.9859
▁yuɓɓondir	-10.9863
▁pooma	-10.9871
▁Q	-10.9873
andi	-10.9876
▁okkir	-10.9877
anaade	-10.9877
▁wiir	-10.9879
▁teddinaa	-10.9884
▁winnda	-10.9887
woni	-10.9888
ar	-10.9888
▁Bo	-10.9892
▁ɗaan	-10.9894
▁ɲaawu	-10.9905
▁meh	-10.9906
▁Tuub	-10.9906
▁dimban	-10.9916
▁fempe	-10.9917
▁hanki	-10.9919
▁maaro	-10.9919
▁pooɗa	-10.9922
juuji	-10.9924
▁wernu	-10.9928
▁weeɓit	-10.9933
▁ndew	-10.9934
▁Daaluyee	-10.9934
▁woŋkii	-10.9935
golle	-10.9939
▁safaari	-10.9941
▁alhaali	-10.9941
▁Aadinkooɓe	-10.9941
▁caatli	-10.9941
▁fasaadu	-10.9941
▁talkuru	-10.9941
▁ndoondi	-10.9941
▁yarluyee	-10.9941
▁Jakka	-10.9941
▁huɗ	-10.9941
▁hawjere	-10.9942
▁sunoytoo	-10.9942
▁kafidiiɗi	-10.9943
Gorko	-10.9943
▁Seediiɗo	-10.9943
▁dillere	-10.9944
▁hattirde	-10.9945
▁lurral	-10.9945
▁ñallal	-10.9946
▁jeenoowo	-10.9946
▁ɗenƴere	-10.9947
▁sonndu	-10.9947
▁mecce	-10.9947
▁dumunna	-10.9948
▁Juulirde	-10.9949
?!".	-10.995
▁annoore	-10.995
▁ɗaɓɓitude	-10.9951
▁ñaamoton	-10.9952
aki	-10.9952
▁jaggitooɓe	-10.9953
▁Moƴƴere	-10.9953
▁nih	-10.9953
▁fottugol	-10.9954
▁ɗaɓɓitugol	-10.9954
zab	-10.9955
▁gomɗal	-10.9957
▁feewunde	-10.9957
▁maggu	-10.9958
▁feeñuɗi	-10.9958
▁janfotooɗo	-10.9959
▁fempugol	-10.9959
▁feeway	-10.9962
▁jertinooɓe	-10.9964
▁reenoowo	-10.9964
▁yaajeende	-10.9967
▁hoolaaɗo	-10.9967
▁jihaadi	-10.9967
▁daabeeji	-10.9968
▁jayngol	-10.9968
lisii	-10.9969
▁andintin	-10.997
▁townitiiɓe	-10.997
▁deyel	-10.9971
▁Jokku	-10.9972
▁barme	-10.9973
▁Nokku	-10.9973
▁yoorude	-10.9975
▁sakkanaa	-10.9975
▁nawnuɗo	-10.9976
▁lamnd	-10.9978
▁ɓangi	-10.9979
▁luttugol	-10.9979
▁yeebataa	-10.9983
▁hiitinoo	-10.9993
▁mooɓi	-10.9994
ja	-10.9995
▁teddingol	-10.9996
▁insin	-10.9997
▁Laamɗo	-11
▁loonde	-11.0001
▁teddi	-11.0001
▁sikkitiiɓe	-11.0002
uusi	-11.0002
▁jortii	-11.0008
▁fawugol	-11.001
▁accay	-11.0011
▁yottoo	-11.0011
▁asamaan	-11.0012
▁jeegaɓ	-11.0016
▁Laɓɓin	-11.0017
▁eɓɓunoo	-11.002
▁jaɓugol	-11.0026
▁addugol	-11.0031
▁kañu	-11.0035
▁hunnduko	-11.0039
sakkitoore	-11.0041
▁sujjana	-11.0042
▁pecce	-11.0046
▁weddii	-11.0049
▁yetton	-11.0051
▁accugol	-11.006
▁yeeb	-11.0067
▁balan	-11.0067
▁Suu	-11.0068
haɓugol	-11.0075
▁sakkii	-11.0092
▁tippo	-11.0093
▁feƴƴita	-11.0094
▁jeyee	-11.0094
▁ayna	-11.0096
▁Holl	-11.0099
egol	-11.0099
azii	-11.0101
]?"	-11.0102
▁duu	-11.0107
▁waɗira	-11.0112
▁tuubuɓe	-11.0113
▁pol	-11.0118
▁tanƴinor	-11.0119
▁fuɗini	-11.012
▁Annasaara	-11.0122
▁sokii	-11.0123
▁hatonjina	-11.0125
▁di	-11.0126
▁werni	-11.0132
▁ɓador	-11.0132
yanke	-11.0133
esan	-11.0133
▁wurti	-11.0139
▁wuuruɗo	-11.0141
▁anniyii	-11.0142
▁hebbin	-11.0143
▁woond	-11.0144
▁laaw	-11.0147
▁Galaa	-11.0151
▁naatidi	-11.0152
▁Mbatu	-11.0154
▁Bun	-11.0156
reede	-11.0157
▁dool	-11.0163
▁fawotoo	-11.0167
yaa	-11.0181
▁anndugol	-11.0181
▁fantin	-11.0182
▁daɗ	-11.0183
▁baap	-11.0183
▁yeɗu	-11.0184
▁wonoyay	-11.0189
▁Ɓee	-11.0191
▁lontii	-11.0198
tino	-11.0203
▁becc	-11.0204
efaa	-11.0205
men	-11.0208
▁wonataa	-11.0218
▁yeɗe	-11.022
▁aad	-11.0229
▁daalanno	-11.0231
▁kurka	-11.0234
▁hulani	-11.0234
▁ɗaɓɓit	-11.0237
▁maay	-11.0237
▁murtu	-11.0248
▁hebulii	-11.025
▁Aarabu	-11.0254
▁wonnd	-11.0266
goo	-11.027
▁wote	-11.0278
▁Heefer	-11.0284
▁sow	-11.0291
▁njo	-11.0293
▁naad	-11.0299
ndal	-11.0301
▁haari	-11.0315
▁wu	-11.0318
▁naatna	-11.0319
▁hodi	-11.0319
▁waawan	-11.0323
▁seedo	-11.0324
▁Wind	-11.0324
▁wuurnitir	-11.0326
▁yeeto	-11.0326
▁!".	-11.0333
▁feew	-11.0333
▁satt	-11.0335
▁bakkaat	-11.0336
▁sutii	-11.0341
▁wee	-11.0356
▁aroya	-11.0356
▁heɗinoo	-11.0356
▁malaykaa	-11.0359
▁yawtan	-11.037
▁saatinaa	-11.037
▁ruttee	-11.0371
▁Mat	-11.0374
▁wontidi	-11.0375
▁hewtu	-11.0378
▁fanni	-11.0381
▁heɗit	-11.0389
▁maayata	-11.0391
▁aanini	-11.0394
▁maama	-11.0396
▁tamper	-11.0397
ode	-11.04
oree	-11.0404
▁sendondir	-11.0415
▁ittan	-11.0415
▁daro	-11.0416
▁wiide	-11.0418
▁maayay	-11.0439
mbugal	-11.0446
▁totti	-11.0452
▁Lis	-11.0458
▁lunndii	-11.046
▁ɗayn	-11.047
▁hewtoy	-11.0476
▁yahuno	-11.0476
iil	-11.0478
tanii	-11.0479
▁nula	-11.0486
▁longinaa	-11.0504
▁fulawaa	-11.0504
▁holnii	-11.0516
▁fensit	-11.0519
yaama	-11.052
▁siforaa	-11.0527
▁juul	-11.0529
▁windirani	-11.0532
▁nulaaɗ	-11.0542
▁njanɗu	-11.0543
▁haananaa	-11.0543
▁mem	-11.0546
irani	-11.0547
▁nuliri	-11.0552
▁taga	-11.0554
day	-11.0554
▁wuurnit	-11.0585
▁keɓ	-11.0587
▁mawnii	-11.0589
▁hebbini	-11.0596
▁Suka	-11.0602
▁beyti	-11.0604
ondir	-11.0607
▁heɓoy	-11.062
▁jannir	-11.0625
▁mottindir	-11.0637
▁pooɗi	-11.0641
▁jippina	-11.0642
ndeejo	-11.0643
▁dillin	-11.0643
▁janngu	-11.0648
▁binnde	-11.0651
▁raɗo	-11.0655
▁lontinir	-11.0658
▁Naat	-11.0662
ingi	-11.0662
▁ɓangini	-11.067
▁waɗete	-11.0671
▁immintinoy	-11.0677
data	-11.068
anagol	-11.0681
▁fellitu	-11.0685
▁Ɗoft	-11.0692
resugol	-11.0692
▁haasidi	-11.0693
▁sellu	-11.0694
▁Bir	-11.0703
▁lobb	-11.0704
▁senditi	-11.0705
▁mett	-11.0713
▁Woodanii	-11.0715
▁Jippinii	-11.0716
▁feƴƴiti	-11.0719
▁toowi	-11.0719
▁juu	-11.0727
▁jokkee	-11.0734
▁hulunoo	-11.0737
▁Ak	-11.0739
▁caa	-11.0741
▁findin	-11.0752
▁artira	-11.0753
▁Ja	-11.0753
▁ittay	-11.0754
▁Fuɗɗ	-11.0757
▁jogaa	-11.076
▁weeri	-11.0767
▁ger	-11.0773
▁tinndin	-11.0778
▁Moƴƴ	-11.078
▁ŋerm	-11.0782
▁Faw	-11.0787
▁soodi	-11.0791
▁fecc	-11.0792
▁haɓ	-11.0798
▁timmung	-11.0807
▁Nulir	-11.0807
▁seeditana	-11.0811
yɓe	-11.0816
▁ñaawu	-11.0816
uur	-11.0822
giri	-11.0823
▁naa	-11.0828
▁ɲo	-11.0833
don	-11.0838
inaaɓe	-11.0849
ɓu	-11.085
aamu	-11.0851
▁hipp	-11.0853
▁juula	-11.086
▁huɓɓi	-11.0865
▁humpiti	-11.0866
▁ro	-11.087
▁sanki	-11.0876
▁jogitotoo	-11.0878
▁He	-11.088
indira	-11.0885
ntaa	-11.0887
iɓɓe	-11.0898
▁!"	-11.0903
bbe	-11.0909
▁dartor	-11.0911
ŋ	-11.0913
▁Humpit	-11.0914
▁yilt	-11.0914
▁boofo	-11.0923
gomɗinal	-11.0925
▁fennuno	-11.0926
ndinii	-11.093
▁satti	-11.0941
fe	-11.0941
ɓay	-11.0944
ɓee	-11.0949
▁noddir	-11.0949
▁torano	-11.0952
▁ɓaɗto	-11.0954
▁nanngu	-11.0956
▁selluɗ	-11.0963
adiiɓe	-11.0965
rɗo	-11.0967
▁Waɗir	-11.0968
oyton	-11.0976
▁Neɗɗ	-11.0981
▁soki	-11.0987
▁Naa	-11.0993
▁wennja	-11.0994
▁lootee	-11.0996
▁weeɓiti	-11.0997
▁nanndi	-11.1007
inoke	-11.1008
oodi	-11.1013
▁yaltinir	-11.1017
rewɓe	-11.1022
yurmeende	-11.1029
▁datto	-11.1029
▁dabb	-11.103
▁Nuli	-11.1036
Nulaaɓe	-11.1036
▁heddotoo	-11.1045
▁ɗuuɗ	-11.1045
▁ronini	-11.1046
▁pal	-11.1047
▁janni	-11.1048
Malaa	-11.1053
nannde	-11.1055
▁Dar	-11.1058
Salaam	-11.1063
▁sujja	-11.1064
Hay	-11.1066
▁looti	-11.1071
nd	-11.1073
▁iwata	-11.1076
▁dun	-11.1077
▁bugit	-11.1081
▁muɲ	-11.1082
▁tott	-11.1088
▁rimu	-11.1089
cen	-11.1092
ŋke	-11.1092
Hey	-11.1099
▁jarn	-11.1108
▁Jokk	-11.1109
antoo	-11.1117
▁duñ	-11.1122
fa	-11.1122
▁Fod	-11.1127
▁Ɗo	-11.1136
▁Ji	-11.1153
▁tabit	-11.1154
▁ɗaɓɓata	-11.1164
▁ɓorno	-11.1165
neema	-11.1178
▁fokkiti	-11.1199
▁jalbuɗ	-11.1204
▁yaw	-11.1209
▁Yee	-11.1211
▁mbilee	-11.1211
▁nanira	-11.1213
toɗaa	-11.1215
anoɗon	-11.1223
▁huɓind	-11.1224
nuɗo	-11.1231
▁njano	-11.1232
▁hakke	-11.1237
▁Immin	-11.1242
min	-11.1248
▁hoo	-11.1249
?!"	-11.1252
▁mulir	-11.1254
▁yaada	-11.1256
▁Okka	-11.1256
▁boɗe	-11.1258
renii	-11.1265
▁jogitoto	-11.127
▁firta	-11.1271
eeje	-11.1272
tanaa	-11.1273
▁wallata	-11.1277
tanay	-11.1278
▁huutori	-11.1281
▁tellini	-11.1287
▁feggo	-11.1294
▁yaltiti	-11.1301
▁hendor	-11.1301
▁lunnda	-11.1303
▁fewjod	-11.1315
baaru	-11.1317
▁daak	-11.132
▁ñaamata	-11.1321
▁tuuni	-11.1325
ef	-11.1335
▁Ɗe	-11.1339
▁diw	-11.1343
▁Herood	-11.1346
▁selu	-11.1347
▁tawanoo	-11.1356
▁awr	-11.1358
ettii	-11.1358
Naatir	-11.1362
beleeɗe	-11.1362
▁rem	-11.1367
▁ndaaraa	-11.1368
▁beembal	-11.137
▁labbooru	-11.137
▁mbeelu	-11.137
▁renngaaji	-11.137
▁sagatalaaku	-11.137
▁zakka	-11.137
▁ayiibe	-11.137
▁Hinnayee	-11.137
▁fantimɓe	-11.137
▁pirc	-11.137
▁ɓaɗtaade	-11.137
▁gilngii	-11.137
▁neweende	-11.137
▁huɓeere	-11.137
▁komoyaagal	-11.137
▁ngeyngu	-11.137
▁jaaman	-11.137
▁Muññiiɗo	-11.1371
▁ƴiiƴam	-11.1371
▁Ñeeñal	-11.1372
▁laawotooɓe	-11.1372
▁arkawal	-11.1372
▁tulde	-11.1372
▁tosook	-11.1372
▁wuddere	-11.1372
▁ɓaaror	-11.1372
▁sikkitaaki	-11.1372
▁Yaafotooɗo	-11.1373
▁ewnotooɗo	-11.1373
▁sawru	-11.1373
▁ujunere	-11.1374
▁faandaaki	-11.1374
▁wewlinoowo	-11.1374
▁mojobere	-11.1374
▁Saalihu	-11.1375
▁ñeeñal	-11.1376
▁hibbugol	-11.1377
ungal	-11.1378
▁tamarooje	-11.1378
▁ñaawooɓe	-11.1378
▁Ballo	-11.1378
▁foccugol	-11.1378
▁haforaneede	-11.1379
▁ñalɗi	-11.1379
▁ngurda	-11.1379
▁jattin	-11.1379
▁fodunoo	-11.1379
▁sottugol	-11.138
▁yaccoo	-11.138
▁caangol	-11.138
▁sifotoo	-11.1381
uwaasi	-11.1381
▁naafiqi	-11.1381
▁moƴƴintingol	-11.1382
▁maletaake	-11.1382
▁hembo	-11.1383
▁tijjaa	-11.1383
▁Wewlinir	-11.1384
▁jaafa	-11.1384
▁yondinor	-11.1384
▁wujju	-11.1384
▁hasii	-11.1384
▁kuura	-11.1385
▁ƴawata	-11.1386
▁hujjaaji	-11.1387
▁Tur	-11.1388
▁immintinoyteeɓe	-11.139
▁jaangol	-11.1392
▁donkingol	-11.1395
▁daɗndiiɗo	-11.1396
▁Quraana	-11.1398
▁newori	-11.1399
▁njuuri	-11.1399
▁nguurdam	-11.14
▁Muhammadu	-11.1401
▁Wurin	-11.1402
▁faaɗuɓe	-11.1402
▁baal	-11.1403
▁allaa	-11.1403
▁wallitagol	-11.1404
▁ɗuurniiɗo	-11.1404
▁laatornoo	-11.1404
▁foolay	-11.1404
▁nganndon	-11.1405
▁kuɓeeje	-11.1407
▁sooke	-11.1407
ibla	-11.1407
▁jala	-11.1408
▁añinii	-11.1409
▁nayeejo	-11.141
▁laamagol	-11.141
▁rewe	-11.1411
▁tiiɗungol	-11.1412
uujo	-11.1412
▁tooñuɗo	-11.1413
▁majjuɗo	-11.1414
naano	-11.1416
▁hayrere	-11.1417
▁naatooɓe	-11.1418
▁reenuɗo	-11.1418
▁maayaali	-11.1418
▁finnde	-11.1419
▁saɗtuɗo	-11.1419
▁weerde	-11.142
▁daɗndir	-11.142
▁ñaamugol	-11.1421
▁feewude	-11.1422
▁huutorgol	-11.1422
▁tedduɓe	-11.1423
▁nee	-11.1423
▁naniri	-11.1424
▁enɗan	-11.1424
▁hoynugol	-11.1426
▁añɓe	-11.1431
moojo	-11.1432
▁reenooɓe	-11.1434
▁yeɗugol	-11.1438
▁yiitid	-11.144
▁hunditi	-11.144
▁def	-11.144
▁Okkor	-11.144
▁ɗaɓɓaynoo	-11.144
▁waroowo	-11.1441
▁yumm	-11.1442
▁jeeno	-11.1446
▁fodanoo	-11.1448
▁ɗowti	-11.1451
▁reweteeɓe	-11.1453
▁gollal	-11.1454
▁bewɓe	-11.1455
iriskii	-11.1456
▁haɓɓitii	-11.1457
▁Tor	-11.1462
▁anndunoo	-11.1463
▁laatotoo	-11.1467
▁tindoh	-11.147
▁ngoonɗinii	-11.1471
▁Wakkilo	-11.1471
▁tiinde	-11.1473
okkugol	-11.1474
▁njanɗ	-11.1475
▁lonto	-11.1483
▁doo	-11.1484
▁yankinano	-11.1484
▁wumu	-11.1491
▁hormante	-11.1494
▁fempidaa	-11.1495
▁Qur	-11.1498
▁nulaaɓe	-11.1503
iida	-11.1504
▁hirs	-11.1504
▁noddude	-11.1505
▁fillano	-11.1505
▁waɗti	-11.1506
▁Hinarank	-11.1508
▁hirbondir	-11.1508
▁gerto	-11.151
▁heɓoyta	-11.1512
▁wallu	-11.1516
▁yiɗuɗon	-11.1519
Heɗee	-11.1519
il	-11.152
▁kafidu	-11.1522
▁jamm	-11.1525
Ñaame	-11.1528
▁memmin	-11.1531
▁fewndori	-11.1541
▁welt	-11.1543
▁kammbaa	-11.1544
▁dandito	-11.1544
▁ɗaynito	-11.1545
▁naamno	-11.1546
▁hulay	-11.1551
]".	-11.1552
wɓe	-11.1552
▁fur	-11.1552
▁waylii	-11.156
▁moƴƴingol	-11.1561
▁eɓɓ	-11.1561
▁yaraa	-11.1562
▁yiɗuno	-11.1562
teende	-11.1565
oyee	-11.1566
aku	-11.1567
▁hittini	-11.1568
▁luttu	-11.157
ontii	-11.1579
▁anndii	-11.1581
▁feeñu	-11.1582
alorma	-11.1582
▁loote	-11.1583
▁nanooɓe	-11.1584
▁jangu	-11.1586
ette	-11.1588
▁haɗtanɗo	-11.1592
iraynoo	-11.1602
▁ɓeydataa	-11.1604
▁ŋata	-11.161
ɓandu	-11.1612
▁ɗiggu	-11.1615
▁sunnir	-11.1616
La	-11.1621
▁pottini	-11.1623
▁ɓanginan	-11.1628
▁luutondiri	-11.1628
▁Ɗee	-11.1629
▁cuuɗ	-11.163
▁moolor	-11.1641
azar	-11.1641
▁ndeer	-11.1643
▁alana	-11.1643
▁naadu	-11.165
urɓa	-11.1657
▁hoy	-11.166
▁janf	-11.1661
▁weerni	-11.1663
▁cu	-11.1667
▁ñaawata	-11.1668
▁yangi	-11.1673
▁haqqilay	-11.1679
▁meeɗin	-11.168
▁hendaa	-11.1687
▁janfotoo	-11.169
▁sankata	-11.1691
▁yaaju	-11.1693
▁anndira	-11.1695
▁ahodi	-11.1697
▁hulɓinir	-11.1708
▁neemini	-11.1714
▁jaasi	-11.1716
▁sattin	-11.1717
▁hewta	-11.1729
▁lannd	-11.1743
▁kose	-11.1751
▁maranii	-11.1766
kii	-11.1769
▁yeeyi	-11.1772
▁ɲaamaa	-11.1772
▁accidi	-11.1773
▁maanditi	-11.1779
▁ɗaɓɓiri	-11.1781
▁holliri	-11.1782
▁fensita	-11.1788
▁njofoo	-11.1793
▁fen	-11.1796
andal	-11.1797
▁hulude	-11.1797
awu	-11.1799
▁heyɗintin	-11.1801
▁dimb	-11.1801
▁yewtira	-11.1801
▁jaggit	-11.1807
▁jokke	-11.1808
▁luttata	-11.1812
▁Noddir	-11.1818
▁je	-11.1821
▁tippin	-11.1824
▁ɓorni	-11.1825
nnabaaɓe	-11.1828
▁janngo	-11.1842
▁fanɗ	-11.1844
▁naninta	-11.1848
▁tabitu	-11.1852
▁beyt	-11.1856
▁yaltay	-11.1857
▁landaa	-11.1862
aawo	-11.1868
eteeɓe	-11.187
nngel	-11.1872
▁seek	-11.1874
▁watte	-11.1874
ɗɗere	-11.1901
▁yaafant	-11.1904
▁cato	-11.1913
▁aala	-11.1914
▁ndaare	-11.1919
▁waɗɗinoo	-11.192
▁mbil	-11.192
▁maloyte	-11.1923
▁his	-11.1931
▁heewuɗ	-11.1933
▁tert	-11.1937
▁waɗant	-11.1937
atu	-11.1945
▁fotondir	-11.1956
mmbugol	-11.1958
▁bugoɗ	-11.1959
raaɗo	-11.1959
▁ɓura	-11.196
▁wayla	-11.1963
▁dag	-11.1964
lan	-11.1966
▁heɗaa	-11.1971
▁jant	-11.1973
▁wewlinir	-11.1976
onii	-11.1983
▁mawnina	-11.1986
roowo	-11.1996
▁yaltinaa	-11.2
▁iwrun	-11.2002
▁wonoyta	-11.2002
lette	-11.2003
▁Arsiki	-11.2003
▁ñal	-11.2012
daygu	-11.2014
▁joomiraa	-11.2014
ndee	-11.2018
▁hayra	-11.2028
▁alat	-11.2033
▁Mbe	-11.2036
▁lanc	-11.2042
▁yewtidi	-11.2049
▁yurmee	-11.2054
▁jaabori	-11.2059
▁Acc	-11.2069
▁ño	-11.207
▁tagoo	-11.2072
▁warɗo	-11.2074
▁ɓurni	-11.2077
▁Du	-11.2084
▁hawrata	-11.2088
▁danko	-11.2091
indori	-11.2094
▁elti	-11.2094
▁gar	-11.2105
▁monee	-11.2111
dagol	-11.2111
▁huɗaa	-11.2118
▁tampir	-11.2127
▁tuuba	-11.213
empee	-11.213
▁yurme	-11.2135
▁moƴƴinii	-11.2148
▁sooda	-11.2151
▁Ɲalaa	-11.2154
agge	-11.2158
▁heɗitii	-11.2161
oyteeɓe	-11.2164
▁Neemini	-11.2164
▁Tagii	-11.2165
▁ŋ	-11.217
▁Akii	-11.2172
▁hunnu	-11.2174
▁tasko	-11.2179
▁tumbi	-11.218
▁hoɗuɗo	-11.218
▁See	-11.2182
▁raɗa	-11.219
▁haqqill	-11.2192
▁sepp	-11.2193
▁ƴam	-11.2195
▁laaɓii	-11.2198
▁wallini	-11.2198
ornoo	-11.2203
▁feeɲata	-11.2206
▁ewni	-11.2207
▁hirbi	-11.2208
▁Niko	-11.2209
accuɗo	-11.2216
▁yeɗira	-11.2217
▁waɗɗii	-11.2224
▁waame	-11.223
ddi	-11.2232
aaje	-11.2232
▁Ga	-11.2248
▁Jinna	-11.225
▁haj	-11.2259
▁wifi	-11.2261
nnugol	-11.2267
▁r	-11.2268
oygol	-11.228
▁heɓirɗ	-11.2283
▁ñaaw	-11.2289
▁majju	-11.2301
▁waɗiran	-11.2303
▁hatti	-11.2304
ytuuni	-11.2309
sugol	-11.2312
Wonnde	-11.2315
ggo	-11.2325
▁immit	-11.2331
nte	-11.2332
tina	-11.2335
totaako	-11.2336
▁annaba	-11.2337
▁Huu	-11.2337
▁aan	-11.2344
▁heɓunoo	-11.2365
▁ɗoftoto	-11.2375
kkun	-11.2376
▁jiiɓ	-11.2381
▁lolli	-11.2388
▁Ñ	-11.2391
[	-11.2396
▁ɓurn	-11.2396
▁adi	-11.2399
▁Andit	-11.2402
▁yool	-11.2416
inkooɓe	-11.2424
▁meem	-11.2427
▁nganndu	-11.2434
▁sooy	-11.244
▁poomayankeer	-11.2447
▁wakkilinaa	-11.2452
antaake	-11.2456
▁send	-11.2458
▁resi	-11.2461
▁wulli	-11.2463
▁seedeej	-11.2467
▁ɓant	-11.2467
▁yottini	-11.2468
▁moƴƴinan	-11.2469
▁kur	-11.247
▁ñaamir	-11.2479
▁yarir	-11.2481
goonga	-11.2497
▁hikkii	-11.2499
▁yoɓitirta	-11.2502
▁jogoran	-11.251
▁naataa	-11.2517
▁yurmin	-11.2518
▁janta	-11.2521
▁jertinir	-11.2522
▁haldi	-11.2524
▁malayka	-11.2525
▁jali	-11.2529
▁wonana	-11.2534
irgol	-11.2534
▁majjina	-11.2538
aaza	-11.254
ado	-11.2549
▁yurmi	-11.2558
diri	-11.2565
▁fitta	-11.2567
nndude	-11.2575
▁heewii	-11.2578
▁daroto	-11.2581
▁fawo	-11.2588
▁ɓeydir	-11.2596
▁feeɲira	-11.2597
▁darotoo	-11.2601
▁takk	-11.2605
▁sonk	-11.2607
▁tellin	-11.2621
▁holle	-11.2622
▁weltani	-11.2622
▁muli	-11.2622
▁fodii	-11.2625
▁lett	-11.264
▁himmani	-11.2646
▁sakk	-11.265
▁ndarndo	-11.2651
▁Wahayinaa	-11.266
▁kawtir	-11.266
▁andiri	-11.2666
wonnde	-11.2673
▁yaade	-11.2673
▁heñ	-11.2677
▁fena	-11.2681
▁Boo	-11.2682
noyte	-11.2687
▁Nga	-11.2691
▁tonng	-11.2694
▁ŋaɲɲii	-11.2698
▁jokkuɗ	-11.2699
tori	-11.2699
▁nangu	-11.27
▁poo	-11.2706
njoɓdi	-11.2707
▁wariraa	-11.2708
iray	-11.2723
▁ɓeydora	-11.2725
▁huluɗo	-11.2726
Am	-11.273
▁Qaa	-11.2733
▁laɓɓinir	-11.2734
aɓo	-11.2735
▁sank	-11.2735
▁bewi	-11.2735
taara	-11.2741
▁tugg	-11.2747
maniiyu	-11.2747
▁Toro	-11.2751
▁moolanaang	-11.2753
hakkil	-11.2758
▁dunc	-11.2758
sella	-11.276
kadi	-11.2771
moƴƴe	-11.2776
▁ronk	-11.2778
▁Jaɓan	-11.2779
andii	-11.2789
▁duumi	-11.279
▁jaɓani	-11.2791
▁fank	-11.2801
▁rewetee	-11.2801
▁wallindir	-11.2805
▁ɗaɓɓan	-11.2806
tirta	-11.2809
▁Le	-11.2817
heewuɓe	-11.2819
▁sort	-11.2821
▁wondaa	-11.2823
nɗe	-11.2826
▁wooda	-11.2832
▁weltod	-11.2845
▁feɲɲini	-11.2849
▁fempaa	-11.2852
▁tiiɗnor	-11.2854
▁pottit	-11.2859
▁yeddata	-11.2881
kala	-11.2883
▁fegg	-11.2888
▁nanngira	-11.2894
ayre	-11.2907
▁semmb	-11.2907
sii	-11.2908
▁juut	-11.2909
▁warr	-11.291
▁Ɲaaw	-11.2914
aɗe	-11.2915
▁fensiti	-11.2923
▁ittata	-11.2934
▁winnd	-11.2938
▁riba	-11.2947
▁immintintee	-11.2949
▁Naada	-11.2953
▁Salm	-11.2956
▁jaɓana	-11.2957
▁ngoonɗin	-11.2958
▁barkin	-11.2958
▁yanu	-11.2965
rton	-11.2967
▁woɗɗiti	-11.2967
▁wiiru	-11.2968
▁Task	-11.2979
▁omb	-11.298
H	-11.298
▁mantora	-11.298
▁rewr	-11.2982
▁bonnaa	-11.2991
▁ñeeñ	-11.2991
▁sikkitii	-11.2992
▁addaa	-11.2993
nan	-11.2995
▁Daalan	-11.3
▁yurmina	-11.3003
▁ngurnda	-11.3005
joɓdi	-11.3005
▁ɲaamida	-11.3011
rtugol	-11.302
è	-11.3029
▁nodday	-11.3029
▁ujune	-11.3032
duɗo	-11.3033
▁wowliran	-11.3033
▁salmin	-11.3035
▁remuru	-11.3036
▁paatawol	-11.3036
▁zaytuuni	-11.3036
▁Arist	-11.3036
▁bammonee	-11.3036
▁fatayɗam	-11.3036
▁inabuuje	-11.3036
▁ruugayngel	-11.3036
▁sanngara	-11.3036
▁jurriiya	-11.3036
▁mummunte	-11.3036
▁njaareendi	-11.3036
▁ɓoggol	-11.3036
▁ɗurniiɓe	-11.3036
▁hiirnaange	-11.3036
▁Yassaa	-11.3036
▁hunƴeendi	-11.3036
▁foofaango	-11.3036
▁kunnawal	-11.3036
▁sagara	-11.3036
▁Haamaana	-11.3036
▁sunine	-11.3036
▁burmusu	-11.3036
▁Focciingol	-11.3036
▁eggudu	-11.3036
▁Annoora	-11.3037
▁njaltina	-11.3037
▁tooweendi	-11.3037
▁Artem	-11.3037
▁walluhaa	-11.3037
▁teddeendi	-11.3037
▁faasiqiyaagal	-11.3037
▁bannge	-11.3037
▁Huuɓuɗo	-11.3037
▁piggal	-11.3037
▁ndontoori	-11.3037
▁heefereeɓe	-11.3038
▁saafaandu	-11.3038
▁haforoowo	-11.3038
▁koorka	-11.3038
▁taabal	-11.3038
▁Ɗuurn	-11.3038
▁wowlataa	-11.3038
▁gabooru	-11.3038
▁dukke	-11.3038
▁jukkuɗo	-11.3038
▁Newiiɗo	-11.3038
▁jortaaki	-11.3039
▁ngayuuri	-11.3039
▁miijitotooɓe	-11.3039
▁tiggaare	-11.3039
▁Madiina	-11.304
▁daneere	-11.304
▁daƴƴere	-11.304
▁Yeɗoowo	-11.304
▁muusɗe	-11.304
▁nimse	-11.304
▁njaatigi	-11.3041
▁yaaw	-11.3041
▁feewungol	-11.3041
▁mojobe	-11.3041
▁tefoowo	-11.3041
▁suuɗotaako	-11.3041
▁ɗuurnike	-11.3041
aroyta	-11.3041
▁tefooɓe	-11.3042
▁muññike	-11.3043
▁yawtiino	-11.3043
▁sujjooɓe	-11.3043
▁Nanngitir	-11.3044
▁newiniri	-11.3044
ndirde	-11.3044
▁fitaare	-11.3044
▁mboboojo	-11.3045
▁taƴondirtaa	-11.3045
▁woŋkiiji	-11.3046
sidii	-11.3046
▁jarra	-11.3046
▁junndi	-11.3046
▁liɓugol	-11.3047
rsiis	-11.3048
▁ɲaawete	-11.3048
▁daɗndoowo	-11.3048
▁ƴettay	-11.3049
▁jeenooɓe	-11.305
bunɗan	-11.305
▁ɓantugol	-11.305
▁Luuti	-11.305
▁Jaka	-11.3052
▁meemaali	-11.3053
▁sujjugol	-11.3054
▁haanirani	-11.3055
▁felniiɗo	-11.3055
▁biini	-11.3056
▁feññinta	-11.3056
▁anndah	-11.3057
▁immoyto	-11.3057
▁fottunoo	-11.3058
▁luttinteeɓe	-11.3058
▁jaɓɓii	-11.3058
▁deƴƴi	-11.3059
▁wintoo	-11.3059
▁yettoowo	-11.3061
▁haɓɓugol	-11.3062
▁danɗe	-11.3062
▁sikkitiiɗo	-11.3062
▁foolooɓe	-11.3063
▁sooyuɓe	-11.3063
meeter	-11.3064
▁seppa	-11.3066
▁jarrab	-11.3067
▁aybingol	-11.3067
▁kirse	-11.3067
▁jaasuɓe	-11.3068
▁kuɗol	-11.3069
▁ruttike	-11.307
▁enɗam	-11.307
▁Annabaaku	-11.307
▁janfoytoo	-11.307
▁laatano	-11.3071
▁fanɗuɓe	-11.3071
▁jeyru	-11.3071
▁faalanaɗ	-11.3071
▁halal	-11.3073
▁hawjan	-11.3073
▁darorde	-11.3073
▁njandi	-11.3074
▁boɗeejo	-11.3074
▁jeetataɓ	-11.3074
▁tabitugol	-11.3075
reejo	-11.3075
▁njiɗ	-11.3076
▁nunɗude	-11.3076
▁takkii	-11.3078
▁caate	-11.3079
▁imminaaɓe	-11.308
▁nelaaɓe	-11.308
▁surroy	-11.308
▁jeeɗiɗaɓ	-11.3082
▁waylugol	-11.3082
▁sonnj	-11.3083
▁darnugol	-11.3083
▁senndindir	-11.3085
▁wattude	-11.3085
iiru	-11.3087
▁kolmb	-11.3088
▁ganndo	-11.3093
▁tabitude	-11.3095
▁ɲaawird	-11.3095
▁naɓugol	-11.3096
▁Misra	-11.3096
▁gomɗinno	-11.3096
▁seediiɗo	-11.3097
▁juuti	-11.31
▁ngil	-11.3102
▁yangan	-11.3104
▁yoom	-11.3104
▁woɗɗintin	-11.3105
▁hanndi	-11.3107
▁julɓe	-11.3107
▁laatagol	-11.3108
▁yarugol	-11.3109
▁tuubuɗo	-11.3112
▁moƴƴintin	-11.3113
▁hayrugol	-11.312
▁jiidi	-11.3121
▁timmuɗe	-11.3126
▁heblanii	-11.3129
▁ɓadondiral	-11.3131
▁Tuuri	-11.3135
bbee	-11.3139
▁maccanga	-11.314
onannde	-11.3141
biila	-11.3142
▁waajitoray	-11.3144
▁maayugol	-11.3146
▁ɗaynir	-11.3146
▁yettii	-11.3146
▁mawnintiniiɗo	-11.3148
▁Ñaawir	-11.3153
▁fijir	-11.3156
ɲan	-11.3159
▁adinoo	-11.316
▁don	-11.3162
▁teddinaaɓe	-11.3163
▁daganii	-11.3163
▁jantotoo	-11.3179
▁ceer	-11.3185
▁tawaaɗo	-11.3187
▁mantoo	-11.3194
ireede	-11.3199
▁janga	-11.3201
dira	-11.3201
alminaango	-11.3204
aneede	-11.3205
▁dandiree	-11.3205
▁tooñunoo	-11.3206
▁doŋl	-11.3209
ooyi	-11.3216
iba	-11.3216
▁goonɗi	-11.3217
▁wowlanii	-11.3219
▁mawniniree	-11.3221
▁werloo	-11.3222
▁fegginay	-11.3223
▁laatod	-11.3225
▁dartotoo	-11.3225
▁waɗtit	-11.3226
aykun	-11.3231
▁tiiɗnii	-11.3239
▁Heɗit	-11.3239
▁musi	-11.324
▁weltoo	-11.3241
▁yaññan	-11.3243
ondiree	-11.3243
▁naadira	-11.3244
▁miijotoo	-11.3246
ita	-11.3246
▁wuuran	-11.3247
▁hoyɓe	-11.3252
▁saakit	-11.3255
ccuɗo	-11.3256
▁Ngal	-11.3256
▁anduɗo	-11.3257
▁goot	-11.3259
▁aawaa	-11.3262
Laato	-11.3263
▁wuura	-11.3265
▁nanugol	-11.3267
▁feeñani	-11.3268
▁woytaa	-11.327
▁waɗɗ	-11.3275
▁foola	-11.3276
▁dimbi	-11.3276
ɓawre	-11.3278
▁yaroowo	-11.3281
▁Gay	-11.3288
▁arnoo	-11.3288
▁feƴƴunoo	-11.3292
▁jaɓitant	-11.3295
▁winndir	-11.3297
▁afo	-11.3297
▁haforana	-11.3298
luuje	-11.33
▁tutt	-11.3301
▁doy	-11.3303
▁sogga	-11.3304
▁luu	-11.3306
▁Rokk	-11.3311
▁hisin	-11.3315
▁seytini	-11.3322
▁jooɗiiɗo	-11.3324
▁kesi	-11.3325
▁fiɗi	-11.3325
▁aɲu	-11.3326
▁anngis	-11.333
▁maɓ	-11.333
▁muu	-11.3336
▁jiiɓu	-11.3339
▁jicciiɓe	-11.3339
▁feƴƴini	-11.3341
▁tagani	-11.3349
▁gaboo	-11.3358
▁per	-11.3359
▁ndungu	-11.336
▁yooru	-11.3363
▁cukkan	-11.3369
▁jar	-11.3371
▁tooñu	-11.3374
▁daɗay	-11.3377
▁Sifa	-11.3378
▁Ndiya	-11.3378
▁janng	-11.3378
▁waɗuɗon	-11.3382
▁imminnoo	-11.3387
▁keer	-11.3388
▁wontu	-11.339
▁bonng	-11.3394
jol	-11.3395
▁sakkitoro	-11.3396
▁Im	-11.3398
▁jippinirii	-11.3398
▁dakmiti	-11.3405
wnde	-11.3409
▁jaɓaa	-11.341
▁Suɓi	-11.3413
▁layya	-11.3421
▁wii	-11.3422
ŋta	-11.3424
▁senƴ	-11.3425
▁ɓeydo	-11.343
▁Waɗa	-11.3435
▁toree	-11.3438
▁huutora	-11.3439
▁Woll	-11.3443
▁luttoowo	-11.3448
▁waɗoya	-11.3451
▁wallataa	-11.3454
▁Yurmin	-11.3455
toyay	-11.3459
añugol	-11.3459
▁fuɗɗor	-11.3461
▁yaltoy	-11.3464
▁ɲaaway	-11.3465
▁wasiyii	-11.3473
▁heɗo	-11.3479
▁mooɓindir	-11.3482
▁lancay	-11.3487
nnda	-11.3487
om	-11.3492
▁deeƴir	-11.3496
▁accani	-11.3499
▁feewuɗ	-11.3502
▁ɓoori	-11.351
▁jebbil	-11.351
▁wonday	-11.3515
Ñiiɓee	-11.3519
▁aw	-11.3522
▁añ	-11.3523
▁liddondir	-11.3533
▁rewon	-11.3533
▁yungoo	-11.3538
tol	-11.3543
▁satte	-11.3544
▁kal	-11.3544
)?	-11.3545
▁bugoto	-11.3545
▁wakkilo	-11.3549
▁nafi	-11.3549
▁bay	-11.355
▁Nodd	-11.355
▁ewn	-11.3552
oɗo	-11.3554
D	-11.3554
▁Jippiniri	-11.3554
▁yiɗa	-11.3563
▁sab	-11.3567
yol	-11.3568
▁yooɓo	-11.3577
▁jibiniraa	-11.3578
▁renndin	-11.3579
▁yaawuɗo	-11.3584
▁soodir	-11.3587
▁sumi	-11.3587
Oo	-11.3588
▁nanndo	-11.3594
▁jangi	-11.3594
at	-11.3597
▁alɗi	-11.3598
▁Fa	-11.3598
▁jaŋt	-11.3599
▁fellitii	-11.36
▁as	-11.3601
▁ƴuuni	-11.3602
▁waɗuno	-11.3606
▁gollidoo	-11.3606
▁windu	-11.3609
▁karh	-11.3617
▁muɲɲ	-11.3627
▁yiltu	-11.3628
▁iwa	-11.363
Ɗi	-11.3636
▁fempi	-11.3637
▁waray	-11.364
▁dilla	-11.364
▁waɗane	-11.3641
▁juuri	-11.3643
▁siŋ	-11.3645
▁mawnintino	-11.3646
▁dande	-11.3648
▁habbor	-11.3652
iina	-11.3655
fen	-11.3655
▁Taa	-11.3659
▁meeɗi	-11.3663
▁lanni	-11.3665
▁humi	-11.3667
▁jogitorii	-11.3672
▁jooɗ	-11.3674
▁Goll	-11.3676
▁yogo	-11.3676
▁ɓuɓɓin	-11.3678
▁feɲɲinana	-11.3679
▁Mun	-11.3681
▁Kon	-11.3686
nataa	-11.369
▁welto	-11.3697
▁yottotoo	-11.3697
▁tinna	-11.3698
▁ndaaroy	-11.37
▁noddoyt	-11.3704
▁feeñ	-11.3714
▁okkort	-11.3715
▁ronkay	-11.372
▁deeƴ	-11.3724
ggugol	-11.3731
ijo	-11.3733
ragol	-11.3743
▁jantaa	-11.3747
▁naamu	-11.3747
▁hayla	-11.3748
▁hewtin	-11.3756
▁woodanoo	-11.3757
▁ñaawira	-11.376
▁Wood	-11.3763
▁haalu	-11.3764
ɗude	-11.3767
Wa	-11.3768
▁sar	-11.3775
▁muynin	-11.3775
▁ɓurdindin	-11.3777
▁cukkaa	-11.3787
▁Aw	-11.379
▁njiɗi	-11.3794
▁metta	-11.3802
▁ndikk	-11.3803
▁jippor	-11.3804
▁Goong	-11.3809
▁njeetat	-11.3812
▁malaaɗo	-11.382
iilu	-11.3821
▁hikki	-11.3823
▁ɗayni	-11.3827
▁daɗndii	-11.3833
▁feeɲiri	-11.3834
kkaatu	-11.3836
▁jaɓanaa	-11.3842
▁tawu	-11.385
▁new	-11.3856
▁jalbu	-11.3858
▁muñño	-11.3861
▁feeɲit	-11.3871
▁naɓu	-11.3881
▁hebilani	-11.3882
L	-11.3885
ngiya	-11.3901
▁muncu	-11.3901
▁teddini	-11.3902
▁nenna	-11.3914
▁seedu	-11.3916
unngo	-11.3919
▁feewnata	-11.3921
▁ɗuuɗu	-11.3927
▁wondata	-11.3932
▁we	-11.3941
hara	-11.3949
▁faabor	-11.3962
▁binndoo	-11.3973
▁jonniti	-11.3975
▁ɓoyl	-11.3977
▁mantorta	-11.3979
▁hayrira	-11.3979
▁mottindiri	-11.399
▁uddi	-11.3999
▁heewa	-11.4
▁Darn	-11.4004
▁yarna	-11.4005
▁hittund	-11.4008
▁ɓanginir	-11.4008
▁taƴit	-11.4011
▁laatinir	-11.4013
natah	-11.4014
▁ɓuuɓ	-11.4019
▁haaloo	-11.402
▁ɗaɓɓee	-11.4032
eeru	-11.4068
▁piyani	-11.4071
▁welsind	-11.4074
▁Jonn	-11.4077
▁firtu	-11.408
▁rento	-11.408
▁Yeet	-11.409
wan	-11.4092
▁Rewe	-11.4095
▁sur	-11.4096
▁ɓanngini	-11.41
eere	-11.4106
▁hee	-11.411
▁gi	-11.4119
▁fay	-11.412
▁nanngir	-11.4125
eteɗon	-11.4129
▁majjiri	-11.4135
▁fewjan	-11.4141
▁wuntini	-11.4142
▁meeɗiniri	-11.4149
awa	-11.4149
▁tiiɗun	-11.4151
▁waɗtitir	-11.4159
aaɗum	-11.4163
▁mbar	-11.4167
ayɗo	-11.4171
▁waajitotoo	-11.4172
▁ngannd	-11.4172
▁moƴƴinɗo	-11.4174
▁njeeɗiɗoo	-11.4175
nda	-11.4186
▁holi	-11.4186
▁hoɗa	-11.4191
▁roni	-11.4199
▁waɗor	-11.4214
▁sakkitord	-11.4215
▁waylit	-11.4219
▁mooɓinoo	-11.4221
▁gas	-11.4232
▁Zabu	-11.4232
ante	-11.4234
ngel	-11.4235
▁rawni	-11.4237
▁saɗt	-11.4238
▁kay	-11.4239
Fi	-11.4247
▁buge	-11.4247
▁Muuyii	-11.425
▁ñiiɓn	-11.4256
▁lutta	-11.4257
rjuuji	-11.4259
▁sapp	-11.4264
▁naatoy	-11.4265
teteende	-11.4265
▁Di	-11.4265
▁dandee	-11.4268
▁keɓata	-11.4274
▁wum	-11.4275
jinoowo	-11.4278
tonoo	-11.428
▁pottinaa	-11.4284
▁haqiiqaaj	-11.4288
▁udditani	-11.4293
▁ɗaɓɓira	-11.4294
haray	-11.4295
inanooɓe	-11.4297
▁Yeɗ	-11.4299
▁Jokke	-11.43
▁ayni	-11.4304
▁egg	-11.4307
maaku	-11.4307
▁jokkiri	-11.431
bilee	-11.431
▁raɓɓinɗin	-11.4317
▁rutto	-11.4318
alimaw	-11.4318
uki	-11.4323
▁yewtirta	-11.4323
diy	-11.4326
▁lunn	-11.4328
Nodd	-11.433
▁pot	-11.4333
rataa	-11.4345
huunde	-11.4346
▁immitii	-11.435
ƴi	-11.4353
ammere	-11.4356
andu	-11.4357
▁haanani	-11.4359
▁hettu	-11.436
▁addanta	-11.4378
indir	-11.4379
nga	-11.4383
▁dogira	-11.4391
▁ndarndor	-11.4392
▁semb	-11.4395
▁wontan	-11.4397
Pi	-11.4409
▁ndaygi	-11.4411
ndirgol	-11.4412
▁Ee	-11.4422
tuɗo	-11.4423
lli	-11.4438
▁mawninir	-11.4439
▁hoynan	-11.4441
▁ɗimm	-11.4444
ondirii	-11.4444
▁jonnon	-11.4448
▁yiɗirɗ	-11.4455
ondirgol	-11.4457
ayɗe	-11.4457
tani	-11.4467
dde	-11.447
▁nuunaa	-11.447
wee	-11.4475
▁waɗoy	-11.4475
▁ɓanngin	-11.4475
laawol	-11.4484
▁ummor	-11.4494
▁ñaawa	-11.4499
▁feƴƴitung	-11.4504
M	-11.4507
▁tef	-11.4508
▁sifani	-11.451
▁yilto	-11.4511
ayngal	-11.4516
▁jokkere	-11.4518
▁fewndii	-11.4529
dir	-11.453
▁hollir	-11.4536
▁mahir	-11.4544
▁kula	-11.4545
Hoɗe	-11.4545
▁faaɗa	-11.4547
▁Ye	-11.4551
▁wasiy	-11.4551
▁yenni	-11.4553
Meɗe	-11.4553
▁marɗe	-11.4554
▁aroy	-11.4554
ñaare	-11.4556
nnooɓe	-11.4558
aacaango	-11.456
▁ñiiɓaan	-11.4568
arke	-11.4568
▁windiraa	-11.4568
▁mawnintin	-11.457
▁yamiray	-11.457
tana	-11.457
▁ittir	-11.4577
▁ɗaɓɓuɗo	-11.4577
▁firt	-11.4585
▁ɓanni	-11.4588
yndu	-11.4594
▁fir	-11.4595
yri	-11.4599
▁tuunina	-11.4601
▁kilo	-11.4602
▁bew	-11.4602
▁wattee	-11.4605
ññ	-11.4608
▁maandina	-11.4613
▁moƴƴina	-11.4616
▁luur	-11.4617
▁yaltinan	-11.4617
▁Jooɗo	-11.4619
▁balla	-11.462
▁hoɗir	-11.462
▁tippor	-11.4623
▁hulɓin	-11.4624
▁jillaa	-11.4629
▁suddir	-11.4634
▁wattid	-11.4636
saare	-11.4638
san	-11.464
▁hump	-11.4647
▁joganiɗ	-11.465
▁mbaa	-11.4651
▁wallay	-11.4656
llan	-11.4656
▁faand	-11.4659
▁neli	-11.4665
▁wallinaa	-11.4665
▁bar	-11.4665
▁ndutto	-11.4666
▁dandira	-11.4669
roy	-11.4671
▁Teddin	-11.4672
▁pi	-11.4675
aaniiy	-11.4679
▁Anndini	-11.4687
▁dewo	-11.4691
jawle	-11.47
▁Daal	-11.4706
▁memir	-11.4709
▁ƴellit	-11.471
▁bene	-11.471
▁yiid	-11.4711
▁ngi	-11.4711
anku	-11.4713
sama	-11.4727
bakkaatu	-11.4728
▁Waɗu	-11.4728
▁beyto	-11.473
ɓural	-11.4731
Jaŋto	-11.4732
bii	-11.4734
▁Yiɗu	-11.4736
▁windana	-11.4739
Lepte	-11.4739
▁debee	-11.4748
▁waɗanɗo	-11.4752
Senayee	-11.4754
▁mettu	-11.4756
▁yaaji	-11.477
toɓo	-11.4771
Kere	-11.4787
▁suɓi	-11.479
▁ɓu	-11.4791
eje	-11.4797
▁tuunin	-11.4798
eru	-11.4799
▁yoɓit	-11.4805
kiiki	-11.4818
▁goongu	-11.4821
▁hoolaa	-11.4822
▁tabitaa	-11.4822
▁sonko	-11.4825
hugol	-11.4826
▁iwrung	-11.4832
niim	-11.4834
▁yaaɓa	-11.4836
▁kulo	-11.4837
▁jippinira	-11.4838
▁laɓɓinana	-11.4839
adi	-11.484
▁feɲɲinaa	-11.4847
tta	-11.4848
▁hers	-11.4848
▁bona	-11.4849
▁wallitor	-11.4862
▁kafidaa	-11.4863
An	-11.4866
▁jumpa	-11.4867
▁woowir	-11.4886
▁hewtina	-11.4888
ɓal	-11.489
▁ɓill	-11.4896
▁himmir	-11.4899
olnuɗo	-11.4903
nduɗo	-11.491
▁ɲaamii	-11.4915
aw	-11.4918
▁jalb	-11.4921
Yaa	-11.4922
nndu	-11.4923
▁cuk	-11.4928
▁ɓanginani	-11.4929
▁jiɓo	-11.4939
▁deb	-11.494
▁dill	-11.4941
▁Muusa	-11.4941
▁innete	-11.4945
▁wiya	-11.4953
▁yaafa	-11.4954
▁nennan	-11.4957
bilanii	-11.496
▁nafq	-11.4961
▁tijji	-11.4961
▁ɲaamay	-11.4964
urngol	-11.4965
▁wuu	-11.4969
▁ɲawl	-11.497
▁ɓurani	-11.4975
▁jertinaa	-11.4976
▁nasaara	-11.4977
we	-11.4978
▁hattanaa	-11.4984
▁heñor	-11.4985
▁leptira	-11.4993
ur	-11.4994
▁heɓidaa	-11.5003
▁toɓ	-11.5005
▁pottin	-11.5006
▁aarabu	-11.5008
Addan	-11.5015
▁haanan	-11.5019
▁Huɗi	-11.5025
▁manndak	-11.5032
▁janngee	-11.5034
▁sogon	-11.5034
▁Ayyuuba	-11.5036
▁Linnjiila	-11.5036
▁Ngaynaako	-11.5036
▁lislaamu	-11.5036
▁rawaandu	-11.5036
▁Epaf	-11.5036
▁giɗaale	-11.5036
▁linsere	-11.5036
▁warɲak	-11.5036
▁faggudu	-11.5036
▁pitilol	-11.5036
▁tuŋa	-11.5036
▁naafiqaaku	-11.5036
▁ñaaweteno	-11.5036
▁ŋalaw	-11.5036
▁kotiraawo	-11.5036
▁ɓowrungal	-11.5036
▁dummunne	-11.5036
▁nguyka	-11.5036
▁Muuyuɗaa	-11.5036
▁ceelol	-11.5036
▁mbaroodi	-11.5036
▁Laamateeri	-11.5036
▁kalinwol	-11.5036
findeyaagal	-11.5036
▁bippooru	-11.5036
▁saffeeji	-11.5037
▁Misirayankoo	-11.5037
▁fubbaade	-11.5037
▁karambol	-11.5037
▁jukkunnaa	-11.5037
▁fuɗnaange	-11.5037
▁gorel	-11.5037
▁neldaari	-11.5037
▁setto	-11.5037
▁gabitanji	-11.5037
▁ŋiñere	-11.5037
▁faasiqaaku	-11.5037
▁waadere	-11.5037
▁mbilankaaku	-11.5037
▁ajami	-11.5037
▁Rutt	-11.5037
▁Telen	-11.5038
▁fayda	-11.5038
▁yonndiniiɗo	-11.5038
▁Toɗɗ	-11.5038
▁cuddi	-11.5038
▁boowal	-11.5038
▁ruƴƴ	-11.5038
▁Perg	-11.5038
▁junubaaj	-11.5038
▁seera	-11.5038
▁heeferaaɓe	-11.5038
▁mooɓoyteɗon	-11.5038
▁huuwaynoo	-11.5038
▁mawnundi	-11.5038
▁welsindaare	-11.5038
▁Haana	-11.5039
▁hinnotooɗo	-11.5039
Eyyo	-11.5039
▁fefindagol	-11.5039
▁ɓantaare	-11.5039
▁haangaaɗo	-11.5039
▁Alyahuudaaɓe	-11.5039
▁Yahyaa	-11.5039
▁ɓuuɓol	-11.5039
▁Almaami	-11.5039
▁diisondiral	-11.5039
Yehee	-11.504
▁faandaare	-11.504
▁mahoodi	-11.504
▁jaabawol	-11.504
▁ndaha	-11.504
▁salminaango	-11.504
▁njobdi	-11.504
▁toolii	-11.504
▁jaɓantaake	-11.504
▁fillagol	-11.504
▁ɓunndu	-11.5041
▁jalkitaynoo	-11.5041
▁hiwragol	-11.5041
▁donngal	-11.5041
▁jortaa	-11.5041
▁duŋagol	-11.5042
▁ndarɗe	-11.5042
▁heɗɗere	-11.5042
▁daliil	-11.5042
▁kasaara	-11.5042
▁mehre	-11.5042
▁ngolloton	-11.5042
▁ruttetaake	-11.5042
▁jooɗagol	-11.5043
▁seedotooɗo	-11.5044
▁Toowii	-11.5044
▁duumagol	-11.5045
▁jippotoo	-11.5045
▁hoggo	-11.5045
▁hendoto	-11.5046
▁fodaɗon	-11.5047
▁faggitotonoo	-11.5047
▁pahiɗuɓe	-11.5047
▁lamndaaki	-11.5047
▁seteeɓe	-11.5047
▁beccal	-11.5048
▁huloton	-11.5048
▁yankiniiɓe	-11.5048
▁Ɓamt	-11.5048
▁fantinooɓe	-11.5049
▁woopuɓe	-11.5049
▁ɓadal	-11.5049
▁yiingo	-11.505
▁haforanam	-11.505
▁fefindotoo	-11.505
▁nelal	-11.505
▁haɗitike	-11.5051
▁ɓanngungal	-11.5051
▁barkinaande	-11.5052
▁diam	-11.5052
▁fenuɓe	-11.5053
▁wallin	-11.5053
▁yiltitagol	-11.5053
▁Nelaaɗo	-11.5053
▁tefugol	-11.5053
▁ooñiiɗo	-11.5055
▁Moodi	-11.5055
▁laaɓundi	-11.5055
▁doolugol	-11.5056
▁Raama	-11.5056
▁fawtii	-11.5056
▁duncanoytaa	-11.5057
▁gerdata	-11.5058
▁Cur	-11.5058
▁muññiiɗo	-11.5058
▁ɗowtugol	-11.5058
▁tabital	-11.5059
▁sujjuɓe	-11.5059
▁imminaaɗo	-11.5059
▁jaggituɗo	-11.5059
▁ooñaare	-11.506
▁fotndi	-11.506
▁fewjugol	-11.5061
▁hawkunoo	-11.5061
▁cattuɗe	-11.5061
▁memmini	-11.5061
▁Mawnde	-11.5062
▁fontugol	-11.5062
▁seeditagol	-11.5062
▁piyugol	-11.5063
▁laral	-11.5064
▁hebbingol	-11.5065
▁mottondiral	-11.5065
▁waajitorgol	-11.5066
▁njogii	-11.5067
▁feloowo	-11.5067
▁kurkoran	-11.5068
▁foron	-11.5068
▁Huudi	-11.5069
S	-11.507
▁sakkotooɓe	-11.5071
▁meeɗee	-11.5071
eytanuuji	-11.5071
▁faaliraɗon	-11.5071
▁Gada	-11.5072
▁hawru	-11.5072
▁ŋakkan	-11.5073
▁korka	-11.5073
▁yeloo	-11.5073
▁lancoto	-11.5074
▁desal	-11.5074
▁Alyahuuda	-11.5074
▁jaɓaama	-11.5075
▁hormaŋte	-11.5077
▁gelooɗi	-11.5077
▁paŋkare	-11.5078
▁ummital	-11.5078
▁ciftor	-11.5078
▁Daginan	-11.5078
▁njamndi	-11.5078
▁warjor	-11.5078
▁wonndiiɗo	-11.5079
▁sonc	-11.508
▁mooɓude	-11.5081
▁sooɗaak	-11.5081
▁yamiraɗon	-11.5083
▁njofoojo	-11.5086
▁kecce	-11.5087
▁bonannde	-11.509
▁balon	-11.5091
▁tiiɗungo	-11.5091
▁juri	-11.5093
▁goreeɓe	-11.5096
▁welngal	-11.5099
▁noddaama	-11.51
▁gollan	-11.51
▁faalaɗ	-11.5104
▁dart	-11.5106
▁jowaɓ	-11.5106
▁Seedee	-11.5106
▁firtii	-11.5107
▁feƴƴunooɗ	-11.5108
▁lanɗan	-11.511
▁maayooɓe	-11.511
▁fefindotooɓe	-11.5112
wnoo	-11.5112
▁digge	-11.5113
▁Onesi	-11.5114
▁pooɗugol	-11.5114
▁lorrirtaa	-11.5115
▁felugol	-11.5115
▁jalkit	-11.5115
▁woop	-11.5116
▁letta	-11.5116
▁Te	-11.5119
▁dido	-11.512
nɗaa	-11.512
▁seedugol	-11.5122
▁fonngo	-11.5124
▁wifugol	-11.5125
▁Ngi	-11.5126
▁heeduɗ	-11.5127
▁mbam	-11.5127
▁janfagol	-11.513
▁dandi	-11.5133
▁Fewnata	-11.5133
▁haɗay	-11.5134
▁Mum	-11.5134
▁yaafaade	-11.5135
▁luttoyta	-11.5135
▁pular	-11.5138
▁Ibliisa	-11.5139
▁haqqillaaji	-11.5145
▁waraama	-11.5145
▁soodoy	-11.5148
▁Teddu	-11.5148
ɓi	-11.5152
▁toɓɓe	-11.5153
▁ngaddani	-11.5154
▁wondiiɓe	-11.5156
▁mahi	-11.5157
▁eesugol	-11.5159
▁murtin	-11.5159
▁dogude	-11.516
▁goro	-11.516
yɗo	-11.5162
▁haawoo	-11.5162
▁hewtit	-11.5163
▁foccii	-11.5163
▁yottagol	-11.5167
kaaɓe	-11.5168
tir	-11.5169
▁kammuu	-11.517
▁mutii	-11.5171
▁tuubugol	-11.5173
▁fowtere	-11.5174
▁araynoo	-11.5174
▁Hormor	-11.5175
▁ɓitt	-11.5176
▁bongal	-11.5176
▁wuntu	-11.5177
▁wowlaali	-11.5177
▁meetel	-11.5179
▁jol	-11.5186
▁waɗirnoo	-11.5188
▁daɗir	-11.5188
▁hoorugol	-11.5188
▁warata	-11.5189
▁suusataa	-11.5189
▁mooɓoytee	-11.5193
▁koohoojo	-11.5194
gi	-11.5194
Hul	-11.5195
anŋe	-11.5198
▁pecc	-11.5198
▁Timmin	-11.5199
▁Reŋt	-11.521
▁ɗuurniiɓe	-11.5212
▁moɗi	-11.5216
▁yolli	-11.5217
▁bugete	-11.5218
fal	-11.5218
▁tottirɗo	-11.5219
▁eɓɓindirta	-11.5222
▁fenaandeej	-11.5224
▁ɓortii	-11.523
▁cuɗani	-11.523
▁holtin	-11.5232
▁yiɗay	-11.5234
duruyee	-11.5235
▁haanir	-11.5235
▁wullito	-11.5236
▁annann	-11.524
▁dammi	-11.5242
▁insinan	-11.5246
▁ndaɗɗan	-11.5247
▁manngu	-11.5249
▁fesa	-11.5252
mbi	-11.5253
ntugol	-11.5253
▁ɓornoɗ	-11.5254
▁Tabit	-11.5255
▁hersiraa	-11.5258
eendu	-11.5262
▁focc	-11.5265
▁ɓantee	-11.5265
▁faddii	-11.5266
▁fotata	-11.5267
▁hafrana	-11.5268
▁Woodan	-11.527
anna	-11.5271
▁Yaltu	-11.5272
▁Accit	-11.5273
▁waynit	-11.5275
▁wowluɗo	-11.5279
eɗon	-11.5283
▁alaadu	-11.5286
aɗon	-11.5287
▁ɓaɗtinaa	-11.5291
▁suɓori	-11.5291
▁Eyoo	-11.5292
▁Inn	-11.5293
▁naakoo	-11.5295
▁nawray	-11.5297
addii	-11.5297
▁Add	-11.5298
▁Misii	-11.5307
▁huccitiri	-11.5309
▁gur	-11.531
▁jojj	-11.5311
uɗan	-11.5313
▁kafid	-11.5315
▁hewtataa	-11.5322
▁yoora	-11.5322
▁awre	-11.5323
▁nanngitir	-11.5323
▁eltugol	-11.5324
▁ɲaaɗuɗ	-11.5333
itay	-11.5337
▁seytinan	-11.5337
▁mayɗ	-11.5339
▁anndaano	-11.5343
▁taggaa	-11.535
▁janano	-11.536
▁faalegol	-11.5362
soo	-11.5368
ɲo	-11.5369
uddi	-11.5376
▁waawirta	-11.5378
▁Anndira	-11.5379
▁art	-11.5385
▁hattan	-11.5388
▁wumini	-11.5391
▁gori	-11.5393
▁barmin	-11.5394
▁lontondir	-11.54
I	-11.5401
▁nanndolla	-11.5403
▁mahoo	-11.5405
ewal	-11.5407
dam	-11.5408
▁ɓanngi	-11.5409
▁nannga	-11.5413
▁yanay	-11.5415
▁ɓawli	-11.5417
▁yaafantaak	-11.5421
▁Wur	-11.5421
▁dañ	-11.5422
▁addane	-11.5426
▁gimɗi	-11.5428
▁waajitora	-11.543
▁bonu	-11.5435
ndagol	-11.5441
▁woɗa	-11.5443
▁haasid	-11.545
▁wanngo	-11.5451
▁sakkit	-11.5453
▁suuɗata	-11.5459
diiɗi	-11.546
▁gu	-11.546
▁Hu	-11.546
▁Jaŋt	-11.5462
▁jantee	-11.5463
▁yaltine	-11.5463
▁ŋalɗu	-11.5464
▁hebul	-11.5464
▁ƴettiti	-11.5468
▁kuɓɓ	-11.5475
▁gasayno	-11.5476
▁peew	-11.5477
cugol	-11.5477
aduna	-11.5479
▁ñaamu	-11.548
qii	-11.5489
▁haɓee	-11.5494
▁gannd	-11.5499
▁Jogito	-11.5499
▁nyaam	-11.55
▁luttit	-11.5501
▁Raa	-11.5502
▁sakkitoo	-11.5502
▁ukki	-11.5505
▁darto	-11.5508
▁jiid	-11.5508
▁ngel	-11.5509
emma	-11.5509
▁Feni	-11.551
▁keccu	-11.5511
▁toranto	-11.5511
▁gootii	-11.5513
▁ruttite	-11.5516
▁anndaande	-11.5517
▁hoɗunoo	-11.5518
▁Legg	-11.552
irɗo	-11.552
▁ndim	-11.5525
▁Suufaa	-11.5526
▁huuwir	-11.5539
▁yananaa	-11.5541
ele	-11.5542
▁felnii	-11.5543
▁hulɓinii	-11.5547
▁wattane	-11.5554
firi	-11.5557
▁Li	-11.5558
▁yejjitii	-11.5559
nora	-11.5561
araasi	-11.5564
▁sood	-11.5566
▁haɓii	-11.5566
uuda	-11.5568
▁Jippinan	-11.5578
aba	-11.5588
▁jarnu	-11.5592
▁faasiqi	-11.5593
▁landondir	-11.5594
▁nja	-11.5596
▁wurnit	-11.56
wlugol	-11.5601
▁muɲɲan	-11.5607
ygu	-11.5608
▁uddii	-11.5611
▁wongo	-11.5619
▁tottii	-11.5623
yninaaɓe	-11.5624
▁sunnin	-11.5625
▁jaarn	-11.5627
▁ƴeew	-11.5629
▁hoɓ	-11.5631
▁cuɗinani	-11.5635
▁ber	-11.5641
▁iwrata	-11.5642
▁ɲaawoya	-11.5643
loo	-11.5646
▁fetti	-11.5646
▁ƴ	-11.5646
▁dakmitor	-11.5655
▁Weltod	-11.5658
▁yankinanaa	-11.5664
tuma	-11.5664
ango	-11.5665
▁anniy	-11.5666
▁ndikka	-11.567
▁feɲɲinannoo	-11.5673
ullere	-11.5674
▁tuu	-11.5674
uuɗe	-11.5676
▁maggi	-11.5677
ntaako	-11.5677
▁accitee	-11.5681
aako	-11.5681
▁fooliri	-11.5683
▁Yahuud	-11.5686
▁buumi	-11.5688
▁hoynuɗ	-11.5689
▁sottor	-11.5693
▁tiiɗe	-11.5696
▁feɲɲinee	-11.5702
▁penn	-11.5704
▁ɗimmoo	-11.5709
▁Wee	-11.5711
qa	-11.5712
▁nanditayɗ	-11.5713
▁sattu	-11.5715
▁ɲolata	-11.5716
ndin	-11.5716
▁kii	-11.5719
▁ɲaawii	-11.5719
▁wooti	-11.572
▁wurtu	-11.5726
▁ƴawa	-11.5726
▁iwtirnoo	-11.5728
▁laaɓani	-11.5745
▁bukk	-11.5748
duɓe	-11.5751
▁ardunoo	-11.5753
▁yejjita	-11.5753
▁sarti	-11.5756
▁yii	-11.5757
▁heɓayno	-11.5757
▁fiɗir	-11.5757
▁halfina	-11.5758
▁ɗiɗoo	-11.5761
▁Wor	-11.5762
▁windaa	-11.5764
▁paa	-11.5776
▁ndoga	-11.5777
▁tafiraaɗ	-11.5777
▁laatanto	-11.5778
yiina	-11.5781
dimbo	-11.5782
▁fuɗɗori	-11.5788
anton	-11.5792
rtaa	-11.5795
ontuma	-11.5796
▁ɗaw	-11.5798
▁Jonnit	-11.5808
▁kannj	-11.581
▁lootan	-11.5818
okkude	-11.5818
▁Ñiiɓ	-11.5829
bba	-11.5834
▁ɓanta	-11.5836
▁malnata	-11.5838
▁meema	-11.5843
▁Wooda	-11.5844
▁tiiɗa	-11.5846
▁immina	-11.5848
▁jonnan	-11.5855
eende	-11.586
▁acciri	-11.5861
▁yottor	-11.5866
▁yenn	-11.5869
Gomɗin	-11.5872
▁ñaami	-11.5873
irgal	-11.5876
▁caabi	-11.5877
orɗe	-11.5878
▁sonka	-11.588
▁adondira	-11.5881
▁cuɗinanaa	-11.5886
▁liddondiri	-11.5888
▁ardata	-11.5896
▁fewnay	-11.5896
▁mandilin	-11.5901
▁laƴoo	-11.5906
▁tampinir	-11.5907
▁Wonndi	-11.5909
▁cokk	-11.5915
teede	-11.5918
▁timmir	-11.5919
▁laɓɓiniraa	-11.592
▁okkanoo	-11.592
▁innetee	-11.5928
▁Yiɗ	-11.593
▁okkorta	-11.5934
▁ɗaɓɓataa	-11.5936
▁Iwr	-11.5936
▁subbunhinanoɗ	-11.5938
▁nawrata	-11.5945
▁ce	-11.5949
▁wont	-11.5954
mbir	-11.596
riyank	-11.596
▁farlii	-11.5963
▁ge	-11.5963
rayno	-11.597
▁ƴawn	-11.5972
▁taƴaa	-11.5986
dotaako	-11.599
▁Wahayin	-11.5992
▁beel	-11.5999
▁surraa	-11.6016
▁nunɗu	-11.6025
julɗe	-11.6027
▁janngan	-11.603
▁kurkantoo	-11.603
▁tefan	-11.6031
▁foolir	-11.6032
▁hocci	-11.6035
▁yeddondira	-11.6038
▁wowlirayno	-11.6042
▁notan	-11.6045
▁liit	-11.6045
▁cer	-11.6046
▁daroo	-11.605
▁faaɗi	-11.6053
won	-11.6054
▁cikka	-11.6055
▁suddi	-11.6057
▁Fewna	-11.6057
▁fenna	-11.6057
▁haɗaa	-11.6062
▁waa	-11.6064
▁ndewat	-11.6066
▁fellitaa	-11.6068
▁Yeɗa	-11.6069
▁Rent	-11.607
diina	-11.6074
Joom	-11.6082
▁toriɗ	-11.6087
▁wor	-11.609
▁kolli	-11.6091
▁ngaynaakoo	-11.6094
rtee	-11.6096
▁ruttii	-11.6103
▁wahayin	-11.6105
▁Lid	-11.6107
▁defu	-11.6113
▁andiro	-11.6116
▁ɲaamidu	-11.6124
▁yaltinira	-11.6127
okkitiray	-11.613
▁waɗirta	-11.6132
edii	-11.6136
▁ciikulii	-11.6141
▁yarnir	-11.6144
aati	-11.6144
▁darnirɗ	-11.6147
▁resin	-11.6148
▁ñaa	-11.6153
▁banto	-11.6157
▁njof	-11.6163
▁jammi	-11.6164
▁feɲɲiniran	-11.6168
▁gabit	-11.6172
▁Wattan	-11.6173
▁welsindii	-11.618
ƴaango	-11.6188
▁Yedd	-11.6189
▁tampinee	-11.6189
▁muñ	-11.6191
▁majjinir	-11.6191
▁ɲaawirt	-11.6191
▁ardin	-11.6191
];	-11.6193
▁fontu	-11.6194
▁hayriraa	-11.6195
farin	-11.62
▁ndeya	-11.6201
▁lamm	-11.6203
▁yeeyit	-11.6205
▁jogore	-11.6207
▁yeet	-11.6207
ud	-11.6214
ordu	-11.6216
▁taƴo	-11.6216
siɗɓe	-11.6221
▁yewtirii	-11.6227
▁silm	-11.623
▁gomɗinon	-11.6234
▁Ñiiɓn	-11.6239
▁harmin	-11.6243
▁toowungo	-11.625
▁windanoo	-11.6252
undu	-11.6254
▁ñiiɓii	-11.6254
▁ŋaɲɲa	-11.626
▁sinci	-11.6262
▁wuurira	-11.6267
▁fanna	-11.6269
▁wumi	-11.6269
▁tabintina	-11.6273
▁Mawni	-11.6276
▁jojjii	-11.6278
▁kafidata	-11.6282
▁lint	-11.6282
kal	-11.6283
ɗaali	-11.6284
▁jippinta	-11.6287
▁accaa	-11.6287
rooje	-11.6291
so	-11.6293
were	-11.6303
▁ardor	-11.6304
▁soktor	-11.6309
▁meemata	-11.6311
▁yaafani	-11.6311
▁resata	-11.6316
▁hakk	-11.6316
guɗi	-11.6317
▁tawdano	-11.632
▁Jipp	-11.6321
▁ɗal	-11.6326
tinii	-11.6336
▁yaltinay	-11.6336
▁maaka	-11.6347
anno	-11.6349
▁mbele	-11.6352
▁meeɗinir	-11.6352
ajagol	-11.6361
▁tafiraa	-11.6364
▁addannoo	-11.6367
▁cikki	-11.6369
▁rewri	-11.6371
▁ɗaat	-11.6372
▁njeddi	-11.6375
hiimi	-11.6376
diiɗo	-11.6377
▁hormor	-11.6381
▁eɓɓoo	-11.6385
▁weeɓan	-11.6388
▁huccita	-11.6394
▁sujj	-11.6394
▁townit	-11.6398
▁Tawa	-11.6402
iranoo	-11.6403
▁towna	-11.6406
rɗaa	-11.6406
z	-11.6409
▁alɗin	-11.6412
▁ɗaɓɓoya	-11.6424
▁loow	-11.643
▁yaaforan	-11.6431
▁wuurnita	-11.6433
▁hiir	-11.6435
▁tippa	-11.6435
▁cattun	-11.6444
yngal	-11.6444
▁Ro	-11.6447
▁ɓadondir	-11.6453
▁taƴii	-11.6458
▁ndarn	-11.6461
maani	-11.6462
▁nawrayɗ	-11.6463
▁karamokoo	-11.6465
▁sunnira	-11.6473
▁sahinbin	-11.6484
▁Kan	-11.6486
▁wennji	-11.6489
▁Waɗani	-11.6492
▁sard	-11.6493
▁Wel	-11.6497
▁yoɓe	-11.6498
▁immindin	-11.6509
▁wonki	-11.6527
▁layir	-11.6528
▁ti	-11.6536
▁feri	-11.654
▁tapp	-11.6544
▁yurmetee	-11.6546
ndirii	-11.6546
▁weddit	-11.6561
aabi	-11.6573
▁Fan	-11.6574
▁ɓiƴ	-11.6576
▁soppi	-11.6576
▁hirsa	-11.6579
Yo	-11.6584
▁wuji	-11.6585
oyon	-11.6585
▁maccinɗin	-11.6588
asbe	-11.659
roo	-11.659
▁sakkitoru	-11.6594
▁hinndi	-11.6604
▁dawi	-11.6605
▁sonj	-11.6609
ittana	-11.6612
▁taf	-11.6622
▁sens	-11.6624
▁kaaki	-11.663
bb	-11.6635
▁lor	-11.6635
▁janngi	-11.6639
▁sirk	-11.6641
▁ruttit	-11.6646
▁waɗtinir	-11.6658
▁Ɲaawoo	-11.6659
▁timmun	-11.6664
kar	-11.6674
▁nafqu	-11.6674
Kono	-11.6677
gar	-11.6677
▁piyaa	-11.6686
▁yooruɗ	-11.669
▁dewe	-11.6692
▁wuttaa	-11.6701
▁tiiɗina	-11.6701
aytuuni	-11.6705
taano	-11.6707
ntoore	-11.6717
hay	-11.6721
▁hoɗoy	-11.6722
▁bula	-11.6727
▁bonna	-11.6729
▁muus	-11.6734
▁Wasiyi	-11.6744
▁iimaan	-11.6744
▁muk	-11.6745
▁Haɓ	-11.6747
▁udd	-11.6749
▁wirnan	-11.675
▁liiƴ	-11.6754
▁yuɓɓindir	-11.6757
pi	-11.6758
▁suuyi	-11.6762
ɗetaake	-11.6765
▁haqqil	-11.6766
▁jib	-11.6775
▁hewtay	-11.6775
hin	-11.678
▁juuli	-11.6782
▁Jooɗ	-11.6783
N	-11.6784
fugol	-11.6787
▁njeeɗiɗ	-11.6788
▁beln	-11.6797
▁findini	-11.6801
idi	-11.6803
▁Woondi	-11.6809
▁ñaaƴo	-11.681
▁ɲol	-11.6824
▁ɗowtu	-11.6835
▁addanaa	-11.6836
kono	-11.6838
▁waawani	-11.6842
▁Waɗan	-11.6844
▁sunn	-11.6847
▁immintina	-11.6853
▁Lepta	-11.686
ɗere	-11.6866
duru	-11.6869
▁Mar	-11.6873
▁Aroy	-11.6873
kesa	-11.688
▁mehinɗin	-11.6882
▁mooɓondiri	-11.6883
▁ɓamta	-11.6888
▁Ƴett	-11.6891
▁her	-11.6893
▁wurtir	-11.6893
▁Yoɓ	-11.6895
▁ɓeydant	-11.6902
▁haaɗi	-11.6906
▁fillayee	-11.6911
▁welu	-11.6917
▁Waɗanaa	-11.6917
▁ɓooya	-11.6919
▁udditaa	-11.6922
▁hunna	-11.6929
▁njee	-11.6931
▁ɓeydor	-11.6935
▁bed	-11.6935
▁Dill	-11.6944
▁jebbilii	-11.6952
▁janto	-11.6956
▁warri	-11.6965
▁mettin	-11.6967
▁Yaas	-11.697
▁dakmita	-11.6972
ayni	-11.6972
ndaade	-11.6977
▁rimi	-11.6986
▁tikka	-11.699
▁lumbit	-11.7003
▁fonndo	-11.7005
▁hew	-11.701
▁firtoo	-11.7014
▁dagin	-11.7024
▁Halk	-11.7024
ƴƴere	-11.7028
▁jeej	-11.7031
▁Nanngi	-11.7034
▁felir	-11.7035
yɗe	-11.7038
tinoowo	-11.7042
▁eɓɓa	-11.7044
moƴƴi	-11.7051
inde	-11.7054
▁binndo	-11.706
yaasi	-11.7063
▁Fel	-11.707
nduru	-11.7079
▁wonoy	-11.7081
▁goong	-11.709
▁wonayno	-11.7092
▁tin	-11.7093
▁aɲuɗ	-11.7101
dunoo	-11.7105
▁ndaaray	-11.7109
▁jaŋto	-11.7116
▁sahaaba	-11.7119
▁mbaɗa	-11.7119
aan	-11.7121
▁fellintin	-11.7124
▁hoɗata	-11.7131
▁werl	-11.7141
umma	-11.7143
▁yewtidu	-11.7144
▁ɗaɓɓii	-11.7148
▁waɗanaa	-11.7148
▁gollu	-11.715
▁wennjir	-11.7151
Ɓen	-11.7152
▁sirku	-11.7152
▁hanndu	-11.716
ɓernde	-11.716
▁tonngi	-11.7161
aaru	-11.7161
▁lootu	-11.7163
▁yaaray	-11.7167
▁sattung	-11.7173
▁faggit	-11.7174
▁janfoto	-11.7176
▁buuma	-11.7177
Yiite	-11.7177
ndinaare	-11.7178
▁ndart	-11.7179
▁waɗanay	-11.7179
▁Kis	-11.7182
▁seede	-11.7184
▁yarid	-11.7185
▁wakkilindir	-11.7192
▁tur	-11.7195
mofte	-11.7198
nton	-11.7201
nɗon	-11.7211
▁refi	-11.7216
▁ñammi	-11.7217
▁jonnitir	-11.7228
nayɗi	-11.7236
▁Anda	-11.7241
Aray	-11.7249
Yaltu	-11.7251
▁sakki	-11.7251
Taw	-11.7253
▁winndu	-11.7254
▁nafk	-11.7257
▁Nee	-11.7257
▁hippa	-11.7258
▁farlaa	-11.7263
▁ɗaɓɓay	-11.7263
▁waɗetee	-11.7267
▁njannga	-11.7267
▁hel	-11.7267
puɗi	-11.727
▁eto	-11.7272
▁piyir	-11.7274
Anndon	-11.7276
saa	-11.7279
▁darnu	-11.7279
yon	-11.7281
▁Okkii	-11.7283
J	-11.7285
▁mawnintini	-11.7291
dani	-11.7292
▁tampini	-11.7293
▁kurk	-11.7293
▁ɗat	-11.7299
▁ɗenƴi	-11.7306
▁muusu	-11.7308
aananaa	-11.7313
▁gom	-11.7318
▁bant	-11.7321
▁yiidi	-11.7324
sab	-11.7325
▁ñaamira	-11.733
oobo	-11.7332
▁yiltor	-11.734
ahadi	-11.7342
runoo	-11.7343
▁ɲaawirɗ	-11.7346
▁aanan	-11.735
▁ɗeɓa	-11.735
osi	-11.7355
▁hebulana	-11.7364
▁huuru	-11.7366
▁Hawr	-11.7367
▁daror	-11.7368
▁wana	-11.737
▁haako	-11.7374
nkaaku	-11.7374
▁Arsik	-11.7376
▁tii	-11.7379
▁happan	-11.7379
▁Kanaa	-11.7382
▁piyiran	-11.7388
▁sopp	-11.7389
jala	-11.7391
▁Tuur	-11.7392
▁laɓɓinaa	-11.7404
▁maamaa	-11.7406
▁fennunoo	-11.7411
▁lay	-11.7413
▁wonon	-11.7416
miina	-11.7418
▁yaaday	-11.7421
▁hecc	-11.7425
▁ngoonɗi	-11.7426
▁jaggitu	-11.7431
▁gala	-11.7431
bela	-11.7432
▁Hend	-11.7435
▁innaa	-11.7435
aranke	-11.7437
▁wonda	-11.7441
▁duŋ	-11.7444
▁ŋoo	-11.7449
▁sonna	-11.7451
▁guluuj	-11.7455
▁reway	-11.7456
▁welir	-11.7459
▁hoyɗ	-11.7461
▁ndayg	-11.7463
tora	-11.7465
taaka	-11.7468
▁kutu	-11.747
Kisa	-11.747
▁marani	-11.7471
▁alan	-11.7474
▁keefeer	-11.7483
▁yirbi	-11.7486
▁It	-11.7491
▁Ɓutt	-11.75
▁huuw	-11.7501
▁laɓ	-11.7502
▁kank	-11.7506
▁fawaa	-11.7506
▁Janng	-11.7511
raaɗi	-11.7514
gurndan	-11.7515
▁huma	-11.7525
▁wattir	-11.7525
ñi	-11.7528
▁gollunoo	-11.7529
▁dakmit	-11.7531
▁Sin	-11.7531
alli	-11.7532
▁Usmaani	-11.7536
▁Bartolomaawu	-11.7536
▁Senndindir	-11.7536
▁Yaakuub	-11.7536
▁Zaakaru	-11.7536
▁abajada	-11.7536
▁bagamma	-11.7536
▁gerenteejo	-11.7536
▁kankiranwal	-11.7536
▁lagamb	-11.7536
▁mbirniindi	-11.7536
▁meselal	-11.7536
▁uumaango	-11.7536
▁bolonru	-11.7536
▁fooccaade	-11.7536
▁puyndan	-11.7536
▁saffawol	-11.7536
itasolo	-11.7536
▁dikkuru	-11.7536
▁ganngunal	-11.7536
▁luggeendi	-11.7536
▁konkooru	-11.7536
▁rannga	-11.7536
▁Gereeki	-11.7536
▁buutoori	-11.7536
▁heeriinde	-11.7536
▁nennitanteeɓe	-11.7536
▁coɓɓuli	-11.7536
▁etirante	-11.7536
▁gomɗumɓe	-11.7536
▁doosal	-11.7536
▁coggel	-11.7536
▁Efeesiyankoo	-11.7537
▁saabiwal	-11.7537
▁foññe	-11.7537
▁njulaaku	-11.7537
▁musidal	-11.7537
▁garankeejo	-11.7537
▁ndagawal	-11.7537
▁daasotoo	-11.7537
▁ndaarorgal	-11.7537
▁daabe	-11.7537
▁otowal	-11.7537
▁nayeewu	-11.7537
▁lomto	-11.7537
▁bantara	-11.7537
▁mbattiigu	-11.7537
▁cabbi	-11.7537
▁cukulol	-11.7537
▁yehii	-11.7537
▁njeenayo	-11.7537
▁Manas	-11.7537
▁dammbe	-11.7537
▁Abiiya	-11.7537
▁njett	-11.7537
▁reereɗu	-11.7537
pertube	-11.7537
manankun	-11.7537
▁cattal	-11.7537
▁nennantaake	-11.7537
▁sowindiran	-11.7537
▁cowndi	-11.7537
▁yamaruyee	-11.7538
▁sariire	-11.7538
▁foolotir	-11.7538
▁remuruuji	-11.7538
▁tiindondir	-11.7538
▁njamira	-11.7538
▁puɗal	-11.7538
▁lontotooɓe	-11.7538
▁huuwoton	-11.7538
▁Welsin	-11.7538
▁lakkere	-11.7538
▁jaɓɓagol	-11.7538
▁kaŋko	-11.7539
▁fijooɓe	-11.7539
▁nannduɗe	-11.7539
▁jiiba	-11.7539
▁jebbilaare	-11.7539
▁humammbinneejo	-11.7539
▁nennitanam	-11.7539
▁fason	-11.7539
▁wallifagol	-11.7539
▁Suɓaaɗo	-11.7539
▁nganndah	-11.7539
▁faggitinoo	-11.754
▁fagginoo	-11.754
▁yeenugol	-11.754
▁ceerndugol	-11.754
▁hellifaa	-11.754
▁lincun	-11.754
▁goonɗuɓe	-11.754
▁sattundu	-11.754
▁wootinɗin	-11.754
▁wubb	-11.7541
▁Faamee	-11.7541
▁fooyn	-11.7541
▁wuttaandu	-11.7541
▁ɗawre	-11.7541
▁sulmoy	-11.7541
▁nantinoowo	-11.7541
▁hoolniiɗo	-11.7541
▁lunnagol	-11.7542
▁Jaloo	-11.7542
▁tilfugol	-11.7542
▁marga	-11.7542
▁seytanuuji	-11.7542
▁belaaɗe	-11.7542
▁kippoodi	-11.7542
▁suuɗoton	-11.7542
▁diwnol	-11.7542
▁cergal	-11.7543
▁fijugol	-11.7543
▁walletaake	-11.7543
▁famɗi	-11.7543
▁hulatah	-11.7543
▁beelol	-11.7543
▁Sunna	-11.7543
▁ɗuuɗundi	-11.7543
▁hoddu	-11.7543
▁gasata	-11.7543
▁baddi	-11.7543
▁marmalle	-11.7543
▁welɗam	-11.7544
▁buumugol	-11.7544
▁dimmbugol	-11.7544
▁tummbo	-11.7544
▁yeddiraynoɗon	-11.7544
▁yondanii	-11.7544
▁Moƴƴinee	-11.7544
▁sifotoɗon	-11.7544
▁cippir	-11.7544
▁tataɓal	-11.7544
▁mbelndi	-11.7544
▁ciif	-11.7545
▁sincugol	-11.7545
▁wahayu	-11.7545
▁bonnitugol	-11.7546
▁dalli	-11.7546
▁ooñannde	-11.7546
▁taƴaangal	-11.7547
▁doginoowo	-11.7547
▁palal	-11.7547
▁faaɗinan	-11.7547
▁añanɗo	-11.7547
▁tortagol	-11.7548
▁wurnay	-11.7548
▁habbitee	-11.7548
▁jinnaaru	-11.7548
▁teddundi	-11.7549
▁haqinqingol	-11.7549
▁hajagol	-11.7549
▁dimmbagol	-11.7549
▁dartagol	-11.7549
▁lamndondira	-11.755
▁Pelle	-11.755
▁wahyii	-11.7551
▁ñaawoowo	-11.7551
▁pompi	-11.7551
▁koohooɓe	-11.7551
▁ronkere	-11.7551
▁ñeñaande	-11.7552
▁Daaluyeeji	-11.7552
▁awaamu	-11.7553
▁feewani	-11.7553
▁solugol	-11.7554
▁Ganndo	-11.7554
▁woɗɗitagol	-11.7554
▁Ɓurniri	-11.7554
▁yimoowo	-11.7554
▁henge	-11.7554
▁yankinoran	-11.7554
▁gomɗuɗo	-11.7555
▁qirritike	-11.7555
▁Faandii	-11.7555
▁neeminaaɓe	-11.7555
▁ruuɗii	-11.7555
▁penɗe	-11.7556
▁annditay	-11.7556
▁remugol	-11.7556
▁tuubira	-11.7556
▁runtii	-11.7557
▁luusi	-11.7557
▁sowndoo	-11.7557
▁tijj	-11.7559
▁townitiiɗo	-11.7559
▁haaɓataa	-11.7559
▁hollitagol	-11.7559
▁jantaama	-11.7559
▁juulooɓe	-11.756
▁barkinaaɗo	-11.756
▁jillindir	-11.7561
▁labaaɗe	-11.7561
▁nafoytaa	-11.7562
▁raɗaaɗo	-11.7562
▁ronkinooɓe	-11.7562
▁soppugol	-11.7562
▁addor	-11.7562
▁haawniinde	-11.7562
▁mawnunde	-11.7563
▁tooke	-11.7563
▁Roomiyank	-11.7564
▁halkaaɓe	-11.7564
▁yettataa	-11.7565
▁senndugol	-11.7565
▁suɓagol	-11.7566
▁munca	-11.7566
▁mannge	-11.7566
▁kesol	-11.7566
▁tamƴinii	-11.7567
▁feewataa	-11.7567
▁hippagol	-11.7567
▁ala	-11.7568
▁ɓeydaari	-11.7568
▁memmingol	-11.7569
▁peeral	-11.7569
Ar	-11.7569
▁keeda	-11.757
▁nawli	-11.757
▁soppete	-11.757
▁tesk	-11.7572
▁immitagol	-11.7572
▁wallinee	-11.7572
▁haawnii	-11.7572
▁sattunde	-11.7572
▁woɗɗuɗo	-11.7573
▁fewjude	-11.7575
▁hollitoyoɗ	-11.7577
mbur	-11.7577
▁dakmitoo	-11.7578
▁yarooɓe	-11.758
▁yiɗuɗaa	-11.758
Bugee	-11.758
▁wuttugol	-11.7581
▁tuubaali	-11.7582
▁hurun	-11.7582
▁sunningol	-11.7582
▁bewɗo	-11.7583
▁muññii	-11.7583
▁wontiroyay	-11.7583
▁Janngan	-11.7584
▁sikkitagol	-11.7584
▁tambit	-11.7584
yalbi	-11.7585
▁annduno	-11.7586
rankee	-11.7587
▁jent	-11.7588
▁ngollat	-11.7588
▁hunci	-11.7588
▁Waɗɗin	-11.7589
▁Lislaamu	-11.759
▁yantay	-11.759
▁peesirɗe	-11.759
ilol	-11.759
▁laatotaako	-11.759
▁yeetito	-11.7591
▁yaccotoo	-11.7591
▁ummini	-11.7591
▁moolori	-11.7591
▁annditugol	-11.7591
▁Hoolor	-11.7591
maande	-11.7592
▁yaafagol	-11.7593
elen	-11.7594
▁tikkuɗo	-11.7594
▁felu	-11.7595
▁feññingol	-11.7595
▁ruttotooɗo	-11.7595
▁ɗuuɗunde	-11.7596
▁seedike	-11.7597
▁tampa	-11.7597
▁goree	-11.7597
▁bente	-11.7597
docotal	-11.7598
▁fiɗugol	-11.7598
▁feeñuɗo	-11.7599
▁katan	-11.76
▁laamori	-11.76
▁kaawee	-11.7601
▁labaande	-11.7601
kkugol	-11.7601
▁janngugol	-11.7602
▁saɗtunde	-11.7602
▁jaabagol	-11.7603
▁sokli	-11.7604
▁hurg	-11.7607
▁hiwro	-11.7608
cogguur	-11.7608
▁deeƴa	-11.7609
ñannde	-11.7609
▁toowuɗo	-11.761
▁foolugol	-11.7612
▁sertuɗi	-11.7612
Ɓee	-11.7613
▁hawjiran	-11.7614
▁Mooɓoy	-11.7614
▁yarirde	-11.7615
▁nawyii	-11.7615
▁yanal	-11.7615
▁sellingol	-11.7615
▁saasu	-11.7616
▁jikke	-11.7617
▁heer	-11.7618
▁daɗugol	-11.7619
▁koccu	-11.7619
▁mantugol	-11.7619
cop	-11.762
▁humpati	-11.762
▁jippinaama	-11.7621
▁sattude	-11.7621
▁muɲɲanto	-11.7622
▁yiidoy	-11.7622
▁War	-11.7623
▁timminira	-11.7623
▁heɓorta	-11.7624
Al	-11.7625
▁ɓannginiran	-11.7626
▁jogiɗon	-11.7629
mee	-11.7632
▁nafaali	-11.7632
▁adaade	-11.7636
eteendi	-11.7636
▁ɓeydude	-11.7638
▁juulugol	-11.7638
ogooji	-11.7641
▁sabbii	-11.7642
▁aroore	-11.7643
▁binndi	-11.7644
▁jibingol	-11.7644
oyoo	-11.7645
▁kafidi	-11.7646
▁ɓuray	-11.7651
▁tabiton	-11.7652
▁daɗndunoo	-11.7653
▁toowde	-11.7653
▁faaletee	-11.7653
▁yeloto	-11.7653
▁memataa	-11.7656
▁ƴantir	-11.7657
▁hooliiɗo	-11.7658
▁Alya	-11.7658
▁jogitoree	-11.7659
▁ñeeño	-11.7659
▁pee	-11.766
▁fotugol	-11.766
▁Gal	-11.7661
▁fottoy	-11.7661
▁jokkete	-11.7663
▁ñaande	-11.7664
▁yankin	-11.767
▁jahal	-11.7673
▁Cu	-11.7674
innde	-11.7674
▁Jann	-11.7675
▁maggel	-11.7677
▁Herm	-11.7678
▁tindin	-11.768
▁kafiduɓe	-11.768
teno	-11.7681
▁nand	-11.7682
▁baabiraawo	-11.7683
▁sooyii	-11.7683
▁sifan	-11.7684
nagl	-11.7685
▁rona	-11.7693
▁yiiloo	-11.7693
gujjo	-11.7694
▁jippineede	-11.7696
▁sortor	-11.7699
▁hawray	-11.7699
▁yaltira	-11.77
▁tuuyo	-11.7701
▁sokiraa	-11.7703
▁taaraa	-11.7703
▁wattugol	-11.7709
▁joltin	-11.7709
▁yonata	-11.7709
▁ñinn	-11.771
▁ardiiɗo	-11.7712
iyuus	-11.7717
▁wubbi	-11.7717
▁Haforan	-11.7718
mbol	-11.7718
▁neldu	-11.7719
▁aruno	-11.7719
▁lamminaa	-11.7724
▁Pottit	-11.7726
▁iwray	-11.7728
▁attii	-11.7728
▁ñaawi	-11.773
▁ñaamataa	-11.7735
▁artugol	-11.7735
▁gollugol	-11.7737
▁woondu	-11.7737
▁njaaf	-11.7742
▁jattoo	-11.7744
▁aska	-11.7745
▁tumbo	-11.7752
▁hecciɗu	-11.7752
▁ñogg	-11.7754
▁duncantaa	-11.7755
Jantee	-11.7756
▁sun	-11.7756
▁gaara	-11.776
▁sendo	-11.776
▁yedday	-11.7761
▁jooɗinoo	-11.7764
▁Torano	-11.7765
▁fokkitan	-11.7765
▁tawnoytee	-11.7766
▁Suɓii	-11.7768
▁dagan	-11.7771
▁fillitoy	-11.7771
▁yarirta	-11.7772
▁sunneteeɗ	-11.7775
▁ɗaatuɗ	-11.778
▁senditana	-11.7783
▁huuwata	-11.7783
▁bonnuɓe	-11.7785
▁newiiɗ	-11.7785
▁yoɓitoyte	-11.7785
teɗon	-11.7788
kan	-11.7789
▁nulida	-11.779
▁Jogor	-11.779
▁sertu	-11.7791
▁dogay	-11.7797
▁wennje	-11.7797
▁waawira	-11.7801
▁feet	-11.7809
▁Apolo	-11.781
▁Terto	-11.781
▁sete	-11.7812
▁mooɓan	-11.7812
▁huɓindii	-11.7812
▁yaccinanay	-11.7813
alaande	-11.7815
▁tambii	-11.7815
▁Ru	-11.7818
▁umma	-11.7819
▁hawtindir	-11.782
▁lancaa	-11.7822
▁daɗataa	-11.7822
▁warrata	-11.7822
▁leptay	-11.7823
▁wowlira	-11.7823
▁heefere	-11.7824
▁nannd	-11.7827
▁gollii	-11.7828
▁leel	-11.7835
▁moƴƴuɗo	-11.7835
▁fuuti	-11.7838
c	-11.784
▁ferii	-11.784
oytaake	-11.7841
▁fittiri	-11.7845
▁tawroy	-11.7851
▁Wahyin	-11.7852
▁ɓillii	-11.7855
▁sincaa	-11.7855
▁muuyanaa	-11.786
▁yeddude	-11.7862
ña	-11.7864
▁leptiray	-11.7867
▁wedd	-11.7868
▁heɗiiɓe	-11.7874
▁jeeja	-11.7874
▁maral	-11.7877
▁okkoree	-11.7882
▁meminir	-11.7882
ndoo	-11.7883
▁hendorɗ	-11.7884
iyam	-11.7894
▁Tagu	-11.7894
▁dandete	-11.7898
▁anndintina	-11.7902
▁fottani	-11.7905
▁mawnikini	-11.7908
▁niɓɓit	-11.791
▁sukk	-11.7912
wiide	-11.7912
▁njippini	-11.7913
▁heɗito	-11.7913
▁yawitii	-11.7914
▁sattuɗ	-11.7915
▁yonta	-11.7916
▁Aka	-11.7916
▁ɗiggan	-11.7918
▁faddo	-11.793
▁ɲola	-11.7935
▁waajoy	-11.7937
▁ɓaɗii	-11.7948
▁wahyini	-11.7949
▁yeeya	-11.7952
▁maƴan	-11.7952
▁hippiri	-11.7953
▁yaarooj	-11.7955
▁ɓuɓɓini	-11.7956
▁ndewata	-11.7956
▁halkuno	-11.7957
▁Nule	-11.7958
kkitagol	-11.7959
▁duul	-11.7965
▁dirtin	-11.7965
▁firsi	-11.7968
▁suuta	-11.7971
▁tikkan	-11.7972
dahaaɓe	-11.7972
▁yewtii	-11.7972
▁pooɗondir	-11.7973
aŋta	-11.7974
▁ɓami	-11.7974
▁ŋalɗidi	-11.7976
anooma	-11.7976
▁maayan	-11.7977
nafqata	-11.7982
▁ɲaawata	-11.7984
aaf	-11.7985
▁huncan	-11.7986
▁jump	-11.7986
▁semmbinir	-11.7989
awoore	-11.7989
▁haalana	-11.7998
▁yiirata	-11.7998
▁yaltinta	-11.7999
▁juutin	-11.8001
▁jaɓɓor	-11.8002
ng	-11.8003
▁ronid	-11.8003
▁ngona	-11.8008
▁gunnd	-11.8008
▁faamon	-11.8013
▁maniiyu	-11.8014
▁ardiiɓe	-11.8015
▁wewl	-11.8016
▁fodu	-11.8018
▁hibbaaɗ	-11.8018
▁ɗuuɗunoo	-11.8019
▁Dokk	-11.802
ca	-11.8024
▁Tooñoo	-11.8025
▁ɓamtu	-11.8026
▁hersinoytaa	-11.8027
iyuun	-11.8029
▁gidd	-11.8031
▁fawata	-11.8045
ppagol	-11.8046
▁yaltid	-11.8047
▁faasiqee	-11.8047
▁nangani	-11.8048
Jibriilu	-11.8049
▁ɗowor	-11.8051
▁daalir	-11.8052
▁cuɗir	-11.8052
▁Yaaf	-11.8053
▁ɗenƴ	-11.8053
▁Fur	-11.806
itiiɗo	-11.8061
▁weeɓitiran	-11.8061
▁jonnee	-11.8064
▁dartaa	-11.8065
▁yees	-11.8067
▁imminani	-11.8068
▁eɓɓir	-11.807
▁tagg	-11.8074
▁fawon	-11.8075
▁tigiri	-11.8086
▁Mawnin	-11.8094
▁hollit	-11.8094
▁nanga	-11.8097
▁kolon	-11.8102
▁ƴa	-11.8102
wugol	-11.8106
▁ɓaɗtin	-11.8107
ayru	-11.8111
▁seniiɗ	-11.8112
▁alla	-11.8116
koo	-11.8119
▁jun	-11.8119
▁sowt	-11.8121
▁Taga	-11.8122
▁Kul	-11.8122
▁mantira	-11.8123
mp	-11.8123
▁dunndaranke	-11.8123
▁habbito	-11.813
▁Timminir	-11.813
▁tubb	-11.8132
Him	-11.8133
▁feɲɲinoy	-11.8133
irten	-11.8134
▁haɓidaa	-11.8135
▁temmee	-11.8137
▁Baabiraa	-11.8137
deede	-11.8148
anɗo	-11.8152
▁boo	-11.8155
▁nafoo	-11.816
▁woodanno	-11.8163
▁nawnunoo	-11.8165
uumugol	-11.8165
▁Waɗunoo	-11.8165
▁wirni	-11.8166
▁woɗɗondiri	-11.8167
gugol	-11.817
▁Saar	-11.8179
▁yoorii	-11.8182
▁sunnee	-11.8182
▁mula	-11.8183
tawnde	-11.8184
▁anndaaɗo	-11.8192
▁jeya	-11.8192
▁Af	-11.8193
▁eɓɓindir	-11.8197
▁bara	-11.8201
▁feer	-11.8205
aŋto	-11.8206
▁ngadd	-11.8209
▁yarlin	-11.8213
▁Hoyn	-11.8215
▁resu	-11.8218
▁deƴƴit	-11.8223
eeƴol	-11.8224
▁seert	-11.8232
▁hawrani	-11.8235
▁fewtinir	-11.8236
▁alluw	-11.8238
▁waɗɗina	-11.8242
▁ɗuurn	-11.8244
▁artata	-11.8245
itiiɓe	-11.8255
▁faaɗu	-11.8255
▁mbaaj	-11.8256
▁sum	-11.8257
▁penni	-11.8259
rkun	-11.8259
▁nenn	-11.8259
▁ɓad	-11.826
▁deƴƴ	-11.8263
▁gollid	-11.8264
juhu	-11.8265
▁Woɗɗit	-11.8266
inndere	-11.8267
▁piir	-11.8267
dimb	-11.8272
▁hawju	-11.8274
▁toɗɗor	-11.8275
▁kelɗ	-11.8279
▁Jippinno	-11.8284
▁rewde	-11.8286
▁fonn	-11.8288
▁yaarata	-11.8288
ɓoyay	-11.829
▁naadaa	-11.8291
▁gomɗinnde	-11.8294
aari	-11.8299
▁ɗaynoo	-11.8299
▁yoll	-11.8301
▁rinɗinaa	-11.8302
▁iwu	-11.8304
▁haɓɓa	-11.8307
hey	-11.8311
▁U	-11.8317
oraa	-11.832
▁dadit	-11.8321
▁farl	-11.8324
tira	-11.8333
▁caab	-11.8334
▁faamaa	-11.8339
▁almasiihu	-11.8341
▁laɓɓinan	-11.8345
▁limaa	-11.8345
iraawo	-11.8349
ire	-11.8351
▁huɓindaa	-11.8353
▁haɓir	-11.8356
▁ɓittina	-11.8356
▁siiwa	-11.8359
▁roonda	-11.8362
▁happanaa	-11.8363
▁Ca	-11.8367
▁bunng	-11.8368
▁jippinir	-11.8369
▁heɓaa	-11.8371
▁tultu	-11.8372
▁yurminte	-11.8374
▁ɓornoto	-11.8383
▁ɲammin	-11.8384
▁yowit	-11.8384
▁moƴƴiniraaɗ	-11.8385
▁tuunuɗ	-11.8389
▁faati	-11.8393
doyto	-11.8394
▁mooɓata	-11.8396
nnji	-11.8399
▁mawninira	-11.8405
▁layu	-11.8406
luwaa	-11.8408
sal	-11.841
ineede	-11.842
siyon	-11.8422
▁miijor	-11.8429
▁cuɓ	-11.843
▁timminir	-11.8433
Iisaa	-11.8439
tti	-11.844
▁Has	-11.844
▁njoor	-11.8441
▁eewnoo	-11.8442
▁ceedii	-11.8442
▁huncii	-11.8449
uuka	-11.845
▁hetto	-11.845
▁muyn	-11.8451
naade	-11.8452
▁jannaa	-11.8454
▁aroyii	-11.8459
immo	-11.8461
kkee	-11.8464
alɗuɗo	-11.8469
▁tett	-11.847
tin	-11.8478
▁hiitan	-11.8481
▁yetta	-11.8484
▁ardoy	-11.8485
▁tumbondir	-11.8486
▁bugito	-11.8488
iidugol	-11.8488
▁artii	-11.8491
rnoɗon	-11.8493
dan	-11.8496
▁timmiri	-11.8499
▁janfaa	-11.8502
▁fuu	-11.8513
▁townitan	-11.8517
▁kaaru	-11.8519
Kis	-11.8524
▁gennda	-11.8527
▁wariree	-11.8528
dinooɓe	-11.8529
▁faandori	-11.8532
▁gall	-11.8534
▁timminiri	-11.8535
ɲ	-11.8536
▁ŋunu	-11.854
▁tagri	-11.8541
▁lugguɗ	-11.8544
▁suk	-11.8546
▁ci	-11.8548
▁jiiɓii	-11.855
▁Hun	-11.855
uruyee	-11.8556
▁kasoo	-11.8557
ning	-11.8565
▁suɓino	-11.8566
seeti	-11.8567
onto	-11.8567
▁jaggiti	-11.8569
▁ronndo	-11.8574
▁Yaaju	-11.8575
nna	-11.8578
▁neeminii	-11.858
puus	-11.8582
tiree	-11.8583
▁feƴƴuɗ	-11.8583
natooɓe	-11.8588
▁eeltan	-11.859
fotooɗo	-11.8591
▁Lo	-11.8592
▁malet	-11.8594
▁adaa	-11.8595
▁Lan	-11.8599
▁Ɗaɓɓ	-11.8599
▁muyninay	-11.8604
▁kel	-11.8607
▁udditant	-11.8608
▁wonuno	-11.861
▁fertan	-11.861
aasi	-11.861
poy	-11.8614
▁dagiiɗ	-11.8614
▁wewlinoo	-11.8614
▁tikkin	-11.8614
iinu	-11.8616
eteeɗi	-11.8624
▁kiloo	-11.8625
naaɗo	-11.8626
▁hisini	-11.8638
ooru	-11.864
liyaasa	-11.864
▁yahdu	-11.8642
▁Hoot	-11.8643
rata	-11.8644
▁yiltitoto	-11.8648
▁Moft	-11.8648
▁taaliba	-11.865
▁tampina	-11.8651
▁sogit	-11.8652
▁bammb	-11.8657
dowru	-11.8661
▁mbayl	-11.8668
▁ndarndee	-11.8671
▁leeln	-11.8673
▁duncan	-11.8677
baaɓe	-11.868
▁Ɓaŋngin	-11.8683
▁jokkitir	-11.8684
▁juur	-11.8687
▁ndikkini	-11.8688
▁ust	-11.8688
▁Bere	-11.8692
▁feewna	-11.8692
ce	-11.8693
▁fiyan	-11.8701
▁Jiyaa	-11.8701
urugol	-11.8704
anah	-11.8707
kere	-11.871
wtaaɗo	-11.8713
▁nel	-11.8718
▁eeso	-11.8721
▁donkinir	-11.8723
▁bewu	-11.8723
▁yonndin	-11.8728
onde	-11.8728
ufugol	-11.8729
▁baab	-11.8736
ntiy	-11.8745
▁toɗɗaa	-11.8746
▁taar	-11.875
▁feeɲiran	-11.8752
oowe	-11.8753
ccugol	-11.8754
▁dagani	-11.8754
▁yewtirtaa	-11.8757
▁torord	-11.8761
▁foccee	-11.8764
▁halka	-11.8765
▁mooɓoyt	-11.8766
▁fellita	-11.8773
wɗo	-11.8773
▁subbunhino	-11.878
▁hiwitorɗ	-11.878
▁asko	-11.8782
▁deen	-11.8783
▁winndaa	-11.8789
▁hibboy	-11.8793
▁ɓannit	-11.8799
▁kattan	-11.8802
▁noddindir	-11.8804
▁Lamndi	-11.8808
irteɗon	-11.881
▁bannd	-11.8814
▁hawt	-11.8815
▁kayr	-11.8816
▁Reenu	-11.8817
▁hecciɗi	-11.8819
▁Ree	-11.8821
wagol	-11.8822
▁Jogit	-11.8829
▁ukko	-11.8831
▁hebulan	-11.8832
▁nganto	-11.8832
▁feewii	-11.8835
iyata	-11.8836
▁rewaa	-11.8839
oɓɓe	-11.8843
▁beyta	-11.8849
▁bewin	-11.8849
»	-11.8849
▁faay	-11.885
alii	-11.8851
▁bal	-11.8854
▁ardinoo	-11.8854
woy	-11.8854
ilugol	-11.8855
▁fewnira	-11.8857
▁dakmitorɗ	-11.8859
▁wuurirta	-11.886
▁dullu	-11.8861
▁saama	-11.8862
attane	-11.8866
▁fiiltii	-11.8877
▁Miika	-11.8881
▁tikkani	-11.8883
▁waw	-11.8886
▁wuuriti	-11.8887
▁yoɓoyt	-11.8888
ungu	-11.889
▁waylita	-11.8897
▁lurr	-11.8898
▁goonginir	-11.89
▁andataa	-11.8903
ahiimi	-11.8904
ɗal	-11.8905
▁wallit	-11.8911
▁Siin	-11.8917
▁yedduno	-11.8921
naaɓe	-11.8924
▁laan	-11.8926
▁senndi	-11.8927
▁jagg	-11.8935
ndaare	-11.894
▁Dool	-11.8941
▁ruttirt	-11.8941
jji	-11.8942
▁Hanna	-11.8942
▁woɗɗitinoo	-11.8942
▁ñam	-11.8945
▁feƴƴira	-11.8952
nana	-11.8954
ammuyankeej	-11.8961
▁jind	-11.8964
waa	-11.8964
siɓɓe	-11.8965
aya	-11.8971
▁jaabinan	-11.8973
▁haɓɓira	-11.8976
▁Re	-11.8978
▁loƴ	-11.8981
▁yarataa	-11.8986
▁jee	-11.899
ndotaako	-11.8994
▁Huɗir	-11.8996
kiya	-11.8998
▁diwni	-11.8998
▁punni	-11.9002
▁tak	-11.9002
alaa	-11.9005
▁nodde	-11.9011
▁winndan	-11.9013
kku	-11.9014
▁woodiran	-11.9016
▁kirs	-11.9018
usu	-11.9021
unndu	-11.9023
▁sujjanta	-11.9026
▁buun	-11.9027
▁tindi	-11.9029
ax	-11.9034
▁wudd	-11.9038
▁rawn	-11.9044
▁Fewnir	-11.9044
▁Yoɓir	-11.9045
asi	-11.9048
▁man	-11.9053
▁rent	-11.9058
ranta	-11.906
▁hitt	-11.9063
itaade	-11.9065
uutu	-11.9066
▁togoo	-11.9068
orton	-11.907
▁gooti	-11.907
▁feɲɲinanee	-11.9072
▁adde	-11.9075
tinoo	-11.9076
▁muññ	-11.9076
▁hoora	-11.9076
toyii	-11.9078
▁laaɓu	-11.9083
▁yawtu	-11.909
▁hawtuɗ	-11.9091
aamere	-11.9092
▁taaro	-11.9093
ondira	-11.9094
aajitotaako	-11.91
▁haanu	-11.9103
▁jarribo	-11.9107
▁ɓaŋ	-11.9112
anndu	-11.9112
isa	-11.912
▁hippoo	-11.9121
ñ	-11.9126
▁hattani	-11.9134
▁saaƴ	-11.9134
▁timmuɗ	-11.9142
▁darna	-11.9143
ada	-11.9146
iroy	-11.9147
▁fuɗin	-11.9151
ppitugol	-11.9167
▁hentin	-11.9168
▁nins	-11.9169
▁gomɗ	-11.9175
▁fitin	-11.9181
▁lummb	-11.9182
▁Are	-11.9183
▁mbul	-11.9183
▁jaaj	-11.9196
▁liɓay	-11.9197
▁Reeno	-11.9199
▁genndo	-11.9201
▁yaawu	-11.9205
irɗon	-11.9207
▁piya	-11.9209
▁Bi	-11.9212
▁addir	-11.9212
▁woondoo	-11.9216
▁dankor	-11.922
▁okkuɗ	-11.9221
▁yupp	-11.9222
▁wakkili	-11.9223
▁Welt	-11.9224
eli	-11.9226
▁hendorno	-11.9227
▁niɓɓitu	-11.9229
▁Yum	-11.9247
iiɗe	-11.9252
▁saakitii	-11.9253
iraama	-11.9253
▁addanay	-11.9257
▁kafidoto	-11.926
▁humo	-11.9261
lam	-11.9265
▁Almasii	-11.9275
▁heɓoyt	-11.928
▁ŋalɗ	-11.9282
▁yoɓitir	-11.9289
▁tawoy	-11.9291
▁yeruuj	-11.9295
▁addee	-11.9305
iberiya	-11.9318
▁pat	-11.9318
▁weeɓ	-11.9319
▁koolaa	-11.9327
▁wakkilinir	-11.9327
▁ɲolu	-11.9331
▁hacc	-11.9334
iyaa	-11.9336
▁wure	-11.9344
▁font	-11.9347
▁rentin	-11.9349
▁feɲɲinir	-11.9351
▁muta	-11.9353
▁yoɓoy	-11.9358
▁ɗoftaa	-11.9364
▁honn	-11.9369
▁pu	-11.938
▁soka	-11.9382
▁jibina	-11.9383
▁Hawaa	-11.9384
nanii	-11.939
▁kafiduɗo	-11.9392
▁nanoy	-11.9394
▁kesu	-11.9397
▁maandinir	-11.9398
▁dannda	-11.9399
▁gan	-11.94
ɓa	-11.9407
▁artiri	-11.9408
alfeere	-11.9409
▁ban	-11.9411
▁sirka	-11.9412
▁lamitor	-11.9413
▁nete	-11.9414
▁doln	-11.9417
▁ooñi	-11.9419
ortaa	-11.942
▁ɲiddin	-11.9423
▁Dim	-11.9423
arugol	-11.9424
▁Nan	-11.943
▁ɓanng	-11.9431
kaa	-11.9431
▁anditoy	-11.9433
▁foll	-11.9436
▁deeƴi	-11.9436
▁heña	-11.9442
▁hulan	-11.9446
▁ɗofti	-11.9447
▁meeɗina	-11.945
ŋe	-11.9457
naayi	-11.9463
▁biro	-11.9469
roore	-11.9474
▁hummbu	-11.9478
▁Moƴƴi	-11.9487
▁ngoonɗini	-11.9492
▁maƴe	-11.9495
▁harmi	-11.9498
▁haajaa	-11.9498
bedi	-11.95
▁jombi	-11.9503
ndirana	-11.9503
▁yiltee	-11.9509
▁meemii	-11.9512
▁tawee	-11.9512
fol	-11.9513
tono	-11.9514
▁mema	-11.9515
eeti	-11.952
▁ñaawaa	-11.9521
usiɗɗo	-11.9521
▁aawas	-11.9524
▁hasb	-11.9524
▁tataɓ	-11.9524
▁wooc	-11.9526
▁Laaɓu	-11.9533
▁Naf	-11.9534
iranta	-11.9543
idude	-11.9546
▁hikkan	-11.9547
▁naatuɗo	-11.9552
▁saas	-11.9572
▁weltina	-11.9575
▁maak	-11.9576
tammi	-11.9576
▁sinaa	-11.9578
▁Sam	-11.9578
▁dillir	-11.9582
▁halkir	-11.959
▁luggi	-11.96
▁jibinta	-11.9601
▁ɓamti	-11.9609
▁hunc	-11.9613
▁wallitotoo	-11.9617
▁ƴe	-11.962
▁banndi	-11.962
awɓe	-11.9624
niraa	-11.9625
▁iwran	-11.9625
▁ƴettoy	-11.9626
kkitugol	-11.9628
▁annday	-11.9631
▁darnaa	-11.9631
▁ngonaa	-11.9632
▁seeri	-11.9639
ura	-11.964
lti	-11.9641
▁ɲembu	-11.9649
tirɗe	-11.9649
▁aroyayɗ	-11.9652
▁hettay	-11.9657
irtee	-11.9664
aabii	-11.9664
▁hucci	-11.9669
bon	-11.9671
▁immani	-11.9675
▁ƴakk	-11.9677
▁noddoy	-11.9679
▁fali	-11.9684
lngal	-11.9686
▁waylu	-11.9691
▁faamir	-11.9694
aawee	-11.9696
▁sattinan	-11.9718
inegol	-11.972
muura	-11.972
▁mawninii	-11.9721
▁hond	-11.9723
dane	-11.9727
▁yaare	-11.973
▁insinani	-11.973
▁newna	-11.9733
▁pita	-11.9734
▁haɗtan	-11.9734
gitaaki	-11.9735
▁siftor	-11.9738
▁mbaɗan	-11.9738
is	-11.9739
mmbo	-11.974
rbat	-11.9742
▁feƴƴituɗ	-11.9743
ndol	-11.9744
▁daaki	-11.9751
▁wattina	-11.9753
▁yaggin	-11.9755
nooka	-11.9758
warooɓe	-11.9764
teeɗi	-11.9766
▁jindid	-11.9767
▁laataa	-11.9767
alti	-11.977
▁hucc	-11.9774
ulli	-11.9779
iskin	-11.9783
▁rentaa	-11.9785
▁udditaak	-11.9788
▁coodt	-11.9788
empe	-11.9796
▁Wonki	-11.9797
ima	-11.9798
▁welsindiiɗ	-11.9799
ggal	-11.98
▁yettir	-11.98
▁wewlira	-11.9803
▁yotto	-11.9803
▁jarrib	-11.9809
▁cukka	-11.9811
▁hoyni	-11.9817
▁saati	-11.9821
▁Yaasu	-11.9822
▁gomɗinirɗo	-11.9826
▁Kur	-11.9827
▁ewno	-11.9828
▁kurkantooɗ	-11.9828
oyaa	-11.9833
▁naatira	-11.9835
kanko	-11.9836
▁ɲawndu	-11.9836
▁nuunɗu	-11.9838
▁ñaw	-11.9843
▁jinda	-11.9847
▁jooɗi	-11.9852
▁hikko	-11.9853
▁landor	-11.9859
▁yiɗee	-11.9859
eɓataa	-11.986
▁fewj	-11.9864
ter	-11.9866
teendu	-11.987
▁acce	-11.9873
▁seytin	-11.9874
▁laamo	-11.9874
▁jill	-11.9884
▁daaluno	-11.9886
▁malkis	-11.9888
▁cukko	-11.989
laaɗi	-11.9893
▁kaalis	-11.9897
▁talen	-11.9899
Hi	-11.9902
ɓuri	-11.991
raynoɗon	-11.992
▁werlaa	-11.9925
arataa	-11.993
mma	-11.9934
eteeɗe	-11.9937
▁heɗaak	-11.9938
▁aɲaa	-11.9938
urɗo	-11.9942
▁ɓado	-11.9944
rɓe	-11.9948
▁filli	-11.9949
▁puy	-11.9957
▁weld	-11.9974
ddoowo	-11.9977
▁cuɗor	-11.998
▁hiwir	-11.9983
▁ŋun	-11.9984
▁ngañ	-11.9985
▁woɗɗitor	-11.9988
▁bepp	-11.9989
yatii	-11.999
tata	-11.9994
▁jokkir	-11.9997
▁fagg	-12.0009
toron	-12.0012
▁silmi	-12.0012
▁wuurn	-12.0014
▁yaltir	-12.0014
▁saakiti	-12.0015
▁noti	-12.002
▁Acci	-12.002
▁huɓɓin	-12.0024
yiila	-12.0025
▁Nuliri	-12.0025
ruu	-12.0026
aynge	-12.0026
▁uddita	-12.003
▁tenƴin	-12.0032
▁moƴƴiniraa	-12.0033
▁baasi	-12.0033
▁Dew	-12.0034
feere	-12.004
▁bakkondi	-12.0056
▁Adda	-12.0056
▁anndoya	-12.0058
▁hoddiran	-12.006
▁wonduɗ	-12.0063
▁barkini	-12.0065
▁hersinii	-12.0066
▁saaki	-12.0067
▁hikkorn	-12.0067
▁fuɗir	-12.007
▁feññina	-12.0074
▁huu	-12.0074
▁wele	-12.0079
▁haaj	-12.0081
▁woɗɗondir	-12.0085
Jertin	-12.0086
aɗoowo	-12.0087
▁huɓɓu	-12.0093
▁ɓanndi	-12.0094
▁aalaa	-12.0094
dere	-12.0096
▁Arsika	-12.0097
loowo	-12.0104
Yaltine	-12.0107
▁ukk	-12.0116
▁fonnd	-12.0121
▁maru	-12.0132
▁jicc	-12.0146
▁yeeyitu	-12.015
tan	-12.0154
▁aybi	-12.0157
▁ɲal	-12.0161
▁jeertin	-12.0162
Are	-12.0164
▁faabotoo	-12.0165
▁saw	-12.0166
arii	-12.0168
▁Musi	-12.0168
▁fewji	-12.0169
▁lanndi	-12.0175
▁yuɓɓ	-12.0179
▁moƴƴinta	-12.0185
▁ƴuun	-12.0191
▁feƴƴa	-12.0202
▁Welto	-12.0209
▁guu	-12.0212
▁jantii	-12.0215
▁ɓeydaa	-12.0221
Aayeeje	-12.0224
weltingol	-12.0224
▁sellinira	-12.0224
▁aynir	-12.0225
▁nawrayn	-12.0229
▁soɓ	-12.0229
jjugol	-12.0231
▁yaafee	-12.0233
▁ngoond	-12.0233
Hin	-12.0235
▁too	-12.0235
▁eɓɓind	-12.024
▁goɗ	-12.024
▁ɓittir	-12.0241
▁Acce	-12.0245
▁raɗaa	-12.0248
▁maaɗu	-12.0249
▁tabintinaa	-12.025
▁ask	-12.0251
▁All	-12.0254
fil	-12.0256
▁handu	-12.0256
suudu	-12.0257
▁nawra	-12.0258
▁yeewtid	-12.0258
▁fuɗɗa	-12.0259
maasi	-12.0269
▁Insinan	-12.0271
▁Daɗnd	-12.0272
ñe	-12.0279
rooji	-12.0281
notooɗo	-12.0281
▁hiɓ	-12.0283
▁yeɗuɗ	-12.0288
▁weeɓitaa	-12.0291
wre	-12.0298
▁Ndi	-12.0306
▁wattitoo	-12.0306
niree	-12.0313
▁dane	-12.0313
yuun	-12.0318
ajiri	-12.0319
▁ɓurna	-12.0319
nude	-12.0325
▁faamay	-12.0331
▁hatt	-12.0335
▁rinɗ	-12.0338
jemma	-12.0342
yiite	-12.0347
▁yaaɓi	-12.0351
dow	-12.0351
▁tagira	-12.0353
pees	-12.0358
▁wonn	-12.0359
▁cikk	-12.0359
▁ñeñ	-12.0359
iraande	-12.036
kuuɗe	-12.036
▁landoto	-12.0364
▁fodan	-12.0366
Deftere	-12.037
▁naɓe	-12.0372
Ñalnde	-12.0372
oran	-12.0372
taango	-12.0376
▁nuunɗ	-12.0378
▁ɓitti	-12.0381
noke	-12.0384
▁habri	-12.0384
ttike	-12.0386
▁maɓɓ	-12.0386
▁Gereekiyanke	-12.0387
▁maayuno	-12.039
▁soɓuɗ	-12.0391
nanay	-12.0393
▁Aa	-12.0396
▁niɓɓ	-12.0397
ɓiɗɗo	-12.0397
▁bolo	-12.0399
▁femb	-12.0404
▁semmbini	-12.0404
▁bele	-12.0418
orɓe	-12.042
▁suri	-12.042
mmo	-12.0422
▁wenga	-12.0422
▁janniri	-12.0426
ndarankeejo	-12.0427
▁tiiɗung	-12.0428
▁wan	-12.0429
raare	-12.043
yagol	-12.043
▁ƴantiroo	-12.0431
▁waylir	-12.0434
▁baaɗi	-12.0436
ndaaki	-12.0437
▁yaawi	-12.0437
▁nantin	-12.0441
▁jik	-12.0444
▁senin	-12.0448
▁jogondir	-12.0453
▁hebil	-12.0459
▁ɗuytu	-12.0459
Gollee	-12.0464
▁ngee	-12.0467
▁ɲawndi	-12.0471
ganndal	-12.0472
▁tentin	-12.0474
nani	-12.0475
▁suɓa	-12.0479
▁laɓɓintin	-12.0479
dammi	-12.048
▁añi	-12.0483
▁heewir	-12.0484
fedde	-12.0485
▁wakkilina	-12.0487
▁yaray	-12.0487
▁hebilan	-12.0489
▁wahyina	-12.0498
ndiijo	-12.0499
geɓal	-12.05
▁weel	-12.0509
▁focca	-12.051
▁heɓirta	-12.0511
▁yaltinee	-12.0511
▁bonnira	-12.0511
tawde	-12.0513
▁cator	-12.0514
▁Jul	-12.0515
seytaane	-12.0517
Aljanna	-12.0521
▁jolka	-12.0523
▁kuli	-12.0527
engo	-12.0531
▁wuurni	-12.0531
Yuusufu	-12.0531
Wan	-12.0532
simoore	-12.0535
ndiral	-12.0539
fello	-12.054
ɗataa	-12.0541
▁Waɗay	-12.0542
ɗooli	-12.0543
mboodo	-12.0548
▁laaɓuɗ	-12.0548
Yurmeende	-12.0548
mbobiɗ	-12.0548
▁ɗimmita	-12.0551
maayde	-12.0553
▁saakoo	-12.0556
▁nuluno	-12.0556
▁wakkilii	-12.0558
Qur	-12.056
▁jertino	-12.056
▁hollita	-12.0562
▁Tag	-12.0564
Anndu	-12.0565
tor	-12.0566
▁waɗtitira	-12.0568
▁gor	-12.057
Sujjan	-12.0571
▁yoor	-12.0572
▁jaabor	-12.0574
▁mawnu	-12.0574
▁anditu	-12.0574
▁meeɗir	-12.0575
▁wojji	-12.0576
Tawreeta	-12.0576
▁tufi	-12.0578
hee	-12.0583
▁kippu	-12.0583
▁haqinqin	-12.0585
puccu	-12.0586
hunnduko	-12.0587
intini	-12.059
▁jippinan	-12.0592
fotti	-12.0594
oraynoo	-12.0595
Eyoo	-12.0595
▁jindi	-12.0596
▁cukkee	-12.0598
gese	-12.0598
Ɗoft	-12.0599
iɗi	-12.0603
▁Few	-12.0603
Jey	-12.061
▁ɲaawoyta	-12.0612
▁rond	-12.0614
▁okkitiri	-12.0616
uuruɗo	-12.0617
irooɓe	-12.0618
▁Goongu	-12.0618
liɓi	-12.0619
maaji	-12.062
▁soñ	-12.062
uuri	-12.0622
kee	-12.0626
▁jeyaaɗ	-12.0628
▁Faala	-12.0628
▁fottay	-12.0634
uuɓi	-12.0641
▁ɓorti	-12.0649
iroowo	-12.0653
▁wahayina	-12.066
baali	-12.066
▁wutta	-12.0661
▁sotti	-12.0667
filli	-12.0672
▁accir	-12.0675
▁janfii	-12.0676
ɓɓi	-12.0677
▁nanndu	-12.0684
▁catoɗ	-12.0687
▁yiɗindire	-12.0698
Fa	-12.07
▁faamira	-12.0701
wrugol	-12.0703
▁moɗira	-12.0703
▁naamn	-12.0706
▁andita	-12.0707
▁ɓeydata	-12.0709
▁way	-12.0709
▁goongini	-12.0711
beere	-12.0718
▁yaafor	-12.0719
▁faandino	-12.0722
dente	-12.0727
▁ndarndaa	-12.0729
▁waɗɗin	-12.0732
diree	-12.0735
rru	-12.0737
▁heblani	-12.0738
ɗoowo	-12.074
▁rewira	-12.0742
▁towniti	-12.0742
▁koɗe	-12.0743
▁fewnaa	-12.0743
▁keni	-12.0752
▁jalnor	-12.0752
▁haalata	-12.0755
noyoo	-12.0758
lnde	-12.0762
diiɓe	-12.0767
ukun	-12.0768
▁nule	-12.0771
▁añan	-12.0773
▁yewtid	-12.0774
▁habbitii	-12.0775
orgol	-12.0776
▁eltan	-12.0781
▁ɲaamuno	-12.0781
ƴu	-12.0784
▁Lin	-12.0786
▁filliti	-12.0787
▁alda	-12.0789
▁loop	-12.0792
▁bad	-12.0802
▁soɓɓindii	-12.0807
▁jaasuɗ	-12.0807
▁shirk	-12.081
▁ɓadi	-12.0819
▁hersu	-12.0826
▁mawngo	-12.0828
▁Yott	-12.0834
▁duñu	-12.0835
▁Gol	-12.0836
▁diid	-12.0838
▁yananee	-12.0839
nabaaɓe	-12.0843
ogirde	-12.0849
▁mulira	-12.085
▁kulju	-12.085
▁Hattan	-12.0851
▁ranew	-12.0852
▁Okk	-12.0853
▁haqq	-12.0859
▁wontiroya	-12.086
▁hiw	-12.0861
jaatigi	-12.0862
▁ƴiiƴ	-12.0863
▁harmu	-12.0864
oopu	-12.0864
▁Hasboo	-12.0865
▁weltoray	-12.0865
▁daƴƴe	-12.0866
▁Seezar	-12.0869
v	-12.087
▁gubalee	-12.087
2	-12.087
Zaqquumi	-12.087
▁Afirik	-12.087
▁Dimitiriyuus	-12.087
▁Subhin	-12.087
▁Yankinan	-12.087
▁alyatiime	-12.087
▁barget	-12.087
▁baydoolo	-12.087
▁ciftanirgol	-12.087
▁delegasiyon	-12.087
▁geloobi	-12.087
▁himpaare	-12.087
▁kaybonru	-12.087
▁kellefuyee	-12.087
▁kolombooje	-12.087
▁lappol	-12.087
▁mannjallajii	-12.087
▁pallardi	-12.087
▁rayrayti	-12.087
▁rummaana	-12.087
▁sigareeti	-12.087
▁tugaale	-12.087
▁waabiliire	-12.087
▁zurriya	-12.087
▁ñedduɗe	-12.087
▁ñirɓanii	-12.087
▁mbobinɗin	-12.087
▁ndeereraaku	-12.087
▁Semmbinir	-12.087
▁Waabilii	-12.087
▁dinngir	-12.087
▁kaftaane	-12.087
▁liimanaaku	-12.087
▁pamaroy	-12.087
▁sulfinan	-12.087
▁Towniti	-12.087
▁fewtondirɓe	-12.087
▁juhayee	-12.087
▁ankeeti	-12.087
▁feeteewo	-12.087
▁nebbanteeje	-12.087
▁seedanfaag	-12.087
▁ɓaƴƴun	-12.087
▁Cerno	-12.087
▁seyɗan	-12.087
▁ruugayɗi	-12.087
▁Dolokk	-12.087
▁waqutu	-12.087
▁ƴulɓe	-12.087
▁mbalndi	-12.087
▁ñagara	-12.087
▁resindirayɗi	-12.087
▁hawnori	-12.087
▁kalabante	-12.087
▁limtaaɗi	-12.087
▁teenirde	-12.087
▁ɓurnindiral	-12.087
▁holsere	-12.087
▁Porto	-12.087
▁Ishaak	-12.087
▁aafiya	-12.087
▁dugula	-12.087
▁jinndooɓe	-12.087
▁bitiki	-12.087
▁ñebbe	-12.087
▁conkenwal	-12.087
yunge	-12.087
▁alamaani	-12.087
▁coggeeli	-12.087
▁Rufu	-12.087
▁Saliima	-12.087
▁Saqara	-12.087
▁jukkere	-12.087
▁Jabuura	-12.087
▁huuwaynoɗon	-12.087
▁cagayaagal	-12.087
▁riiwaaɗo	-12.087
▁Alyahuudi	-12.087
▁jiibuɗ	-12.087
▁Jaaluuta	-12.087
▁nennanteeɓe	-12.087
▁toolaajo	-12.087
▁fawñere	-12.087
▁mbilɗaaɗo	-12.087
▁ŋiñaaɗo	-12.087
▁Ahodi	-12.087
▁Fulɓe	-12.087
▁ngoƴo	-12.087
▁tooñoytaake	-12.087
▁waretanooke	-12.087
▁mbileyaagal	-12.087
▁naafiqiijo	-12.087
▁seteejo	-12.087
▁ahoduɗon	-12.087
▁tamƴinaaki	-12.087
▁liitir	-12.087
▁heɗitantoo	-12.087
▁yaajeendi	-12.087
▁kaawisa	-12.087
▁haasboore	-12.087
▁merere	-12.0871
▁ñimn	-12.0871
▁ŋoŋre	-12.0871
▁walloyteeɓe	-12.0871
▁jiibe	-12.0871
▁hiwraango	-12.0871
▁faajireeɓe	-12.0871
▁duɗal	-12.0871
▁peŋe	-12.0871
▁Ñinn	-12.0871
▁manndikirɗe	-12.0871
▁siyaakeejo	-12.0871
▁hoynayɗe	-12.0871
▁Hafroowo	-12.0871
▁Lewiyankee	-12.0871
▁ceekol	-12.0871
▁mabɓe	-12.0871
▁wattinoya	-12.0871
▁bullal	-12.0871
▁yoɓitetaake	-12.0871
▁punndi	-12.0872
▁newniran	-12.0872
▁kalaldi	-12.0872
▁fennanooma	-12.0872
▁sirkoton	-12.0872
▁Alyatiim	-12.0872
▁kellugol	-12.0872
▁duufugol	-12.0872
▁laaɓungo	-12.0872
▁sanamuuru	-12.0872
▁tamƴinoo	-12.0872
▁ɓiɗaare	-12.0872
▁jommbajjo	-12.0872
▁yaccinaneede	-12.0872
▁ɓiraaɗa	-12.0872
▁kammbirananoo	-12.0872
▁didoodi	-12.0873
▁diidere	-12.0873
▁jottii	-12.0873
▁huuwondiral	-12.0873
▁jolki	-12.0873
▁jurnde	-12.0873
▁muumini	-12.0873
▁banaana	-12.0873
▁Maajuuja	-12.0873
▁hoynantaake	-12.0873
▁Hormaŋte	-12.0873
▁kumpatiiɗo	-12.0873
▁nawaare	-12.0873
▁jaaraama	-12.0873
▁fefindoreede	-12.0873
dike	-12.0874
▁rentoto	-12.0874
▁ngoonɗinaani	-12.0874
▁jakka	-12.0874
▁hiiteede	-12.0874
Dakmitee	-12.0874
▁conndi	-12.0874
èd	-12.0874
▁wulɗam	-12.0875
eyopaas	-12.0875
▁miijitaaki	-12.0875
▁huyre	-12.0875
▁ardinoongol	-12.0875
▁bantagol	-12.0875
▁Laɓɓiŋta	-12.0875
▁njulaajo	-12.0875
biida	-12.0875
▁salaare	-12.0876
▁ñiire	-12.0876
▁fennaynoɗon	-12.0876
▁sabbi	-12.0876
▁dimaro	-12.0876
▁laaɓuɗam	-12.0876
▁seekiraa	-12.0876
▁haɗitaaki	-12.0876
▁debeere	-12.0876
▁goonɗinaani	-12.0876
▁malkisaaɗo	-12.0876
▁woɗɗungal	-12.0876
▁kawral	-12.0877
▁yoomere	-12.0877
▁weeɓinan	-12.0877
▁yaajundi	-12.0877
Uz	-12.0877
▁Yeetito	-12.0877
▁dukugol	-12.0878
▁hutaare	-12.0878
▁Tikkani	-12.0878
▁buusii	-12.0878
▁happiran	-12.0878
▁cawtol	-12.0878
▁yettoton	-12.0878
▁ɓalal	-12.0878
▁Uddit	-12.0879
▁Heɓii	-12.0879
▁jokkindir	-12.0879
▁haarannde	-12.0879
▁ballaŋal	-12.0879
▁duumaare	-12.0879
▁yahunoo	-12.0879
▁taasan	-12.0879
▁woopondir	-12.0879
▁wasiyagol	-12.0879
▁pahu	-12.088
▁jarribike	-12.088
▁Arsikoowo	-12.088
▁Nunɗ	-12.088
etanooke	-12.0881
▁duuti	-12.0881
▁nenndi	-12.0881
▁Timmbo	-12.0881
▁jeertinoowo	-12.0881
▁ruttoytoo	-12.0882
▁buudi	-12.0882
▁ornay	-12.0882
▁bakkondinɗo	-12.0882
▁hiraande	-12.0882
▁ballaŋ	-12.0882
▁hodoowo	-12.0882
▁ɓaleeje	-12.0883
▁mbatirdu	-12.0883
▁hattanaani	-12.0883
▁waylitorde	-12.0883
▁hormanteere	-12.0883
▁ɓaleejo	-12.0883
▁manndakke	-12.0883
▁meerenteeɓe	-12.0884
▁laaworde	-12.0884
▁foro	-12.0884
▁hollitaare	-12.0884
▁Wuurnit	-12.0884
▁weltoto	-12.0884
▁njelo	-12.0884
ɗu	-12.0885
▁holgo	-12.0885
▁ɓoorugol	-12.0885
▁wakiil	-12.0885
▁fefindaande	-12.0886
▁sogonal	-12.0886
poolal	-12.0886
▁ñiiri	-12.0886
▁paykunyaagal	-12.0886
▁moose	-12.0886
▁masin	-12.0886
▁habbaaki	-12.0887
Onon	-12.0887
▁Yuliy	-12.0887
▁daa	-12.0887
▁taggugol	-12.0887
▁takkere	-12.0887
▁Ɗeri	-12.0888
▁ɓornagol	-12.0888
▁jaragol	-12.0888
▁danndugol	-12.0888
▁liggitu	-12.0889
▁accete	-12.0889
▁firsinaaɗ	-12.0889
rooɓe	-12.0889
▁miijitagol	-12.0889
▁wuugir	-12.089
▁miijant	-12.089
▁cuɗiranaa	-12.0891
▁ɓittiiɗo	-12.0891
▁seeditotooɗo	-12.0891
▁ooñotooɓe	-12.0891
▁mawba	-12.0891
▁ceerti	-12.0891
▁Kulood	-12.0891
▁duumiindi	-12.0891
aawetee	-12.0891
▁tampinaama	-12.0891
▁hoyngu	-12.0892
▁ɗowɗe	-12.0892
▁deeƴirta	-12.0892
▁haɓooɓe	-12.0892
▁ndaygingol	-12.0892
▁ƴem	-12.0893
▁sakkagol	-12.0893
▁haawne	-12.0894
▁fillitike	-12.0894
▁takɗo	-12.0894
▁feŋ	-12.0895
▁miijitoto	-12.0895
▁moƴƴundi	-12.0895
▁caltu	-12.0896
▁serdu	-12.0896
mminaare	-12.0896
▁ñinnugol	-12.0897
▁muññinoo	-12.0897
▁huɗaama	-12.0897
▁tataaji	-12.0897
▁fensitannde	-12.0897
▁ñiiɓuka	-12.0898
▁hoynaa	-12.0898
▁fotondiral	-12.0899
▁buumor	-12.09
▁reeniiɗo	-12.0901
▁caaga	-12.0902
eñer	-12.0902
▁ruuy	-12.0902
Find	-12.0902
▁soyɗi	-12.0902
▁yiltagol	-12.0903
▁yahayno	-12.0903
▁haɓide	-12.0903
▁yoorundi	-12.0903
▁daɗal	-12.0904
▁puyɗo	-12.0905
▁ndenndinta	-12.0905
isal	-12.0905
▁fuutor	-12.0906
▁huɓɓunge	-12.0906
▁jarnay	-12.0906
▁perte	-12.0907
▁wennjondir	-12.0907
▁wattitugol	-12.0908
▁fillitoo	-12.0908
▁hersataa	-12.0908
▁soodugol	-12.0908
▁Duñir	-12.0909
▁yottina	-12.0909
▁huɓindiiɗo	-12.091
▁weltinoowo	-12.091
orani	-12.091
▁dakmitee	-12.091
▁ɗayre	-12.091
▁foda	-12.0911
▁ɓurtay	-12.0911
▁tooñaama	-12.0911
▁laɓɓiniiɗo	-12.0911
▁janfondir	-12.0911
▁ɗaayɓe	-12.0912
▁bugoytee	-12.0912
▁moƴƴinani	-12.0913
▁seedaaɗo	-12.0913
Moolaar	-12.0913
▁Samu	-12.0913
▁moƴƴinngol	-12.0913
▁tentingol	-12.0914
▁fefindor	-12.0914
▁memugol	-12.0915
▁boyd	-12.0915
▁bonayno	-12.0916
▁Kenke	-12.0916
▁yawtunoo	-12.0916
▁fitnin	-12.0916
▁faljinira	-12.0917
▁bannju	-12.0918
▁foddugol	-12.0918
▁funtin	-12.0918
▁ñiiɓooɓe	-12.0919
▁rewoyay	-12.0919
▁coɓɓ	-12.0919
▁ronoyay	-12.0921
▁ninsuɓe	-12.0921
▁boobooɓe	-12.0921
▁ɗowt	-12.0921
▁noddiroyte	-12.0922
▁luutindir	-12.0922
▁lettugol	-12.0924
▁Jakariyaa	-12.0924
wle	-12.0925
▁haaca	-12.0925
▁mooɓooɓe	-12.0925
▁gollidude	-12.0925
▁harmintaa	-12.0926
▁ndar	-12.0926
▁bugondir	-12.0926
▁weeɓitugol	-12.0926
▁Jattin	-12.0928
▁saɗtinan	-12.0929
▁lannditoytee	-12.0929
▁suɓoo	-12.093
▁walloowo	-12.093
▁taƴike	-12.093
▁shirkoo	-12.093
▁waɗtidu	-12.093
▁hunnirana	-12.093
▁daɗirde	-12.093
▁koɓol	-12.0931
▁hoolike	-12.0931
▁Yawtanoowo	-12.0931
▁yaajunde	-12.0932
▁waawunoo	-12.0932
▁tamara	-12.0933
▁Hebulin	-12.0933
▁suuɗude	-12.0935
▁ruttiiɗo	-12.0935
▁keɓal	-12.0936
▁Ñaawoo	-12.0936
▁weernu	-12.0936
▁julɗo	-12.0937
▁ngayuu	-12.0937
▁siwr	-12.0938
▁ngarii	-12.0938
▁tuuɗe	-12.0938
▁wennjugol	-12.0938
▁Bunng	-12.094
▁ngollatna	-12.094
▁njoɓdiiji	-12.094
▁lamndi	-12.094
▁huuwugol	-12.0941
▁fubbo	-12.0941
▁ardiniri	-12.0941
▁kulji	-12.0941
▁maakunoo	-12.0942
▁njooɓa	-12.0942
▁nunɗiri	-12.0944
▁yumeende	-12.0945
▁Qaaruuna	-12.0945
▁waali	-12.0945
▁Saamiriiyu	-12.0945
▁tinay	-12.0945
▁Fewtinir	-12.0946
▁joolol	-12.0946
▁raɓɓindin	-12.0946
▁Faransi	-12.0946
agataa	-12.0946
▁faddagol	-12.0947
▁tooñunde	-12.0947
▁terti	-12.0947
▁halkugol	-12.0947
▁hoomt	-12.0949
▁hello	-12.0949
▁Wutte	-12.0949
▁janfo	-12.0949
▁soomi	-12.095
▁jaɓoowo	-12.095
▁luutindira	-12.0951
▁maandinaaɓe	-12.0952
▁diinaaji	-12.0953
▁kaf	-12.0953
▁ninse	-12.0953
▁Farl	-12.0954
▁townitani	-12.0954
▁nafaaji	-12.0954
▁Yurmetee	-12.0954
▁jonnitugol	-12.0955
▁suuɗinoo	-12.0955
ndirta	-12.0955
▁okkoreede	-12.0956
▁konhoyri	-12.0957
hé	-12.0957
▁hollete	-12.0958
▁njaha	-12.0959
▁njaare	-12.0959
▁wullataa	-12.0959
▁ɗuuɗal	-12.096
▁muññi	-12.096
▁soɓɓindiiɓe	-12.096
▁mooɓugol	-12.096
▁ooñorde	-12.096
▁jinnaaɗo	-12.0961
▁ndaaroowo	-12.0961
▁toowunde	-12.0962
▁maayidii	-12.0962
▁cerno	-12.0962
▁saloo	-12.0962
▁habbitiiɓe	-12.0962
▁yottiiɗo	-12.0963
▁heddanii	-12.0964
▁bin	-12.0964
▁Duum	-12.0964
▁gomɗinayno	-12.0965
▁sertuɓe	-12.0966
▁janngeede	-12.0966
▁goonguɗo	-12.0967
▁townitii	-12.0968
▁weeɓitoyte	-12.0968
▁yettude	-12.0969
▁weeɓitannde	-12.0969
▁sundu	-12.0969
▁wujjude	-12.0969
▁maraaɗe	-12.097
▁mutugol	-12.097
▁mborii	-12.097
▁waajaama	-12.097
▁ñiiɓuɗon	-12.0971
kaajo	-12.0972
▁ñaamooɓe	-12.0973
▁bewuɓe	-12.0974
▁ndaarooɓe	-12.0974
▁hulir	-12.0974
▁wanngotoo	-12.0975
▁reerɗu	-12.0975
lif	-12.0975
▁firtude	-12.0976
▁nduttoto	-12.0977
▁daɲ	-12.0978
▁Majjini	-12.0979
▁coo	-12.098
▁birna	-12.098
▁rokkaa	-12.098
▁lepteteeɓe	-12.0981
▁udditee	-12.0981
▁ndaga	-12.0983
▁nawlan	-12.0983
▁marng	-12.0983
▁ñiiɓnu	-12.0985
▁tawd	-12.0985
▁Hum	-12.0986
▁lasli	-12.0987
itotaako	-12.099
▁muuy	-12.0991
▁nuunɗin	-12.0994
▁ɓeydagol	-12.0994
▁mowre	-12.0994
▁njar	-12.0995
▁yananeede	-12.0995
▁ɲoore	-12.0998
sidan	-12.0999
▁cukkotonoo	-12.0999
▁keri	-12.1
▁woowaa	-12.1001
▁jaggituɓe	-12.1002
raafi	-12.1005
▁cemmbin	-12.1005
▁tagataa	-12.1006
▁ɓeydugol	-12.1006
▁taƴiiɓe	-12.1007
▁setta	-12.1008
▁yamirta	-12.1008
▁yawtii	-12.1009
▁njeɗi	-12.1009
▁ngantino	-12.1009
▁eltaaɗ	-12.101
▁selugol	-12.101
▁wurtugol	-12.1011
▁ɓadiingal	-12.1011
fee	-12.1012
▁fewnude	-12.1013
▁ñakk	-12.1014
baabi	-12.1014
▁haɗugol	-12.1015
▁taƴagol	-12.1015
▁ɲaamidant	-12.1015
▁holnor	-12.1017
▁wiliti	-12.1017
▁accunoo	-12.1018
lamɓe	-12.1019
▁ɓira	-12.1019
▁eɓɓindii	-12.102
▁fooƴu	-12.102
▁Mooɓitoy	-12.102
▁fensitu	-12.1022
▁kuuɓ	-12.1022
▁bift	-12.1024
▁faɗɗi	-12.1024
▁haɓon	-12.1025
▁karte	-12.1025
▁kella	-12.1026
▁mbobiɗ	-12.1028
▁wiirude	-12.103
▁moƴƴiniri	-12.103
▁habra	-12.1031
▁mawnugol	-12.1031
▁lowi	-12.1032
▁haɗaaɓe	-12.1035
ulol	-12.1036
nden	-12.1036
▁ufn	-12.1036
▁noddiraɗ	-12.1037
dataa	-12.1037
▁hankin	-12.1037
▁wumuɓe	-12.1039
▁wattannde	-12.1039
▁kaalise	-12.104
▁haɓirta	-12.104
▁mawndu	-12.104
renndugol	-12.1041
▁laɓɓingol	-12.1041
▁jangaa	-12.1042
▁etirɗ	-12.1047
faara	-12.1047
▁jalkitanoo	-12.1047
▁yiltitee	-12.1049
▁muyb	-12.1049
▁tampugol	-12.1051
gotaa	-12.1053
▁ñemmb	-12.1054
▁Anndal	-12.1055
▁hirsiraa	-12.1057
▁ɓeydu	-12.1058
▁golluɓe	-12.1059
▁ɓadiiɗe	-12.1061
▁jiccotono	-12.1061
▁gasii	-12.1061
▁nguura	-12.1063
▁duŋinan	-12.1066
▁immitoyto	-12.1067
▁ɲamaa	-12.1068
▁ɓannguɗi	-12.107
▁ribaa	-12.1071
▁ɗala	-12.1071
ewtude	-12.1072
▁mawnintinoo	-12.1073
▁feeɲan	-12.1074
▁ombi	-12.1074
▁njejjit	-12.1074
▁Meeɗ	-12.1076
▁miskiin	-12.1077
▁santi	-12.1077
▁Lonti	-12.1078
▁pertuɓe	-12.1078
▁Yiɗindir	-12.1078
▁lanci	-12.1079
▁huuf	-12.108
▁diiw	-12.1085
ananoo	-12.1088
raana	-12.1089
▁resondiraa	-12.109
▁hayfu	-12.1091
▁humindir	-12.1092
▁waaji	-12.1095
▁kaanuɗ	-12.1097
▁haɗitii	-12.1098
▁ñinnoo	-12.1099
▁sankuɗo	-12.1099
▁aalo	-12.11
▁ɓaŋnguɗ	-12.1104
▁Yot	-12.1105
▁haajii	-12.1106
▁nawn	-12.1108
▁Yaltin	-12.1108
▁cat	-12.1108
▁fewta	-12.1113
▁Harayno	-12.1113
▁jebbilan	-12.1114
▁aamuɓe	-12.1114
▁Sood	-12.1115
▁piiri	-12.1115
▁aamiina	-12.1118
▁fah	-12.1122
▁heefar	-12.1127
▁hind	-12.1128
▁pooɗo	-12.1128
▁luub	-12.113
▁laaminoo	-12.1131
▁awƴ	-12.1131
▁moƴƴunde	-12.1131
▁lasil	-12.1133
▁ƴur	-12.1134
▁Majjin	-12.1135
▁golluno	-12.1135
okli	-12.1136
▁tiin	-12.1138
▁dak	-12.1139
▁Yamira	-12.1141
▁wullit	-12.1141
▁Sos	-12.1142
▁tonndu	-12.1142
▁ɓamtaaɗ	-12.1143
▁aawugol	-12.1143
▁yiilotooɗ	-12.1145
▁duumoto	-12.1158
nirta	-12.1159
dinii	-12.116
▁hinere	-12.116
▁boɗeej	-12.116
▁yaltirnoo	-12.1161
▁gollitir	-12.1162
▁cuɗiran	-12.1163
▁accuɗon	-12.1165
ttee	-12.1165
▁dagintin	-12.117
▁yaadaynoo	-12.1171
aabawol	-12.1174
▁Iis	-12.1175
▁soob	-12.1178
▁huccu	-12.1179
▁yanng	-12.1179
▁maakanayno	-12.1181
▁Luu	-12.1183
▁wuurta	-12.1185
▁jooɗodu	-12.1186
▁iwtii	-12.1186
▁seedeejo	-12.1187
▁eɓɓaa	-12.1187
▁andinoy	-12.1189
▁ƴent	-12.1189
▁riggan	-12.119
▁tugi	-12.1191
▁fuɗɗaa	-12.1193
▁lurri	-12.1195
ustu	-12.1197
▁lawl	-12.1197
deereero	-12.1198
▁lamnditoy	-12.1199
▁goonginii	-12.12
▁toɗɗani	-12.1201
▁ɗaɓɓirno	-12.1201
▁Huɗ	-12.1202
▁suɓoto	-12.1202
▁Ardotoo	-12.1202
▁ɓil	-12.1203
▁timmunoo	-12.1204
▁fefindaa	-12.1205
▁tekki	-12.1206
ɲon	-12.1207
musuuj	-12.1207
▁huccii	-12.1207
▁podan	-12.1209
▁lumb	-12.1209
wni	-12.1209
itaali	-12.121
▁piyan	-12.121
▁adunayankee	-12.1211
▁huɓɓinir	-12.1213
▁jindata	-12.1213
▁weƴƴitaand	-12.1214
▁mbatulaa	-12.1216
▁hersini	-12.1221
▁mandiliri	-12.1221
▁reenoo	-12.1221
▁ittoo	-12.1222
letaake	-12.1222
▁Sujjan	-12.1224
▁gasirt	-12.1226
▁huutorteeɗ	-12.1228
andira	-12.1229
▁hoynaynoo	-12.1231
▁laɓi	-12.1234
▁ƴettata	-12.1235
▁yejjintini	-12.1239
▁talli	-12.1241
▁Fiyaak	-12.1244
▁Kin	-12.1244
▁timmuɗi	-12.1245
▁wurt	-12.1254
▁hunƴu	-12.1257
▁turii	-12.1258
▁cagaa	-12.1258
▁gomɗinirt	-12.126
▁Hoɗ	-12.1261
▁ɓeydoto	-12.1262
▁pott	-12.1265
▁laamoto	-12.1265
▁nennanii	-12.1266
▁jaɓira	-12.1268
▁Waɗane	-12.1269
ewtere	-12.127
▁heɗoy	-12.127
▁Hoɗuɗo	-12.127
▁wargol	-12.1272
▁landorta	-12.1274
▁heli	-12.1277
iyon	-12.1278
▁njulaa	-12.1285
▁yaltaynoo	-12.1286
▁ruttataak	-12.129
condi	-12.1291
▁bawɗi	-12.1292
▁teddan	-12.1295
▁harminaa	-12.1299
▁newinani	-12.1301
Sonna	-12.1303
▁werloto	-12.1304
▁bili	-12.1307
▁waɗanta	-12.1307
ndirɗi	-12.1315
▁dummbaa	-12.1316
nndal	-12.1319
dondiree	-12.1324
▁jindu	-12.1326
▁maayɗo	-12.133
▁paɗ	-12.1333
▁yeddondiro	-12.1333
toyi	-12.134
▁jantotooɗ	-12.134
morde	-12.1341
▁kanu	-12.1342
ndoowo	-12.1344
▁Yamiroo	-12.1345
▁seeditiiɓe	-12.1346
W	-12.1358
▁laɓɓini	-12.1359
▁Tipp	-12.136
▁weltiiɓe	-12.136
▁seekor	-12.1367
▁tiiɗnori	-12.137
▁Bugo	-12.137
ggu	-12.1374
▁jawtu	-12.1376
▁hayru	-12.1378
▁yagginir	-12.1381
▁Wuurire	-12.1383
▁ruuhuyankeej	-12.1385
orta	-12.1387
▁weela	-12.139
▁mantir	-12.1392
▁Fuɗɗor	-12.1395
▁wuddir	-12.14
▁wulɗaa	-12.1403
▁karan	-12.1403
▁tolnir	-12.1403
▁wonɗa	-12.1407
▁Haan	-12.1408
▁maayuɓe	-12.1409
sensi	-12.1411
▁yejjitunoo	-12.1412
heftuɓe	-12.1413
▁hes	-12.1414
▁eɓɓu	-12.1419
▁Naaday	-12.1424
▁Yurm	-12.1427
nditee	-12.1429
▁weldu	-12.1431
▁laatani	-12.1431
ppii	-12.1431
▁laɓɓinii	-12.1433
▁Harminani	-12.1436
▁moolanaan	-12.1439
daare	-12.1441
▁yoolira	-12.1442
▁foolata	-12.1443
▁penu	-12.1445
▁tommbor	-12.1451
ranoo	-12.1452
▁jinoow	-12.1452
ijitee	-12.1455
▁Faalaa	-12.1458
▁nanay	-12.1458
needi	-12.1459
▁paam	-12.1464
▁yeddon	-12.1464
▁jeenayaɓ	-12.1466
aawuɗo	-12.1467
▁yewtidoy	-12.1467
▁jogani	-12.1474
▁winndude	-12.1477
uunde	-12.1478
▁arno	-12.1479
▁woowindir	-12.1479
▁ɓoyliiɗ	-12.148
▁soktir	-12.1482
oyngol	-12.1484
ndini	-12.1485
▁sowinsin	-12.1487
▁accirnoɗ	-12.1487
▁wallidii	-12.1488
▁hawkaa	-12.149
▁saɗ	-12.149
llaahi	-12.149
▁rutton	-12.1491
akkitoro	-12.1491
▁hoolori	-12.1493
uli	-12.1496
▁humpitinoo	-12.1497
▁bid	-12.1499
▁njaltu	-12.15
▁ñoo	-12.1504
▁ñall	-12.1505
▁caak	-12.1505
ame	-12.1506
▁heewɓe	-12.1507
▁waaloo	-12.1508
▁ŋati	-12.1512
▁Hool	-12.1514
▁jiga	-12.1514
aŋŋe	-12.1517
▁faalanaa	-12.1519
▁accoytaa	-12.1519
Sen	-12.1524
▁alɗinir	-12.1526
▁mbaal	-12.1528
▁munc	-12.1529
ƴƴ	-12.153
▁yeddondirtee	-12.1536
▁wakkilindire	-12.154
▁alma	-12.1541
▁hulugol	-12.1542
▁mboodo	-12.1542
ɓii	-12.1543
▁salminir	-12.1545
ƴan	-12.1546
▁woowi	-12.1547
koroo	-12.1551
▁bakod	-12.1552
▁daala	-12.1553
▁darinoo	-12.1556
ange	-12.1557
]!	-12.1557
▁jonnde	-12.1558
▁baata	-12.156
▁yiltitor	-12.1564
▁Ɓaŋ	-12.1567
▁kart	-12.1567
"?	-12.1569
▁rentii	-12.157
▁Lept	-12.1573
▁loowet	-12.1575
▁limt	-12.158
▁newe	-12.1581
▁Yaafo	-12.1581
▁wennju	-12.1581
▁hocco	-12.1581
▁kammbirani	-12.1586
▁ri	-12.1589
▁Naadu	-12.159
▁Faandan	-12.1592
▁hoori	-12.1598
▁hunƴuɗ	-12.1599
▁gaaru	-12.16
baa	-12.1603
▁heɓuno	-12.1606
▁yarnan	-12.1607
▁faaleteno	-12.1608
▁heɗotonoo	-12.1614
▁sunni	-12.1616
▁Laabi	-12.1616
▁newn	-12.1617
▁deft	-12.1618
▁sott	-12.1623
▁sokolini	-12.1624
▁hoolniind	-12.1624
▁yantu	-12.1624
salagol	-12.1625
▁Yaltinir	-12.1626
▁waalan	-12.1626
annduyee	-12.1626
mbuldi	-12.1629
▁lont	-12.1632
▁jillu	-12.1633
▁baraaj	-12.1635
▁joor	-12.164
▁wujjii	-12.1642
▁qirritor	-12.1643
▁wiiw	-12.1643
▁jebbilanii	-12.1643
▁tappir	-12.1646
▁yottan	-12.1647
▁ɗuytantaa	-12.1652
▁tawda	-12.1654
▁daɗn	-12.1654
▁jillondiri	-12.1655
haala	-12.1655
inaa	-12.1657
▁alɓa	-12.1657
atnoo	-12.166
▁sikkuɗ	-12.1666
▁sertii	-12.1671
▁ɓang	-12.1671
nirnoo	-12.1675
oga	-12.1677
▁heɓor	-12.168
▁lummbin	-12.1684
▁Pat	-12.1684
laana	-12.1687
▁duŋinoto	-12.1689
▁jeytir	-12.1689
▁fayu	-12.1691
▁Hoɓ	-12.1692
▁subbunhinora	-12.1696
▁faalete	-12.1698
▁yaccii	-12.1698
ruuji	-12.1698
▁jommba	-12.1699
▁yottinde	-12.17
▁weeɓitanaa	-12.1702
▁njannd	-12.171
▁soggir	-12.1713
annooɓe	-12.1715
▁Salaam	-12.1716
▁jogitee	-12.1719
aynii	-12.1719
▁yuppa	-12.1728
▁baylo	-12.1735
▁jogitori	-12.1737
laaɗe	-12.1739
▁malaama	-12.1739
uttii	-12.1739
▁lootirt	-12.174
kki	-12.174
▁iwaynoo	-12.1741
▁yahataa	-12.1744
▁eltiraaɗ	-12.1744
ppu	-12.1752
▁Kammuul	-12.1753
▁ɓannana	-12.1755
▁ɗaanaak	-12.1757
▁resaa	-12.1758
▁ɓurete	-12.1759
Jokke	-12.1761
▁laatoyto	-12.1764
anke	-12.1764
▁ndutti	-12.1764
▁sikkir	-12.1764
▁dumbi	-12.1768
▁subuhino	-12.177
▁ɗuyta	-12.1772
▁Insinano	-12.1779
▁wurta	-12.1781
Yim	-12.1784
▁fewnir	-12.1784
▁fempano	-12.1787
▁seeditotoo	-12.1792
▁tororta	-12.1793
anto	-12.1796
nqino	-12.1804
muud	-12.1806
▁jeertinoo	-12.1807
▁hebbinor	-12.181
▁mbobiɗu	-12.1811
▁heddotooɗ	-12.1813
▁haw	-12.1818
▁tanƴiniɗ	-12.1819
▁ŋaɲɲi	-12.1821
▁tiiɗuɓe	-12.1822
▁yeɗir	-12.1823
▁ñawl	-12.1825
▁hita	-12.1831
▁poɓ	-12.1831
rana	-12.1833
ajitotaako	-12.1834
▁raɓɓi	-12.1838
▁caw	-12.1842
▁faasi	-12.1843
▁ɲawnde	-12.1843
▁innira	-12.1844
▁maandinaa	-12.1846
▁ɓooy	-12.1846
▁werna	-12.1847
▁saawi	-12.1857
▁hawtiti	-12.1861
▁tagee	-12.1861
▁Muɲɲ	-12.1862
▁yeddirayno	-12.1862
▁niɓɓitir	-12.187
▁Memin	-12.1874
▁hawtid	-12.1875
▁fewnd	-12.1878
▁nya	-12.1878
▁yuwi	-12.1884
▁tooñaa	-12.1884
▁wuddan	-12.1886
▁werta	-12.1887
cukuli	-12.1889
▁donk	-12.1892
oyde	-12.1894
▁jippinayno	-12.1895
▁fattor	-12.1899
arnooɓe	-12.19
ttaali	-12.1903
▁mooɓondirii	-12.1904
mmb	-12.1905
eesi	-12.1905
▁dimmba	-12.1906
▁wurnitir	-12.1909
▁faatii	-12.1911
▁wenj	-12.1912
▁baɗte	-12.1921
▁belor	-12.1922
▁ra	-12.1924
▁cuɗori	-12.1929
▁ɗoftori	-12.1931
yeera	-12.1933
▁añaa	-12.1934
▁gil	-12.1941
▁jaasu	-12.1948
▁halku	-12.1949
▁njofooj	-12.1952
▁ƴaan	-12.1956
▁sinn	-12.1956
▁lollin	-12.1957
▁ƴentin	-12.1957
▁kecc	-12.1959
▁tinuno	-12.1962
poo	-12.1965
▁peewni	-12.1966
▁feɲɲinanoy	-12.1972
▁ɗuɗɗini	-12.1974
▁femmbu	-12.1978
▁pooɗata	-12.1979
▁poc	-12.1986
▁tooñɓe	-12.1992
▁welayɗ	-12.1992
▁ngannde	-12.1993
njo	-12.1996
▁jaŋtana	-12.1997
naynoo	-12.2006
▁serind	-12.2007
taagal	-12.2009
▁henan	-12.2014
▁Yaafano	-12.2015
▁njanɗi	-12.2016
▁jooɗaa	-12.2017
▁ñeɗ	-12.2017
tiro	-12.2022
ɗaaɗo	-12.2023
▁wujj	-12.2024
▁daas	-12.203
▁balaaj	-12.2037
▁ñiiɓuɗ	-12.2042
▁yarnay	-12.2044
▁windiran	-12.2046
▁ɲawndee	-12.2047
▁taƴira	-12.2048
▁leptir	-12.2049
has	-12.205
ttiigu	-12.2051
▁mehinɗini	-12.2059
▁ronkirt	-12.2063
sirta	-12.2063
▁ɓamt	-12.2066
aajuuja	-12.2066
▁wemmb	-12.2067
▁tammaa	-12.2067
▁peƴƴ	-12.207
▁suuɗaa	-12.207
▁seedintini	-12.2074
▁foof	-12.2076
▁hirsan	-12.2077
reeɓe	-12.2079
▁nanirta	-12.208
▁hakku	-12.2081
▁hocc	-12.2082
▁subunhin	-12.2082
▁ɓurt	-12.2084
▁ɗuytan	-12.2091
▁yiidu	-12.2091
▁ñil	-12.2092
▁sellaa	-12.2094
▁tee	-12.2098
▁njanng	-12.2098
▁heɗi	-12.2104
▁Okkay	-12.2106
ttirtee	-12.2109
ɗoton	-12.211
▁wonndii	-12.2115
ullii	-12.2117
eɗɗanke	-12.2118
▁rondita	-12.2119
▁saabi	-12.2123
▁Weltin	-12.2125
▁humpitoy	-12.2131
▁waawetee	-12.2131
▁hoɗɗii	-12.2135
kisɗo	-12.2139
▁Ɓannginir	-12.2141
daande	-12.2143
▁woɗɗitori	-12.2144
mmeej	-12.2148
▁huɗa	-12.2156
▁rerɗ	-12.2158
▁aɲa	-12.2159
▁fukk	-12.2159
▁bewnu	-12.2161
▁turn	-12.2165
▁ɲaawirte	-12.2166
▁huɓindor	-12.2166
▁sikkito	-12.2167
▁teddu	-12.2172
ammba	-12.2173
▁waɗɗo	-12.2175
▁moosi	-12.2177
▁nanndinoo	-12.2179
▁artiran	-12.2186
▁ɗayna	-12.2189
tuugii	-12.219
ttaa	-12.2196
▁faalir	-12.2198
▁faandan	-12.22
▁liiƴi	-12.2203
▁haaɗuɗa	-12.2204
▁ƴoƴu	-12.2205
mmbu	-12.2206
▁Fensit	-12.2211
▁cukki	-12.2212
▁pooɗondiri	-12.2213
▁landotoo	-12.2216
▁bonay	-12.2219
▁cakkit	-12.2222
awƴugol	-12.2224
▁nanee	-12.2225
▁fuut	-12.2225
▁ufin	-12.2232
▁saaƴini	-12.2232
ttete	-12.2241
▁jalu	-12.2245
▁sankaan	-12.2254
▁iwlo	-12.2258
oddaandu	-12.2259
▁aroyoo	-12.226
▁donkina	-12.2263
▁udditanay	-12.2263
pooru	-12.2269
ɓalew	-12.227
▁halkii	-12.2271
▁Nguurda	-12.2272
▁moƴƴint	-12.2277
aro	-12.2278
▁wallii	-12.2278
tuɓe	-12.228
ondi	-12.228
▁mofti	-12.2289
▁naana	-12.2289
▁goonginɗ	-12.2292
▁miijiɗ	-12.2294
▁Jonni	-12.2294
▁ɓooyi	-12.2296
gere	-12.2296
▁hibb	-12.2298
▁Maaki	-12.23
▁Hiwra	-12.2304
▁wurtata	-12.2304
unuub	-12.2307
awol	-12.2308
ntina	-12.2308
▁jokkiti	-12.2312
▁uuru	-12.2312
▁weeta	-12.2313
▁tottu	-12.2315
▁Senin	-12.2317
▁woonda	-12.2317
▁tooñir	-12.2322
uy	-12.2323
uurugol	-12.2326
▁cott	-12.2328
jogitagol	-12.233
▁windito	-12.2333
▁sumoo	-12.2336
▁bugiti	-12.2337
▁hewtir	-12.2337
▁nju	-12.2337
▁sakkitii	-12.2347
▁accuɗo	-12.2347
▁yaltaa	-12.2351
▁weltorta	-12.2352
▁tottaa	-12.2354
▁feewu	-12.2355
▁heltu	-12.2369
▁eɓɓanaa	-12.237
▁Ñaam	-12.2372
cee	-12.2375
elugol	-12.2375
▁darniraand	-12.2376
▁hawjir	-12.238
ontu	-12.238
▁Ze	-12.2384
▁njaltin	-12.2387
▁Ɓeydi	-12.2388
▁huutoraa	-12.239
▁lanndaa	-12.2393
riijo	-12.2393
halkagol	-12.2393
▁mur	-12.2395
▁fawiiɓe	-12.2401
Joo	-12.2402
▁Ser	-12.2405
ammadu	-12.2407
▁paya	-12.2408
▁sacci	-12.2408
▁miski	-12.241
▁foduɗ	-12.2416
▁ŋa	-12.2425
▁ɲembi	-12.2425
▁ɓesn	-12.2429
▁hikk	-12.2434
idaynoo	-12.2443
juutuɗo	-12.2444
▁toowɗ	-12.2446
iifu	-12.2448
▁wowlot	-12.2448
ac	-12.2448
▁boora	-12.2453
▁fewniri	-12.2455
▁raaɓo	-12.2455
▁rewayno	-12.2456
ooma	-12.2456
uma	-12.2466
▁ekkit	-12.2471
▁Go	-12.2472
▁munñ	-12.2479
nto	-12.2481
▁heɓiroy	-12.2483
▁ñuɗ	-12.2484
▁weltan	-12.249
tayno	-12.2492
▁dilli	-12.2501
▁wulliti	-12.2501
▁ɓuuɓu	-12.2501
▁dakmitori	-12.2503
▁newi	-12.251
▁tawdira	-12.2512
▁Waɗiran	-12.2514
▁mantu	-12.2515
mere	-12.2516
▁daɗnday	-12.2524
▁muñan	-12.2524
▁ommb	-12.2527
▁gollee	-12.2528
▁holliti	-12.2529
▁aaƴor	-12.2531
ltugol	-12.2535
yer	-12.2537
▁njarl	-12.254
▁jin	-12.254
▁timminan	-12.254
▁foo	-12.2541
▁sahinbini	-12.2545
▁mutal	-12.2547
uynir	-12.2555
▁ɓoor	-12.2555
▁taskor	-12.2556
dun	-12.2556
▁ɓo	-12.2558
▁ɓatta	-12.2558
▁fotta	-12.256
▁jarnir	-12.2564
anndaa	-12.2567
nanngee	-12.2568
▁wuurɓe	-12.2571
▁mbinnd	-12.2576
▁cataa	-12.2579
▁mooɓoy	-12.2579
▁ruttoɗ	-12.2587
▁waylito	-12.2587
▁murtan	-12.2589
▁andira	-12.259
▁Yeesoo	-12.2594
▁werlor	-12.2594
▁yiiti	-12.2595
▁ommbi	-12.2595
▁lamndino	-12.2598
ppitagol	-12.2603
▁coom	-12.2606
▁Annde	-12.2606
▁Jippinee	-12.2609
▁mir	-12.2611
▁lumba	-12.2612
▁harmina	-12.2618
▁wowlirant	-12.2618
▁hollito	-12.262
▁dandaa	-12.262
▁njeddon	-12.2621
horɓe	-12.2622
beeli	-12.2629
▁bagg	-12.2634
Y	-12.2635
▁wurtee	-12.2639
▁lollu	-12.2639
▁cin	-12.2641
▁fenaa	-12.2651
▁ngoonɗina	-12.2653
▁serinda	-12.2653
▁laata	-12.2656
duna	-12.2656
llitaare	-12.266
▁wurñ	-12.2661
▁kol	-12.2666
▁denndaa	-12.2671
▁Malk	-12.2675
▁wuj	-12.2678
▁Yuus	-12.2681
▁njipp	-12.2681
yamirde	-12.2682
▁tottee	-12.2685
▁muɲɲii	-12.2686
▁wuntin	-12.2688
▁haalani	-12.2689
▁kombo	-12.2695
▁okkorɗo	-12.2712
▁jertinira	-12.2716
▁ñaay	-12.272
▁jokkintin	-12.2726
▁waq	-12.2729
▁ndaaro	-12.2736
▁anditan	-12.2739
man	-12.2741
▁eɓɓiran	-12.2743
▁horsu	-12.2744
▁hebbinir	-12.2748
▁Rewetee	-12.2751
▁tammbi	-12.2755
rtal	-12.2755
▁yaajuɗ	-12.2755
▁humpitor	-12.2756
▁ɲaawe	-12.2758
abaa	-12.2758
▁bonta	-12.2759
▁habr	-12.276
aynooɗi	-12.2761
▁geɓe	-12.2764
▁jippiniraan	-12.2769
taaku	-12.2776
▁nguuree	-12.2779
▁taaqa	-12.2779
ajju	-12.278
atii	-12.2782
ede	-12.2785
llo	-12.2788
▁harminan	-12.2792
▁hirb	-12.2793
▁Wasiy	-12.2798
▁weltano	-12.2799
▁Lannd	-12.2802
▁ndarndan	-12.2808
▁fonta	-12.281
▁Fittaan	-12.2812
abada	-12.2813
▁waal	-12.2813
▁luggungo	-12.2816
ñere	-12.2817
atal	-12.2822
yɗi	-12.2824
▁huccit	-12.2827
jalbunde	-12.2828
▁woɗɗu	-12.2834
▁wurni	-12.2837
▁ɓokkit	-12.2839
▁njeɗ	-12.2843
▁honk	-12.2845
naɗon	-12.2847
wruɗo	-12.2854
▁kurkano	-12.2858
▁wayloo	-12.2859
basandir	-12.2862
▁ruttitoto	-12.2865
▁Mataas	-12.2866
▁habru	-12.2868
▁nanuɗ	-12.2869
▁yiɗira	-12.2871
▁haɓɓito	-12.2877
▁hibba	-12.2877
jeegaɓ	-12.2884
noyi	-12.2889
▁jicco	-12.289
alɗe	-12.289
▁anndit	-12.2893
▁fotu	-12.2897
ɗoode	-12.2897
wnugol	-12.2898
▁fodduɗ	-12.2903
▁tiiɗinire	-12.2903
▁gollo	-12.2904
▁fatt	-12.291
▁tukk	-12.2911
▁?"	-12.2919
▁Haɗa	-12.2921
▁laɓɓiniree	-12.2922
▁yaafii	-12.2922
▁tuubaa	-12.2926
▁aanin	-12.2928
▁weliri	-12.2928
▁yiya	-12.2928
naango	-12.293
▁nelaa	-12.2931
▁juuletee	-12.2931
ddugol	-12.2931
]?!"	-12.2932
▁yamirir	-12.2932
▁pottine	-12.2935
sta	-12.2943
oɓeteɗon	-12.2943
▁salanaa	-12.2946
▁fenan	-12.2946
▁innoy	-12.2957
▁ƴettindir	-12.2958
▁jalbirɗo	-12.2958
▁tampuno	-12.296
▁Sen	-12.296
▁im	-12.2962
▁ɲawndoo	-12.2967
▁maɓe	-12.2969
royi	-12.297
▁muncira	-12.2971
▁ñalla	-12.2972
▁meeɗu	-12.2975
▁jooɗoto	-12.2983
▁sendit	-12.2989
itani	-12.299
▁laamoy	-12.2992
▁fewnii	-12.2997
▁jattini	-12.3
▁Nikola	-12.3003
fayɗi	-12.3009
▁yami	-12.3009
▁seytaan	-12.301
▁nawna	-12.3016
▁rerɗi	-12.3019
luyee	-12.3021
tini	-12.3026
▁yewtiray	-12.303
nɗi	-12.3031
▁ferta	-12.3033
▁Ndaarnd	-12.3034
▁yeƴ	-12.3037
▁waajito	-12.3037
▁ɓoro	-12.304
ayma	-12.3042
wru	-12.3043
▁foolee	-12.3043
ubba	-12.3051
▁sunninee	-12.3052
▁Ah	-12.3063
▁ñiiɓni	-12.3066
▁insinanoɗ	-12.3078
▁ɓurta	-12.3079
▁Yaltina	-12.3082
toytaa	-12.3084
▁fellintinan	-12.3084
toree	-12.3088
▁jiw	-12.309
▁faaɗ	-12.3102
▁ɗay	-12.3105
ntooɓe	-12.3109
amen	-12.3114
lal	-12.3117
▁hormortee	-12.3117
▁nanditaynd	-12.3118
atooɗi	-12.3124
▁adduno	-12.3126
▁ɓanginira	-12.3132
▁saatinan	-12.3134
▁jaati	-12.3135
▁tutuno	-12.3135
▁Darja	-12.3143
▁ɗuɗɗin	-12.3154
▁lorray	-12.3156
▁Ƴ	-12.3162
▁accitira	-12.317
▁wuurtin	-12.3171
royay	-12.3171
▁jaɓɓo	-12.3173
▁fodee	-12.3174
ttiraama	-12.3176
irɗe	-12.3176
orgal	-12.3177
▁Hing	-12.3184
▁windo	-12.3188
▁waɗidan	-12.3189
▁lancit	-12.3199
▁Yewt	-12.3201
▁rayt	-12.3201
▁Hunn	-12.3204
▁jull	-12.3213
▁soɲita	-12.3216
▁jinnaa	-12.3232
▁ƴellito	-12.3232
▁ndaygin	-12.3235
▁Um	-12.3236
anoyta	-12.3236
▁lelor	-12.3239
ndinay	-12.3245
▁mbaɗata	-12.3248
▁wurnita	-12.3249
▁fodanoɗ	-12.3254
ñu	-12.3256
▁pik	-12.3261
niranta	-12.3263
lkugol	-12.3268
▁naay	-12.3268
▁hayfinir	-12.3269
nooɗe	-12.3271
aandeeji	-12.3276
▁ɓuutu	-12.3283
Meeɗ	-12.3284
▁mawnungo	-12.3284
▁ooño	-12.3289
▁tabituɗo	-12.3295
abbagol	-12.3296
▁seedaa	-12.3297
rnugol	-12.3299
fuyee	-12.3301
tinir	-12.3302
endu	-12.3306
▁iwataa	-12.3306
▁halkay	-12.331
▁Maaɗu	-12.331
tintaa	-12.331
▁miil	-12.331
dar	-12.3313
▁ɲawnday	-12.3317
▁raɗotoo	-12.3318
▁hii	-12.3319
fu	-12.3321
▁ittin	-12.3322
lagol	-12.3322
▁ɓiɗ	-12.3323
▁Kulo	-12.3327
▁ndol	-12.3328
▁tillisa	-12.3329
▁ɗeɗɗ	-12.3329
nal	-12.333
▁huuɓit	-12.3331
▁hald	-12.3332
teeru	-12.3332
oje	-12.3335
▁laɓɓinano	-12.3346
der	-12.3346
kkaama	-12.3351
▁siwri	-12.3353
▁tottira	-12.3355
▁anniyaa	-12.3361
▁taaqan	-12.3363
iy	-12.3367
▁jolkee	-12.3369
▁jonnita	-12.337
▁ñiiɓir	-12.3371
▁mutu	-12.3379
▁yaltinoyte	-12.3387
▁AlQur	-12.339
▁luutu	-12.3393
▁Heed	-12.3402
▁wujji	-12.3403
atta	-12.3405
▁sokee	-12.3405
▁murti	-12.3417
ukkii	-12.3421
nira	-12.3425
▁Nj	-12.3426
▁waajoraa	-12.3429
▁beytira	-12.343
Won	-12.343
▁hakindii	-12.343
itoyi	-12.3431
▁jattinaa	-12.3434
▁duñan	-12.3445
den	-12.3445
inir	-12.3447
▁yet	-12.3448
▁naatayno	-12.3448
▁ɓanginiran	-12.3448
▁taƴay	-12.3453
▁wattida	-12.3453
▁ñeñaa	-12.3454
▁maayir	-12.3457
▁Wu	-12.3463
▁Sii	-12.3468
yngol	-12.3468
ggoton	-12.3469
ida	-12.347
jaac	-12.3472
▁joltu	-12.3473
▁rinɗini	-12.3474
▁ngant	-12.3476
rnde	-12.3476
▁Ron	-12.3476
▁ƴawoy	-12.3477
▁feeɲir	-12.3483
▁fawɲaa	-12.3484
▁lobbo	-12.3484
▁ɗaɓɓitoy	-12.3485
▁yaaduɗ	-12.3494
ntee	-12.35
▁hiwitor	-12.3506
▁sudda	-12.3511
▁reenir	-12.3513
▁sowan	-12.3515
naani	-12.3517
uɗam	-12.352
▁sincan	-12.3523
▁njagg	-12.3525
▁komi	-12.3526
▁ɗonka	-12.3528
daama	-12.3536
▁Sow	-12.3537
mmital	-12.3538
aɗaali	-12.3541
▁tooɲa	-12.3542
▁lorl	-12.3544
▁demmb	-12.3545
▁wayliti	-12.3545
▁fillitanoɗ	-12.355
▁yilta	-12.3557
▁ɲaawo	-12.356
▁tikkini	-12.356
kanŋe	-12.3562
▁hawtit	-12.3571
▁ɓatti	-12.3572
▁nafod	-12.3575
▁accana	-12.3577
▁yacc	-12.3577
ƴ	-12.3586
▁teddinir	-12.3587
T	-12.359
▁mandiloo	-12.359
▁Ndun	-12.3599
▁feɲɲinanɗ	-12.3601
ntinii	-12.3601
▁gayni	-12.3603
aliba	-12.3605
oda	-12.3612
▁nawrayng	-12.3621
ndiree	-12.3636
▁fera	-12.3644
▁subbunhinano	-12.3647
▁wiiray	-12.365
▁folt	-12.3654
▁ɗaay	-12.3656
▁yurmuɗ	-12.366
▁yotti	-12.3664
▁sooɗ	-12.3666
▁immitot	-12.3667
▁ful	-12.367
▁faasiqii	-12.3674
pu	-12.3676
▁rerɗin	-12.3677
▁ñaaway	-12.3677
▁halkira	-12.368
▁bii	-12.3683
▁qirrito	-12.3685
kuu	-12.3686
▁wowlanayno	-12.3686
ndan	-12.3687
▁kamm	-12.3691
▁nawru	-12.3692
▁aynitu	-12.3692
▁sirkana	-12.3699
▁haalir	-12.3701
diya	-12.3701
bojji	-12.3703
▁adduɗo	-12.3704
▁saccu	-12.3704
rgal	-12.3704
▁Suɓ	-12.3706
▁seeditanto	-12.3706
▁weeɓu	-12.3708
▁neɓ	-12.3711
▁ɗaɓɓitir	-12.3716
▁nguur	-12.3726
▁halfi	-12.3731
ungol	-12.3731
eɗaa	-12.3732
▁newan	-12.3733
▁bammba	-12.3736
▁ñaml	-12.3736
▁feeñan	-12.3738
▁bark	-12.374
ane	-12.3743
▁basa	-12.3744
▁ndarndi	-12.3747
▁fonndoo	-12.3749
ilaa	-12.3754
▁nandintina	-12.3755
araa	-12.3765
▁Joomiraa	-12.3767
▁ƴee	-12.3769
ccee	-12.3772
▁mas	-12.3774
q	-12.3778
▁momt	-12.3781
awrugol	-12.3786
ettaaɗo	-12.3786
▁ñiiɓa	-12.3787
▁jaɓiri	-12.3791
okkunoo	-12.3793
▁sikkit	-12.3794
▁yaññu	-12.3796
▁addoy	-12.3798
wani	-12.38
▁bonne	-12.38
▁pottiti	-12.3802
▁tindini	-12.3802
▁ɲawli	-12.3803
▁haanuno	-12.3805
▁seedintin	-12.3806
▁farliiɗ	-12.3807
▁Kanaan	-12.3809
▁hayf	-12.381
▁nawy	-12.3811
▁yejjitin	-12.3821
▁yirbin	-12.3826
▁ɓatt	-12.3829
▁ardoyt	-12.3829
▁hatta	-12.3831
▁tippira	-12.3837
▁hippi	-12.3838
▁aybinir	-12.3849
ntin	-12.385
▁fellintinana	-12.3852
▁hulaa	-12.3852
▁lontin	-12.3853
▁nennana	-12.3855
▁fontan	-12.3855
▁Lisi	-12.3856
seedataa	-12.3858
▁Muñ	-12.3862
▁Ŋa	-12.3867
▁jogan	-12.3868
▁ɓittin	-12.387
▁lab	-12.3876
totoo	-12.388
▁hal	-12.3892
▁hayni	-12.3902
▁yewtida	-12.3903
▁heɓoyi	-12.3906
▁saatini	-12.3908
enɗe	-12.3915
▁yanata	-12.3916
jj	-12.3917
idaama	-12.3917
▁Mu	-12.3918
▁jaŋtor	-12.3919
▁Timm	-12.392
▁hisu	-12.3921
▁faamin	-12.3925
▁ɗiɗ	-12.3934
▁saakita	-12.3937
▁imminaa	-12.3937
▁yoɓii	-12.3944
saabu	-12.3945
▁ƴo	-12.3954
▁mut	-12.396
▁gerd	-12.3963
▁toppit	-12.3965
▁ɗofte	-12.3976
▁duñir	-12.3978
▁car	-12.3983
kagol	-12.3986
▁Fodi	-12.3988
▁fanɗu	-12.3991
▁laaɓana	-12.3993
ngot	-12.4
▁ɓooyu	-12.4001
Yilto	-12.4001
▁wontani	-12.4002
▁utta	-12.4008
wuɗo	-12.4011
▁wuurnitoo	-12.4015
▁wontanoy	-12.4018
aaba	-12.4029
▁welsinda	-12.4035
▁san	-12.4035
▁haan	-12.404
▁ɓatto	-12.4042
▁lann	-12.4046
▁ƴaway	-12.4048
▁tanƴina	-12.4055
ƴƴude	-12.406
orana	-12.4062
▁yankinoto	-12.4067
▁kurkod	-12.4078
▁Hawa	-12.4082
▁alɗ	-12.4082
▁artiree	-12.4085
▁ɓeeɓi	-12.4086
▁gard	-12.4088
hakkunde	-12.4088
▁waylata	-12.4089
liiɓe	-12.4091
▁heertinan	-12.4092
iiɗi	-12.4094
▁anndita	-12.4103
ɗaade	-12.4103
▁hocca	-12.4109
▁faalee	-12.4114
▁hik	-12.4117
ggere	-12.4121
ajji	-12.4124
▁mulu	-12.4128
▁mettuɗ	-12.4133
▁ɲaawi	-12.4134
▁wowlana	-12.4136
▁Faa	-12.414
▁yiir	-12.414
▁heyɗintini	-12.4144
▁Okku	-12.4152
▁seeditora	-12.4157
naangal	-12.4157
▁uggin	-12.4157
▁fempa	-12.4164
eege	-12.4165
▁sendir	-12.4165
nditagol	-12.4165
▁mbara	-12.4167
iroyta	-12.4176
▁urɓ	-12.4178
▁fan	-12.4179
ikkere	-12.4183
sabu	-12.4184
▁ardinan	-12.4207
▁dunnd	-12.4208
▁mutir	-12.4221
▁hunnuɗ	-12.4228
▁q	-12.4229
▁rewoy	-12.423
▁yoɓira	-12.423
gee	-12.4232
▁wonduɗe	-12.4233
▁fensitir	-12.4237
iŋtin	-12.4239
▁raaɓ	-12.425
▁niɓɓita	-12.4252
▁meerente	-12.4253
▁jaɓɓaa	-12.4255
▁jogora	-12.4259
iire	-12.4264
▁caal	-12.4267
▁noddoo	-12.4268
▁lootor	-12.4269
▁yonu	-12.4273
▁ɗaɓɓaa	-12.4279
▁wurnu	-12.428
rri	-12.4291
▁hiil	-12.4292
▁laak	-12.4292
▁faggito	-12.4292
▁yeƴa	-12.4293
▁Zay	-12.43
aŋke	-12.4305
▁wonirɗe	-12.4306
▁Je	-12.4307
▁yela	-12.4307
▁wupp	-12.431
▁sara	-12.4313
eweteeɗo	-12.4315
▁yooma	-12.4317
▁jiiɓi	-12.4318
▁arat	-12.4321
▁wirt	-12.4324
▁ñawli	-12.4325
▁tawdee	-12.4334
▁tuun	-12.434
▁Naad	-12.4343
andirta	-12.4343
nɗun	-12.4347
eewuki	-12.4348
▁ɓiɗtor	-12.4348
▁mbaɗaa	-12.4349
▁feɲɲinira	-12.4353
▁soɓɓind	-12.4355
▁andirɗ	-12.4357
▁winndi	-12.4357
koor	-12.4362
▁surri	-12.4363
▁hammir	-12.437
oyayɓe	-12.4371
▁Barki	-12.4372
▁ɓurtin	-12.4372
▁mbelɗ	-12.4377
▁cuɗ	-12.4377
tiiri	-12.4382
dduɗo	-12.4383
▁gunndo	-12.439
▁rondi	-12.439
▁ɗaɓɓitoya	-12.4392
▁naw	-12.4395
▁maandin	-12.4398
▁Ra	-12.44
miraaɓe	-12.4401
▁gal	-12.4403
ɓataa	-12.4403
▁dimmb	-12.4404
▁naatiroy	-12.4405
▁limu	-12.4406
Nde	-12.4409
▁torori	-12.4409
pellet	-12.4413
▁longina	-12.4413
▁mantii	-12.4414
▁hey	-12.4418
ak	-12.4419
itaaki	-12.4419
▁felaa	-12.4419
▁harmund	-12.4424
▁yer	-12.4428
▁mawninaa	-12.4436
▁yim	-12.4436
ewol	-12.444
▁faggitoto	-12.4444
▁ƴawna	-12.4445
noyay	-12.4446
▁taab	-12.4447
okkete	-12.4447
▁Lamnd	-12.445
▁feewa	-12.4451
▁eɓɓindan	-12.4455
▁wikk	-12.4455
▁yaafoto	-12.4455
▁liɓu	-12.4469
▁bako	-12.4476
▁wasiyan	-12.4484
▁dan	-12.4486
▁renndi	-12.4487
▁hebulaa	-12.4489
▁werti	-12.4498
woowo	-12.4498
oday	-12.4501
▁yoɓitira	-12.4501
▁eltira	-12.4502
▁weltiniri	-12.451
▁jil	-12.4513
yankeej	-12.4516
▁dawr	-12.4517
▁waram	-12.4517
▁hikka	-12.4518
▁Ad	-12.4524
▁mandili	-12.4525
himo	-12.4526
ndaa	-12.4527
awi	-12.4528
▁liddii	-12.4533
▁luutondirɗ	-12.4536
▁tampinaa	-12.4537
▁Woɗɗi	-12.4539
▁pottina	-12.4539
▁tilf	-12.4541
▁jow	-12.4542
nkooɓe	-12.4548
▁saaƴin	-12.4549
iɓaare	-12.4554
tinooɓe	-12.4561
▁Yaaj	-12.4565
▁hatonji	-12.4565
loyteeɓe	-12.4568
▁adunayanke	-12.4573
▁natt	-12.4578
▁sikkuno	-12.4578
▁wewlinirt	-12.4583
▁andiree	-12.4585
laajo	-12.4585
mbaa	-12.4587
▁Ñaawa	-12.4592
iyaasa	-12.4601
▁raɓɓiɗ	-12.461
▁yurmini	-12.4613
ottiigu	-12.4614
ttol	-12.4618
gir	-12.4623
oyaagal	-12.4629
▁jeena	-12.4632
▁aa	-12.4633
▁majja	-12.4635
indiran	-12.4637
▁egga	-12.4637
▁lancu	-12.464
▁timmina	-12.4643
▁jibinii	-12.4644
▁hunt	-12.4644
▁yeli	-12.4651
▁lootiraɗ	-12.4652
▁hawtu	-12.4653
▁Yilt	-12.4666
▁jannira	-12.4668
▁tedd	-12.4671
▁anndinɗo	-12.4674
▁jikk	-12.4674
irugol	-12.4675
▁tamma	-12.4677
gomɗimɓe	-12.4679
▁nangaa	-12.4683
▁kule	-12.4689
▁teŋ	-12.469
▁haqiiqaw	-12.4694
▁fattin	-12.4695
ukketeeɓe	-12.4696
▁ñor	-12.4696
▁nodditir	-12.4696
ayngii	-12.4701
tawi	-12.4706
▁Winndan	-12.4706
▁happi	-12.4713
▁mart	-12.4718
ujo	-12.4719
▁farli	-12.4723
▁cee	-12.4731
▁ƴettod	-12.4732
▁daɗira	-12.4738
▁jillondir	-12.4742
▁haaja	-12.4742
▁lanndoto	-12.4749
▁baɓɓ	-12.4749
tiɗon	-12.4753
ŋii	-12.4758
▁ɓuttin	-12.477
naŋteeɓe	-12.4772
tunoo	-12.4772
aake	-12.4774
bee	-12.4776
▁mara	-12.4776
▁mbum	-12.4782
lɗi	-12.4783
iyee	-12.4784
ellal	-12.4784
uɗɗugol	-12.4794
ewe	-12.4795
kamɓe	-12.4796
aangal	-12.4799
▁jaabinana	-12.4806
▁saaf	-12.4806
▁Yeeso	-12.4807
Kaaba	-12.4809
ewu	-12.4812
▁yaaɓ	-12.4813
▁yang	-12.4825
▁deeno	-12.4826
▁jonnira	-12.4828
▁okkata	-12.4834
▁wewlinira	-12.4836
▁huuɓ	-12.484
▁waɗirno	-12.4841
▁duñira	-12.4841
niraaɓe	-12.4841
▁jooɗoyo	-12.4843
▁yahra	-12.4845
▁saawu	-12.4848
▁yeeyu	-12.486
▁eltir	-12.4862
daaka	-12.4867
aarata	-12.4869
hiɗon	-12.487
nngol	-12.4871
nwol	-12.4872
▁waajino	-12.4872
▁Dal	-12.4876
▁ardira	-12.4876
▁naamne	-12.4878
oyteɗon	-12.4881
Maaku	-12.4883
▁Jibriil	-12.4884
▁Wahayina	-12.4885
▁yettu	-12.4904
▁inne	-12.4905
ɓiiɓe	-12.4908
▁woota	-12.4912
▁ƴettita	-12.4917
▁firli	-12.4918
oomugol	-12.4918
▁yaafe	-12.4919
aandi	-12.4921
▁makk	-12.4922
▁tiiɗinir	-12.4922
▁aaƴ	-12.4923
▁waɗire	-12.4924
uu	-12.4924
▁yul	-12.4927
▁taama	-12.493
ooɗiiɗo	-12.4934
▁mantori	-12.4938
▁Hoy	-12.4941
▁faljinoy	-12.4948
iraaɗi	-12.4953
laamu	-12.4955
▁meereej	-12.4955
roytee	-12.4956
uyaagal	-12.4956
inɗo	-12.4957
▁goop	-12.4958
mbugol	-12.4968
etenoo	-12.4969
▁jaggi	-12.4971
▁maafe	-12.4973
▁qirriti	-12.4976
▁feeñana	-12.4979
▁njedd	-12.4979
▁hendoy	-12.4981
irɗi	-12.4993
▁yelino	-12.4997
▁yaltinana	-12.4998
▁gannda	-12.5
▁iwruk	-12.5003
▁njeɗa	-12.5006
amiyon	-12.5006
▁ɓannaa	-12.5007
mbajjo	-12.5008
▁okkira	-12.5011
naaru	-12.5018
jaa	-12.5029
ondirɗi	-12.5031
awle	-12.5034
aŋt	-12.5034
▁daditi	-12.5038
nndi	-12.5042
▁yurmir	-12.5048
ungo	-12.5053
▁jaŋ	-12.5058
ippataa	-12.5062
itu	-12.5062
▁warra	-12.5062
▁Ƴi	-12.5066
kammuul	-12.5075
▁duwaa	-12.5076
▁Jaa	-12.5076
▁sudd	-12.5076
ɗiɗi	-12.5077
▁hiɓɓu	-12.5082
▁gatt	-12.5087
aandu	-12.509
▁ɗoftino	-12.5091
ɗay	-12.5091
ntaake	-12.5092
▁sappa	-12.5094
▁imminir	-12.5098
anaani	-12.51
▁ñiɓ	-12.5103
▁jantaak	-12.5106
▁heefer	-12.511
▁gomɗinoy	-12.5112
yedduɓe	-12.5112
▁seli	-12.5114
▁jonnir	-12.5114
▁tello	-12.5116
▁sotta	-12.5116
▁janngata	-12.5119
▁waawete	-12.5119
naana	-12.512
naare	-12.512
▁hawji	-12.5121
▁piɓ	-12.5129
▁yiida	-12.5129
Laat	-12.5133
▁koɗo	-12.5134
▁ɲaawetee	-12.5138
▁nawnuno	-12.5139
▁njippin	-12.5142
paas	-12.5144
▁newaniiɗ	-12.5149
▁fill	-12.5157
▁ƴelliti	-12.5157
adotooɓe	-12.5158
okkuɗe	-12.5163
▁baaw	-12.5168
ɗɗagol	-12.517
▁tinu	-12.5172
▁liddoto	-12.5173
kapo	-12.5173
iɗtinana	-12.5175
ihu	-12.5179
▁Iisa	-12.518
▁laawoto	-12.5181
▁yawti	-12.5192
▁funs	-12.5193
Ibraahiima	-12.52
siyee	-12.52
Jogit	-12.5208
▁heɓoyto	-12.5208
oyre	-12.5211
▁naamnaa	-12.5212
Baaba	-12.5215
ccun	-12.5219
daw	-12.5221
▁loowa	-12.5222
▁talla	-12.5223
mini	-12.5224
▁komin	-12.5227
igi	-12.5231
▁huccitir	-12.5231
ɗinɗo	-12.5232
▁baaru	-12.5237
▁ɓaar	-12.5243
▁muusa	-12.5248
ɓur	-12.5249
▁aynit	-12.5249
▁hulɓini	-12.5256
▁ɗaɓɓiray	-12.5256
▁yaɲɲa	-12.5264
▁tommb	-12.527
ɗɗii	-12.5272
▁ndaɗɗ	-12.5273
▁fefindo	-12.5278
falta	-12.5279
▁taƴoo	-12.5282
▁ɗiɗaɓ	-12.5283
awugol	-12.5285
faamu	-12.5287
ɓɓ	-12.5289
▁joga	-12.5294
▁bonno	-12.5299
amu	-12.5299
▁lollir	-12.5301
ondiro	-12.5302
▁heɓida	-12.5304
▁hersi	-12.5312
▁nootaa	-12.5312
▁ɗigg	-12.5314
▁yarata	-12.5315
ɓude	-12.5317
notooɓe	-12.532
Jipp	-12.5322
mawɗo	-12.5323
▁hoddira	-12.5324
▁ɓan	-12.5324
▁fata	-12.5326
nokku	-12.5327
▁Okkaa	-12.5331
▁Wahyini	-12.5334
▁holti	-12.5335
cciri	-12.5335
▁gomɗiniri	-12.5337
Darngal	-12.5346
▁jonne	-12.5346
laakara	-12.5348
▁haɓira	-12.5349
nti	-12.5352
moolo	-12.5356
▁yaccinan	-12.5359
▁tolni	-12.536
▁hasboo	-12.5364
Nge	-12.5365
▁nela	-12.5365
itorgol	-12.5365
▁fels	-12.5365
aagal	-12.5368
▁sikkat	-12.5368
juula	-12.5369
jam	-12.537
▁jogorii	-12.5371
eylatu	-12.5373
uttu	-12.5373
▁Tabi	-12.5374
▁njula	-12.5383
iltitoɗen	-12.5383
▁cattu	-12.5383
kisiyee	-12.5384
▁fuɗina	-12.5384
Ibuliisa	-12.5385
▁toln	-12.5392
▁welsindi	-12.5396
▁wippit	-12.5396
▁noddit	-12.5399
ndiiɗo	-12.5401
▁sul	-12.5405
▁takku	-12.5408
mida	-12.5408
▁feewn	-12.5414
▁Ñaawi	-12.5421
▁fowto	-12.5424
▁Juulir	-12.5427
aɓ	-12.5429
wonirta	-12.543
▁faaboto	-12.5432
▁wallitoto	-12.5434
▁hiitaa	-12.5435
▁faɗ	-12.5437
▁honnu	-12.5438
▁ardiran	-12.544
▁tummbe	-12.5446
konngol	-12.5446
ynooje	-12.5446
llaare	-12.5448
ɲɲ	-12.5449
bitugol	-12.5451
ño	-12.5451
▁Wakkil	-12.5454
fiiltii	-12.5456
▁waañ	-12.5456
nirani	-12.5457
rsingol	-12.5459
battane	-12.546
▁lammini	-12.546
▁heyno	-12.5461
▁ardirana	-12.5462
▁kard	-12.547
gude	-12.5472
leƴƴi	-12.5474
baaba	-12.5479
rayɓe	-12.5485
nafqe	-12.5486
tanook	-12.5487
▁happana	-12.549
ɓɓere	-12.549
▁Waɗti	-12.549
iigu	-12.5493
ngaaru	-12.5493
ccoo	-12.5494
dete	-12.5494
▁mbaɗat	-12.5495
▁Doo	-12.5495
jiri	-12.5497
▁raɗoto	-12.5497
ñanne	-12.5498
▁woonduno	-12.5498
▁fawtoto	-12.55
▁udditu	-12.5501
▁ƴettan	-12.5502
neemaaji	-12.5502
Bugo	-12.5503
▁noot	-12.5504
tinan	-12.5507
▁haɓat	-12.5508
▁fittir	-12.5509
▁Soo	-12.5516
▁ndeey	-12.5517
▁sunnina	-12.5518
▁karha	-12.5519
sanamuuji	-12.5519
▁aditii	-12.5525
▁saaƴi	-12.5527
yaadu	-12.5527
Hinnorante	-12.5528
keeferaaku	-12.5528
Aadama	-12.553
Sulaymaana	-12.5531
Yiil	-12.5531
jebbilanii	-12.5532
Habbitee	-12.5534
runtiima	-12.5535
Haaruuna	-12.5536
▁taƴe	-12.5537
▁fell	-12.5539
▁werlo	-12.5541
▁yanir	-12.5543
▁tiggaa	-12.5543
▁henda	-12.5543
fulawaa	-12.5544
▁resondir	-12.5544
faama	-12.5544
Lam	-12.5546
▁bante	-12.5546
▁ndaɗ	-12.5546
▁heed	-12.5547
▁Lu	-12.5549
iilayank	-12.5551
▁felli	-12.5552
naafiqiiɓe	-12.5553
unotaako	-12.5554
▁sogg	-12.556
▁jogorta	-12.556
junngo	-12.5561
▁pam	-12.5562
Gooto	-12.5564
▁yed	-12.5564
▁hollira	-12.5565
Yahu	-12.5566
▁jibintin	-12.5568
▁baas	-12.5569
▁yurmete	-12.5569
jahal	-12.5571
moƴƴal	-12.5572
ulay	-12.5572
▁heba	-12.5574
iilayanke	-12.5574
▁murt	-12.5574
haqqillaaji	-12.5575
Ibliisa	-12.5577
mpe	-12.5578
ɓadondiral	-12.5578
yottagol	-12.5579
pular	-12.5579
▁waajotono	-12.558
▁niɓɓa	-12.558
Diina	-12.558
▁wow	-12.5581
awaa	-12.5581
eral	-12.5582
pertuɓe	-12.5582
pecce	-12.5584
leɗɗe	-12.5584
ruttoo	-12.5585
nanngitir	-12.5593
Maande	-12.5595
ibi	-12.5596
▁ɗoftotoo	-12.5601
ttin	-12.5603
Enen	-12.5604
maayo	-12.5605
Wonaa	-12.5606
gunndo	-12.5606
▁Newinan	-12.5607
oli	-12.5608
▁naatirɗo	-12.5608
saaku	-12.5609
asamaa	-12.5615
▁yaññ	-12.5615
hoɗa	-12.5616
▁woɗɗaa	-12.5616
Reweteeɗ	-12.5621
▁jaɓirta	-12.5623
gitugol	-12.5625
alal	-12.5625
▁wowlanay	-12.5626
sara	-12.5627
asaara	-12.5629
daasu	-12.5631
é	-12.5633
▁roŋku	-12.5634
▁waɗɗi	-12.5637
ippugol	-12.564
Nenn	-12.5641
hinɗingol	-12.5643
nooɗi	-12.5644
▁Mb	-12.5647
▁fuy	-12.5647
jeertin	-12.5649
peƴƴ	-12.565
Alaa	-12.5651
▁wiŋt	-12.5651
pel	-12.5653
Wahayinaa	-12.5654
mbile	-12.5655
▁peeñ	-12.5659
koyngal	-12.566
▁cukkotono	-12.5664
▁goonɗ	-12.5664
maayi	-12.5664
▁yiltoo	-12.5666
▁ngara	-12.5666
ɓɓugol	-12.5672
▁jiɓ	-12.5674
▁kammba	-12.5674
gguuji	-12.5675
▁fellit	-12.5676
sans	-12.5677
▁waɗtitirt	-12.5681
▁dimbo	-12.5686
tinɗo	-12.5686
▁duŋino	-12.5692
otoɗon	-12.5694
▁wahyin	-12.5701
poro	-12.5702
munne	-12.5704
▁linngi	-12.5707
Ars	-12.571
▁ɲaawiraa	-12.5712
ugu	-12.5712
▁hoynoo	-12.5715
▁sokolin	-12.5715
▁faljinir	-12.5718
▁gure	-12.5718
▁mbeɗ	-12.5718
ɓagol	-12.572
▁wennjiroo	-12.5721
▁Ne	-12.5721
▁Jahiim	-12.5721
Nanng	-12.5723
ɗɗuɗo	-12.5726
ntotaako	-12.5726
rgu	-12.5728
▁janngay	-12.5729
▁mowl	-12.5729
▁sell	-12.573
▁leeɓ	-12.5732
awnugol	-12.5735
▁yottoto	-12.5735
baat	-12.5735
deeji	-12.5744
R	-12.5746
jurmotooɗo	-12.5747
aaƴagol	-12.5748
▁nafka	-12.5748
▁ƴoogu	-12.5751
▁suuy	-12.5753
▁ronina	-12.5757
▁seedoto	-12.5761
▁jangir	-12.5761
quraana	-12.5762
▁addoraa	-12.5764
▁malayk	-12.5767
tondiral	-12.5768
▁kooho	-12.5772
▁ruuhuyankee	-12.5772
▁ɓoora	-12.5776
▁manndik	-12.5777
▁Waajo	-12.5781
▁Jakariya	-12.5782
▁Maryam	-12.5783
oolorde	-12.5785
▁ƴoog	-12.5786
naajo	-12.5788
ulaaɓe	-12.579
▁keew	-12.5791
▁juura	-12.5797
▁wuurniti	-12.5798
itata	-12.5801
▁moolo	-12.5803
▁Kiris	-12.5803
▁suppit	-12.5804
yoɓ	-12.5806
oolnuɗo	-12.5806
▁juɗaa	-12.5807
▁asama	-12.5808
▁tinnd	-12.581
▁cuɗini	-12.5811
▁hottoll	-12.5813
omoojo	-12.5813
hare	-12.5817
▁immintinoytee	-12.5819
atnooɓe	-12.5819
▁subuhin	-12.5822
Ɗo	-12.5823
▁sakkotoo	-12.5824
nantaa	-12.5825
▁paggi	-12.5826
▁hettoy	-12.5826
▁luttintee	-12.5827
▁basan	-12.5827
▁lannata	-12.5827
Naatu	-12.5828
▁bakkatu	-12.583
▁okke	-12.5831
▁ñem	-12.5837
▁wallina	-12.5837
ppe	-12.5841
yel	-12.5843
▁Saalih	-12.5845
▁resindir	-12.5846
ttane	-12.5846
▁bakkadin	-12.5848
intaa	-12.5848
▁hawta	-12.5849
▁duhii	-12.585
▁Hinnotoo	-12.585
ynoɗon	-12.5851
▁kaliif	-12.5852
▁jippinay	-12.5853
▁Mbaadi	-12.5854
kul	-12.5856
ippoodi	-12.5857
guurndam	-12.5859
▁muuyu	-12.5863
uɓɓunge	-12.5863
▁Jat	-12.5863
▁sooyi	-12.5864
urkantooɗ	-12.5865
▁raa	-12.5866
▁diisondir	-12.5867
ttitugol	-12.5868
▁linc	-12.5868
motoodo	-12.5869
▁jaɓanta	-12.587
ooreejo	-12.587
1	-12.587
‘	-12.587
▁Jurriiya	-12.587
▁ciŋko	-12.587
▁kumpa	-12.587
▁pepindaa	-12.587
▁suuperefe	-12.587
▁Tellinir	-12.587
)°	-12.587
Seeditee	-12.587
bibje	-12.587
bumannoo	-12.587
lliyyiina	-12.587
ngoolwa	-12.587
sollaaru	-12.587
uyaŋko	-12.587
▁Dulbunge	-12.587
▁Heefanay	-12.587
▁Idriisa	-12.587
▁Jertnir	-12.587
▁Jillindira	-12.587
▁Luqmaan	-12.587
▁Miijondirane	-12.587
▁alkamisa	-12.587
▁basagaare	-12.587
▁baymaanaa	-12.587
▁bufenri	-12.587
▁collaari	-12.587
▁demokaraasi	-12.587
▁depans	-12.587
▁donkaafele	-12.587
▁doosɗe	-12.587
▁doroogu	-12.587
▁faasoqin	-12.587
▁fulfulde	-12.587
▁fuuyoore	-12.587
▁humambinne	-12.587
▁jahatnama	-12.587
▁kikiiɗa	-12.587
▁kirndol	-12.587
▁kiɓɓal	-12.587
▁kolommbooje	-12.587
▁kolɓule	-12.587
▁lislaamiyanke	-12.587
▁manndariini	-12.587
▁ndolinwal	-12.587
▁ngaameelo	-12.587
▁nofambar	-12.587
▁oornoton	-12.587
▁pamarel	-12.587
▁pamarun	-12.587
▁soottaade	-12.587
▁taariixayanke	-12.587
▁teddeelo	-12.587
▁teeleende	-12.587
▁tintiire	-12.587
▁tuuyetee	-12.587
▁uturner	-12.587
▁uɓɓitoo	-12.587
▁videwo	-12.587
▁wartindirtaano	-12.587
▁wolodaabe	-12.587
▁yottondirtee	-12.587
▁ɓanndinnke	-12.587
▁ɲirɓin	-12.587
haa	-12.587
▁goognuɓe	-12.587
▁talifon	-12.587
▁ɗurnike	-12.587
jobdi	-12.587
▁Subunhina	-12.587
▁aawateeri	-12.587
▁estaadi	-12.587
▁fiiltarii	-12.587
▁goyaabe	-12.587
▁heydintin	-12.587
▁kawtital	-12.587
▁saggoy	-12.587
▁subhin	-12.587
▁yalage	-12.587
▁yaŋkin	-12.587
▁ñirɓin	-12.587
▁ɓannganduyeeji	-12.587
▁ɓaŋngannduyeeji	-12.587
▁Kurkaadu	-12.587
▁Lagine	-12.587
▁Ndarnd	-12.587
▁denɗiraawo	-12.587
▁dulɓay	-12.587
▁geegere	-12.587
▁mboɗeeri	-12.587
▁monñitor	-12.587
▁nguurandam	-12.587
▁saffewol	-12.587
▁Ngoonɗin	-12.587
▁dulboowe	-12.587
▁nurɗund	-12.587
▁Newanii	-12.587
▁ferñit	-12.587
▁joloko	-12.587
▁waacta	-12.587
▁Tarif	-12.587
▁dulb	-12.587
▁kakkilantaa	-12.587
▁Ñeeñƴu	-12.587
▁ɲiddu	-12.587
▁kuɗdi	-12.587
▁mbaalaandi	-12.587
▁ndenndaandi	-12.587
▁rocci	-12.587
▁sanndalɗii	-12.587
▁woofordu	-12.587
▁Hormantee	-12.587
▁tekkeendi	-12.587
heskey	-12.587
▁Hebbin	-12.587
▁cowirgal	-12.587
▁daŋk	-12.587
▁famɗungel	-12.587
▁mbulmbuldi	-12.587
▁ŋabbirɗe	-12.587
▁lookoƴe	-12.587
▁albarka	-12.587
▁geenal	-12.587
▁ñaagatoo	-12.587
▁saffiniiɗi	-12.587
▁ƴeeŋ	-12.587
▁kaakaaru	-12.587
▁ñaagataak	-12.587
▁maniyyu	-12.587
▁kanndidaa	-12.587
▁Nafq	-12.587
▁inabeeje	-12.587
▁jowlol	-12.587
▁karooti	-12.587
▁tuuyate	-12.587
▁dukkal	-12.587
▁sutura	-12.587
▁tabatin	-12.587
▁woŋtir	-12.587
▁bakkondiŋta	-12.587
▁mbuso	-12.587
▁ñiwre	-12.587
▁ƴiiƴiiri	-12.587
▁Aabirayanke	-12.587
▁Joɗɗin	-12.587
▁biidaande	-12.587
▁hucciŋtin	-12.587
▁ronndoytoo	-12.587
▁teddeele	-12.587
▁welsandii	-12.587
cokotaagal	-12.587
▁Keebu	-12.587
▁yaramnde	-12.587
▁weertaandi	-12.587
▁ñentint	-12.587
▁fiyakku	-12.587
▁Yañña	-12.587
▁fewtondiri	-12.587
▁kiriso	-12.587
▁Corte	-12.587
▁ammbasa	-12.587
▁hesiɗan	-12.587
▁horminii	-12.587
▁keetn	-12.587
▁mbuɗu	-12.587
▁halorgol	-12.587
▁huɓandiin	-12.587
▁ɲobbi	-12.587
▁tintid	-12.587
▁nduluuru	-12.587
atoobe	-12.587
qarn	-12.587
▁jurol	-12.587
▁buret	-12.587
▁alkol	-12.587
▁cakkatii	-12.587
▁taayinaa	-12.587
▁jukkini	-12.587
▁mbatulayaagal	-12.587
▁sehilaa	-12.587
▁marijaawowal	-12.587
▁ndukƴ	-12.587
▁fulkuru	-12.587
▁heedaango	-12.587
▁jaɓaŋtaake	-12.587
▁perefe	-12.587
▁nimsuɓe	-12.587
▁ñeemt	-12.587
▁ceeɗu	-12.587
▁yaafnano	-12.587
lekkol	-12.587
▁Heeranii	-12.587
▁huuɓunde	-12.587
▁pinka	-12.587
▁qarnu	-12.587
▁nguddam	-12.587
▁buubii	-12.587
▁mbeeta	-12.587
▁sowonsin	-12.587
▁tokoraajo	-12.587
▁Fawtiiɗo	-12.587
▁aawasaaku	-12.587
okkitan	-12.587
▁fatinaaɗ	-12.587
▁horminaaɗ	-12.587
▁mbilɗaaɓe	-12.587
▁saayannde	-12.587
▁bareeru	-12.587
▁darajaaji	-12.587
dintinantaake	-12.587
▁ferlitora	-12.587
▁curbaajo	-12.587
▁jarabii	-12.587
▁joopagol	-12.5871
▁goyki	-12.5871
▁fahmu	-12.5871
▁mbaylaandi	-12.5871
▁Masedoniyankoo	-12.5871
▁laggor	-12.5871
lee	-12.5871
▁sagari	-12.5871
▁maarasi	-12.5871
▁Dulɓoowe	-12.5871
▁Ñammin	-12.5871
▁curbaaɓe	-12.5871
▁ndanka	-12.5871
▁ommboode	-12.5871
▁Ɗannin	-12.5871
▁tekkundi	-12.5871
ukkinɗe	-12.5871
▁happaangal	-12.5871
▁ndayngu	-12.5871
▁lamminoy	-12.5871
▁sulhu	-12.5871
▁yiltondirgol	-12.5871
ulɓoowe	-12.5871
▁ñallirde	-12.5871
▁korndolli	-12.5871
▁ruuga	-12.5871
Maayee	-12.5871
uwerjo	-12.5871
▁ɓargal	-12.5871
▁lonngin	-12.5871
▁apar	-12.5871
▁ngawluuji	-12.5871
▁fultagol	-12.5871
▁puɗol	-12.5871
▁ɓaɗtorɗum	-12.5871
▁suntuure	-12.5871
▁jaagor	-12.5872
▁faraango	-12.5872
▁yunngugol	-12.5872
▁honcin	-12.5872
▁doose	-12.5872
▁mbordi	-12.5872
▁hoolniiɗe	-12.5872
▁laɓɓindino	-12.5872
▁paso	-12.5872
▁Fuutanke	-12.5872
▁fooɗondir	-12.5872
▁battiigu	-12.5872
▁dammbugal	-12.5872
▁morloo	-12.5872
▁yurminoyte	-12.5872
▁waaloto	-12.5872
▁feleteeɓe	-12.5872
▁jaleeɗe	-12.5872
▁fanɗungu	-12.5872
▁ƴuug	-12.5872
▁deeƴinay	-12.5872
▁Mawngu	-12.5872
▁Tuwaa	-12.5872
▁kammbanaa	-12.5872
▁setotooɓe	-12.5872
▁ñaawinora	-12.5872
▁famɗu	-12.5872
▁pellte	-12.5872
▁nenniranta	-12.5873
▁boroos	-12.5873
▁aaƴiɗon	-12.5873
▁mbarba	-12.5873
▁Jahanna	-12.5873
fqat	-12.5873
▁Rinɗ	-12.5873
▁cowtii	-12.5873
▁saññ	-12.5873
▁demal	-12.5873
▁njaatigiyaagal	-12.5873
▁cowanɗe	-12.5873
▁ɓaɗtiiɗe	-12.5873
▁jortagol	-12.5873
▁dandirte	-12.5873
▁yuwugol	-12.5873
▁duɗɗugol	-12.5873
▁ɓuɓinti	-12.5873
▁Haɗtanɗo	-12.5873
▁coongil	-12.5873
▁ñoƴƴin	-12.5873
▁hebilaare	-12.5873
▁goongunɓe	-12.5873
▁saɗnee	-12.5873
▁suynira	-12.5873
▁leeɓol	-12.5873
▁moƴƴiŋtin	-12.5873
▁Nafaani	-12.5873
▁Bilgi	-12.5873
▁bukkol	-12.5873
▁faditii	-12.5873
▁lurraynoo	-12.5873
▁baagi	-12.5873
▁ɓeeɓuɗa	-12.5874
▁jilɓuɗo	-12.5874
▁hebbinaaka	-12.5874
▁sincooɓe	-12.5874
▁funnaangeyanko	-12.5874
▁ƴamaaɗo	-12.5874
▁mbowdi	-12.5874
▁ŋalli	-12.5874
▁njeyaak	-12.5874
▁hokkere	-12.5874
▁piyahi	-12.5874
Eeyoo	-12.5874
▁biskitugol	-12.5874
assalaamu	-12.5874
▁weldital	-12.5875
▁hoɗɗagol	-12.5875
▁coñal	-12.5875
▁Artir	-12.5875
▁busal	-12.5875
mbaango	-12.5875
▁jibinegol	-12.5875
▁ŋurŋurtugol	-12.5875
▁deppitoo	-12.5875
▁nukku	-12.5875
ihaadi	-12.5875
▁durngol	-12.5875
▁ñawndugol	-12.5875
▁doolnuɗo	-12.5875
▁wattinirnoo	-12.5876
▁heɓɓita	-12.5876
▁Pullo	-12.5876
buusi	-12.5876
▁Ruumi	-12.5876
▁winndaaɗum	-12.5876
▁kosewii	-12.5876
heftoowo	-12.5876
▁waynondiri	-12.5876
▁fampagol	-12.5876
▁ɲaawindir	-12.5876
▁wajibi	-12.5877
▁yeƴƴitaaki	-12.5877
▁faɗɗaa	-12.5877
▁masara	-12.5877
▁rewnindiral	-12.5877
▁azan	-12.5877
▁ñamaku	-12.5877
▁fecco	-12.5877
▁ñaaƴoowo	-12.5877
▁woɗɗiinde	-12.5877
▁carmalal	-12.5878
▁heltii	-12.5878
▁allaandu	-12.5878
▁faljere	-12.5878
▁laten	-12.5878
▁Rabb	-12.5878
▁jonmbu	-12.5878
▁dagita	-12.5878
▁laaɓuki	-12.5878
▁cikkaana	-12.5878
▁tamaati	-12.5878
▁kiitinor	-12.5878
▁soktitor	-12.5878
▁hoykinan	-12.5878
▁sikkitiɗon	-12.5878
▁tamarohi	-12.5879
▁woɗɗungol	-12.5879
▁njupp	-12.5879
▁ƴamuɗo	-12.5879
wimmba	-12.5879
▁Hasboore	-12.5879
▁ŋakkuɗu	-12.5879
▁ɓiraaɗam	-12.5879
▁taƴontinnde	-12.5879
▁senndoore	-12.5879
▁neɗɗaŋke	-12.5879
▁newiingu	-12.5879
▁lonngal	-12.5879
▁baharank	-12.5879
▁Ɓadiiɗo	-12.5879
▁yiinagol	-12.588
▁haawi	-12.588
▁woytaango	-12.588
▁hunitoyto	-12.588
▁eggunde	-12.588
▁luttineede	-12.588
▁teskuy	-12.588
mbedde	-12.588
▁karheede	-12.588
▁ɲakk	-12.588
▁ɓiirugol	-12.588
▁mbajju	-12.588
▁taariika	-12.588
▁Sogg	-12.5881
▁ɗaytin	-12.5881
▁haakooji	-12.5881
▁Pelet	-12.5881
uuhu	-12.5881
▁jeyduɓe	-12.5881
▁danndoowo	-12.5881
▁ooñaade	-12.5881
▁juuloton	-12.5881
▁ɓiɗagol	-12.5881
▁pulf	-12.5881
▁duumintee	-12.5881
▁rentagol	-12.5881
▁Golleeji	-12.5881
▁yiltoto	-12.5881
ɗerol	-12.5881
▁ɓuut	-12.5881
▁Jib	-12.5882
titori	-12.5882
▁sirkataano	-12.5882
▁yannji	-12.5882
▁bifi	-12.5882
▁faggitagol	-12.5882
juuteendi	-12.5882
▁Mawngal	-12.5882
awnoode	-12.5882
owoye	-12.5883
▁tutiiɓe	-12.5883
▁wiige	-12.5883
▁Goonginani	-12.5883
▁faggitiɗon	-12.5883
▁gilli	-12.5883
▁ɓeyduru	-12.5883
▁hiwrondiral	-12.5883
▁ahodal	-12.5884
▁piɓle	-12.5884
▁faggitaade	-12.5884
▁jarribagol	-12.5884
▁ɗoworgal	-12.5884
▁sunaare	-12.5884
▁farlaangal	-12.5884
▁njankin	-12.5884
▁siɗɗuɓe	-12.5884
▁yoftoto	-12.5884
▁muuɗun	-12.5884
▁feññinton	-12.5884
▁newiiɗum	-12.5884
▁njarata	-12.5884
▁yankiniiɗo	-12.5884
▁balansi	-12.5885
▁ɗuytaare	-12.5885
▁waɗtinirnoo	-12.5885
▁hajjunke	-12.5885
▁niiɓn	-12.5885
▁Mbaadini	-12.5885
▁wint	-12.5885
▁ɓanngungu	-12.5885
▁miijitoɗon	-12.5885
▁mbilɗor	-12.5885
ellifaa	-12.5886
▁zu	-12.5886
▁biiniiri	-12.5886
▁lomtin	-12.5886
▁ahodude	-12.5886
▁jaggitere	-12.5886
▁dillannde	-12.5886
▁joloyay	-12.5886
▁sunotooɓe	-12.5886
▁Daalunoo	-12.5886
arjaan	-12.5886
▁moƴƴintinida	-12.5887
▁laɓɓinaandi	-12.5887
dentoy	-12.5887
▁woɗɗuɗe	-12.5887
▁fennirnoo	-12.5887
▁ndureejo	-12.5887
▁suɓiɗaa	-12.5888
▁yulugol	-12.5888
▁suuɗaynoo	-12.5888
▁ngawlu	-12.5888
▁ɓaarugol	-12.5888
▁Nualaa	-12.5888
▁cap	-12.5888
▁Jaabina	-12.5889
▁darotoɗaa	-12.5889
▁kaafuur	-12.5889
▁baafata	-12.5889
▁luumo	-12.5889
eemoraaɗi	-12.5889
▁gabbii	-12.5889
▁gatal	-12.5889
▁jebbilike	-12.5889
▁sukkunde	-12.5889
▁wureere	-12.5889
Ɓaleejo	-12.5889
▁seeɗaaje	-12.5889
▁feɲɲindina	-12.5889
▁callu	-12.589
▁yoɓetaake	-12.589
▁yakkiiɗ	-12.589
▁fiɓugol	-12.589
▁yiltotaako	-12.589
▁tafsi	-12.589
▁yananaaka	-12.5891
▁muumi	-12.5891
▁poliisi	-12.5891
▁duŋanii	-12.5891
▁ƴawra	-12.5891
▁ndaarndo	-12.5891
Holl	-12.5891
▁tabitungol	-12.5891
▁faŋti	-12.5892
▁ɓunɗo	-12.5892
▁wujugol	-12.5892
▁tampoton	-12.5892
araha	-12.5893
▁ferlis	-12.5893
▁ngaccan	-12.5893
▁ooñinoo	-12.5893
▁munyoowo	-12.5893
▁fokkitugol	-12.5893
umbit	-12.5893
▁piyaaka	-12.5894
▁suniiɗo	-12.5894
▁tiɗn	-12.5894
oɗeejo	-12.5894
▁bakkadinɗo	-12.5894
▁jaɓetaake	-12.5894
▁taskagol	-12.5894
ibriil	-12.5894
▁sikkitaade	-12.5894
▁yurmondir	-12.5894
▁misku	-12.5895
▁njaggu	-12.5895
▁duhiiɗo	-12.5895
▁jalkitooɓe	-12.5895
▁majjaani	-12.5896
▁peeje	-12.5896
▁faajir	-12.5896
▁waɗat	-12.5896
sutu	-12.5896
▁ɓeyditane	-12.5897
▁dankata	-12.5897
▁fawondirɗe	-12.5897
▁seertuɗe	-12.5897
▁gollaaynoo	-12.5897
▁waawnu	-12.5897
▁barmeere	-12.5897
▁howru	-12.5898
▁Naahuu	-12.5898
ƴal	-12.5898
▁nunɗataa	-12.5898
▁jumpugol	-12.5898
ukalel	-12.5898
▁kaliifu	-12.5898
▁jarib	-12.5898
▁jebbilagol	-12.5898
ejjutu	-12.5899
▁Dag	-12.5899
▁anndoton	-12.5899
▁waajitoɗon	-12.5899
▁ñeñƴa	-12.5899
▁mugaa	-12.5899
▁ɓannginoowo	-12.5899
▁feletaake	-12.59
▁njarib	-12.59
▁formaa	-12.59
▁Moƴƴinan	-12.59
▁ñemtin	-12.59
▁henndoto	-12.5901
▁tambor	-12.5901
▁yawtiran	-12.5901
▁enɗammaaj	-12.5901
▁sollit	-12.5901
▁haldigal	-12.5901
pirin	-12.5901
▁fukkiim	-12.5901
▁taaniraaɓe	-12.5902
▁kewe	-12.5902
▁huccintina	-12.5902
▁ñaawirton	-12.5902
▁arsuka	-12.5902
▁peeñɗe	-12.5902
▁mawnuɗe	-12.5903
▁sowannde	-12.5903
▁tefangol	-12.5903
▁laaɓungol	-12.5904
▁townitino	-12.5904
▁funsugol	-12.5904
aransi	-12.5904
▁Ñaawoowo	-12.5904
tinora	-12.5905
▁urnor	-12.5905
▁newiingol	-12.5905
▁hooloraaɗo	-12.5905
▁sunagol	-12.5905
seede	-12.5905
▁seŋ	-12.5905
▁halkorde	-12.5905
▁pees	-12.5906
▁eɓɓindirgol	-12.5906
samaan	-12.5906
▁Muny	-12.5906
▁ngardin	-12.5906
hol	-12.5906
▁ɗewluɗo	-12.5906
▁Ilyaasa	-12.5906
▁barmingol	-12.5906
abi	-12.5906
jjiti	-12.5907
▁leptoyteeɓe	-12.5907
▁ñinnu	-12.5907
▁poocciiɗo	-12.5907
▁nennitana	-12.5907
col	-12.5907
▁wemmboo	-12.5907
▁daroytoo	-12.5907
wanaa	-12.5908
▁fensitaande	-12.5908
▁yaawuɗ	-12.5908
▁sunaaki	-12.5908
▁faytu	-12.5909
▁feewnira	-12.5909
jaram	-12.5909
▁bewnooɓe	-12.5909
▁tawnetee	-12.5909
▁tuugino	-12.591
▁miliy	-12.591
▁ɲallid	-12.591
▁ɓillina	-12.591
▁tampayno	-12.5911
▁laaɓanoo	-12.5911
▁seeditani	-12.5911
▁jakatu	-12.5911
▁tenƴingol	-12.5912
▁riggor	-12.5912
▁tappindir	-12.5912
▁waylaaki	-12.5912
▁heerer	-12.5912
▁Def	-12.5912
▁iirotoo	-12.5913
▁faamondirir	-12.5913
▁moltagol	-12.5914
▁fooloy	-12.5914
Fooloowo	-12.5914
▁ndiya	-12.5914
▁konng	-12.5915
▁cooy	-12.5915
▁yergi	-12.5915
▁wewlir	-12.5915
▁heɓanoytaa	-12.5915
▁kaaws	-12.5915
▁sowndondir	-12.5915
▁wullata	-12.5916
▁laɓɓinotooɓe	-12.5917
▁wullooɓe	-12.5917
▁lahay	-12.5917
▁huuɓinana	-12.5918
▁hunnata	-12.5918
▁weleeɓe	-12.5919
▁ɗarl	-12.5919
▁newɗin	-12.592
▁Ñeñ	-12.592
▁gollirton	-12.592
▁gosto	-12.592
▁baabun	-12.5921
▁habbitiiɗo	-12.5921
▁hollaande	-12.5921
▁gilaasi	-12.5922
▁koolaaɗo	-12.5922
▁cuur	-12.5922
▁ummine	-12.5922
▁allondir	-12.5923
▁lamdo	-12.5923
▁ɓowr	-12.5923
▁wowru	-12.5923
▁fennoowo	-12.5923
▁ɓilliiɗo	-12.5924
▁jeejugol	-12.5924
▁Bela	-12.5925
▁Yalt	-12.5925
accii	-12.5926
▁hakkiltaa	-12.5926
▁bamban	-12.5926
▁aditiinde	-12.5926
callalle	-12.5926
▁foolaama	-12.5926
▁sabbitii	-12.5926
▁ñaaki	-12.5926
mbuubu	-12.5928
▁eɓɓaande	-12.5928
▁Yawtana	-12.5929
▁dimboto	-12.5929
▁ɓanngundi	-12.5929
▁Huudu	-12.5929
▁muññee	-12.5929
▁hoɓɓitugol	-12.5929
▁mijito	-12.5929
▁woowunoo	-12.5929
ubuuru	-12.5929
▁jawɗe	-12.593
roodu	-12.593
▁Meem	-12.593
▁seekike	-12.593
▁puri	-12.593
▁hettit	-12.5932
uturoo	-12.5932
▁newnana	-12.5933
hoyri	-12.5933
▁tuuman	-12.5933
▁nafitor	-12.5933
▁suuɗora	-12.5933
▁dense	-12.5934
▁fattoy	-12.5934
▁norngal	-12.5934
▁dogooji	-12.5935
▁yananaaɗo	-12.5935
nin	-12.5935
tefooji	-12.5936
▁faaminay	-12.5936
▁gasugol	-12.5936
▁fillitagol	-12.5937
▁hollitugol	-12.5937
▁Bil	-12.5937
lleejo	-12.5937
▁jinngo	-12.5937
▁wallindirgol	-12.5937
▁cuɗiniri	-12.5938
▁foygitii	-12.5938
▁njeego	-12.5938
▁maayndi	-12.5939
makki	-12.5939
▁yamirton	-12.594
▁birin	-12.594
▁feewooɓe	-12.594
▁cuura	-12.5941
▁fenannde	-12.5941
▁fantingol	-12.5941
▁jeyaɗaa	-12.5942
▁nayeeɓe	-12.5942
▁eɓɓananoo	-12.5942
▁ɗaɓɓita	-12.5942
▁pottitee	-12.5943
▁weetugol	-12.5943
eƴƴugol	-12.5943
▁huuwunoo	-12.5944
▁jaaliiɗ	-12.5944
▁suuɗiray	-12.5945
▁sirkanta	-12.5945
idho	-12.5945
▁asamaa	-12.5946
▁Naadoy	-12.5947
▁notira	-12.5948
▁jalkitay	-12.5948
▁Golle	-12.5949
▁weeɓitanay	-12.595
▁ƴurina	-12.5951
▁Janngira	-12.5951
▁hulaynoo	-12.5952
▁fewjata	-12.5953
deestoo	-12.5954
aŋtaake	-12.5954
▁yeddira	-12.5954
▁jaɓɓoroyt	-12.5954
▁hoynaaɗo	-12.5955
▁mortagol	-12.5955
▁kaccu	-12.5955
tooɗi	-12.5956
▁faɗɗee	-12.5956
▁tedduɗe	-12.5956
▁yettuɗo	-12.5957
▁ɓanngingol	-12.5957
▁Jarribor	-12.5957
▁ɗannini	-12.5957
▁weerti	-12.5957
▁jaggitugol	-12.5957
▁ewnal	-12.5958
▁ɗowugol	-12.5958
▁duumal	-12.5958
▁sunnugol	-12.5959
▁sujjane	-12.5959
▁ooñ	-12.5959
▁aret	-12.5959
▁jaɓɓoyto	-12.596
reft	-12.5961
▁ndefu	-12.5961
▁jilɓ	-12.5961
▁hottollo	-12.5961
▁sortoo	-12.5963
▁iwloto	-12.5963
▁mammba	-12.5963
▁ilaynd	-12.5963
▁firtagol	-12.5964
▁mbertu	-12.5965
▁ɗomɗ	-12.5965
jje	-12.5965
▁humammbinnee	-12.5966
▁ɓannginɗo	-12.5967
él	-12.5967
▁hiitino	-12.5967
▁Ɓeydan	-12.5967
wiye	-12.5968
▁taarii	-12.5968
kkitaare	-12.5968
▁Danko	-12.5969
irbin	-12.5969
▁hoɗere	-12.5969
Jalki	-12.597
▁faljiniraynoo	-12.5971
▁Haforo	-12.5971
▁ŋaas	-12.5971
▁ayb	-12.5972
▁ɓannginnde	-12.5972
▁nyaawa	-12.5972
▁peññin	-12.5972
▁lorrugol	-12.5972
▁ñif	-12.5972
▁ƴentiniraa	-12.5973
▁aaƴoo	-12.5974
▁Wallitotoo	-12.5975
▁peese	-12.5975
▁woodndiri	-12.5976
▁bugortee	-12.5977
inaare	-12.5977
▁ŋabb	-12.5979
▁yerondiraa	-12.5979
▁manngol	-12.5979
▁goongunde	-12.598
▁wurtaynoo	-12.598
▁heyɗintinaa	-12.5981
▁lee	-12.5981
▁njannge	-12.5981
▁ɓilla	-12.5981
▁okkitira	-12.5982
▁Nafataa	-12.5982
▁ruttata	-12.5983
▁tagata	-12.5983
▁wancina	-12.5983
huda	-12.5984
▁duŋii	-12.5985
▁faggitori	-12.5985
taho	-12.5986
▁denn	-12.5986
▁accuno	-12.5988
ateeri	-12.5988
tirana	-12.5988
awral	-12.5988
▁xa	-12.5988
▁wintotaako	-12.599
▁faabotooɓe	-12.599
▁Fillan	-12.599
▁manngo	-12.5991
▁mooɓindiraa	-12.5991
▁majjaaɓe	-12.5992
▁tawtoy	-12.5993
▁humpitugol	-12.5993
▁fatuɗa	-12.5993
▁faaɗuɗo	-12.5993
▁ƴawugol	-12.5994
▁uuyung	-12.5994
▁mbile	-12.5995
▁jaggitant	-12.5995
▁mooɓindiroyte	-12.5996
▁Eliy	-12.5996
ruɓe	-12.5997
▁luubor	-12.5997
▁ɗayɗo	-12.5997
▁ndanndi	-12.5999
▁nangir	-12.5999
▁mbaylit	-12.5999
▁duɓɓe	-12.6001
▁muncaa	-12.6001
▁Ge	-12.6002
▁soccondir	-12.6002
▁Wennj	-12.6002
▁caatngol	-12.6003
▁duŋanaade	-12.6004
▁molto	-12.6005
▁tinayno	-12.6005
▁bis	-12.6005
▁haɓude	-12.6005
?...	-12.6006
▁ranewo	-12.6006
▁giteeɓe	-12.6007
▁toori	-12.6008
▁potndaa	-12.6008
tirte	-12.6009
▁golleteeɗo	-12.601
ttagol	-12.601
▁yarlondir	-12.6011
anñana	-12.6011
▁bonnoowo	-12.6011
▁daaloyanke	-12.6011
▁Faand	-12.6011
▁seedoytoo	-12.6013
▁haawet	-12.6013
▁piyira	-12.6013
▁hollirte	-12.6014
▁Subbunhin	-12.6014
yatiim	-12.6015
fuña	-12.6016
qut	-12.6016
▁ŋalɗude	-12.6017
▁anndinnoo	-12.6017
▁hommb	-12.6017
▁toroyto	-12.6017
▁jokkondirɗi	-12.6017
loosi	-12.6017
▁horm	-12.6018
▁wiɗto	-12.6018
▁maapin	-12.602
▁majjooɓe	-12.602
▁yirbu	-12.6021
▁beere	-12.6022
wel	-12.6023
▁weema	-12.6024
▁sikkitoo	-12.6024
▁paggiti	-12.6025
▁ɗeɗɗi	-12.6025
▁yannkin	-12.6025
▁wennjondira	-12.6026
▁cattuɗi	-12.6026
▁ɓannan	-12.6026
▁ñaawugol	-12.6027
▁iwroyay	-12.6027
▁faaso	-12.6028
aɗum	-12.6029
▁Loot	-12.6029
▁tut	-12.603
▁lewndu	-12.603
▁jalkitde	-12.6031
▁muusude	-12.6031
▁juɗaaɗe	-12.6032
ntere	-12.6032
Dakmitir	-12.6032
▁aaƴino	-12.6032
▁fuɗɗaade	-12.6037
▁sabb	-12.6039
▁kuljira	-12.6039
▁ɗuurni	-12.6039
▁welaɗon	-12.604
▁seeɗaaji	-12.6041
▁nduttee	-12.6041
▁peewnat	-12.6041
▁maayoowo	-12.6043
▁Beyt	-12.6044
▁fef	-12.6044
▁hiɓɓ	-12.6045
▁yawit	-12.6045
▁aɲindir	-12.6046
▁ƴeewa	-12.6047
▁keblaa	-12.6048
▁naayii	-12.6049
ngantinagol	-12.6049
▁tuubgol	-12.6049
▁ñaakii	-12.605
▁linngii	-12.6052
▁miijito	-12.6052
abuya	-12.6053
▁fefindoo	-12.6053
ndintini	-12.6053
awnungo	-12.6054
▁fensitude	-12.6055
▁warirte	-12.6055
▁heddodu	-12.6055
▁nafaani	-12.6056
indiree	-12.6056
▁dakmu	-12.6058
▁tataɓo	-12.6058
▁ɓulay	-12.6059
▁arduno	-12.6059
as	-12.606
yanko	-12.606
▁halkike	-12.606
▁fokkituɗo	-12.6062
▁kutub	-12.6062
▁hecci	-12.6063
siwram	-12.6063
▁naam	-12.6064
opag	-12.6064
▁yeƴƴito	-12.6064
▁Ɗaɗ	-12.6064
▁humpitu	-12.6065
▁bok	-12.6067
▁Fecc	-12.6068
▁ceek	-12.6069
▁labaaɗo	-12.6069
rba	-12.607
▁warunoo	-12.6071
▁Aarabee	-12.6071
▁ndayginana	-12.6072
▁yewtidaynoo	-12.6072
▁ndeeyd	-12.6074
▁buumayn	-12.6074
▁Ɓanngu	-12.6075
awdi	-12.6076
arñite	-12.6076
▁tampay	-12.6079
owdi	-12.6079
asliij	-12.608
▁ɓittinayno	-12.608
ruus	-12.6081
▁Abi	-12.6081
▁waado	-12.6084
Rewe	-12.6084
▁eggi	-12.6086
uluuj	-12.6086
▁ɓadani	-12.6088
ap	-12.6088
▁fensitan	-12.6088
aatunnde	-12.609
▁firlitor	-12.609
▁bewaa	-12.609
▁yoɓirtee	-12.609
▁jertingol	-12.6092
▁fussa	-12.6094
▁jiiɓindir	-12.6095
▁sakkatii	-12.6095
▁didiraa	-12.6095
ƴirta	-12.6095
yaltirngol	-12.6096
▁wac	-12.6096
▁jonnitu	-12.6097
▁goongaare	-12.6097
uɓɓaynge	-12.6099
▁halkiiɓe	-12.6099
Nennitana	-12.6099
▁halketee	-12.61
butaali	-12.61
▁naayan	-12.61
▁Hunnan	-12.6101
ɗaanii	-12.6101
▁bakko	-12.6101
▁foɗɗ	-12.6103
▁ngoopata	-12.6107
▁juulɗo	-12.6107
▁-"	-12.6107
isiyee	-12.6108
▁kallaa	-12.6108
▁suw	-12.6108
▁feeɲa	-12.6111
▁roŋk	-12.6111
▁Ƴaw	-12.6112
▁kunndu	-12.6112
▁ahod	-12.6115
▁konuuli	-12.6115
▁ƴagg	-12.6117
nennintin	-12.6117
elo	-12.6117
▁suuɗiiɗi	-12.6118
▁danndal	-12.6118
▁jalbude	-12.6118
▁Jertin	-12.6118
fergit	-12.6118
▁fadd	-12.6118
▁Haaju	-12.6119
▁gollunooɓe	-12.612
▁montor	-12.6121
▁Moƴƴin	-12.6121
▁Sey	-12.6122
▁seekoto	-12.6123
ditu	-12.6123
▁Faabo	-12.6123
▁caga	-12.6123
▁mberl	-12.6124
▁jokkoyay	-12.6125
diire	-12.6126
▁wuɗɗir	-12.6126
▁sattinir	-12.6126
goro	-12.6128
erjo	-12.6129
▁eltii	-12.6129
▁laawo	-12.6129
▁timmundi	-12.613
▁torotonoo	-12.613
▁mawnuɗo	-12.613
▁Ɲaam	-12.613
▁ɲaamidaynoo	-12.613
▁Mah	-12.613
▁ten	-12.6132
▁ɓaŋngin	-12.6132
▁peewon	-12.6133
aabudda	-12.6135
yngu	-12.6135
▁gomɗinnooɓe	-12.6137
▁yeewuɗ	-12.6138
▁gacca	-12.6139
▁Newinanaa	-12.6139
▁nafqa	-12.6141
▁yanunoo	-12.6142
▁meeɗen	-12.6143
▁majii	-12.6144
▁buroy	-12.6145
▁ŋaaɓ	-12.6145
▁Nelaa	-12.6146
▁heñora	-12.6146
▁dilliniraa	-12.6147
▁nennani	-12.6147
▁wattod	-12.6147
▁ŋannan	-12.6147
Jagg	-12.6148
▁Jaŋta	-12.6148
▁hiwrondir	-12.6148
▁moƴƴintinir	-12.6149
Israa	-12.6149
▁kappe	-12.615
▁janngaynoo	-12.6151
▁golliraynoo	-12.6154
▁Wuurɗo	-12.6154
▁lombi	-12.6154
▁sammin	-12.6154
▁mahaaɗ	-12.6155
▁kalin	-12.6156
iranhun	-12.6157
▁coowo	-12.6157
▁tiiɗnod	-12.6157
▁wurnitid	-12.6158
▁Ib	-12.6159
▁rawna	-12.6163
▁alyahuudaa	-12.6164
ake	-12.6165
yonii	-12.6166
▁bol	-12.6166
▁murtannoo	-12.6167
▁rajmete	-12.6167
waɗon	-12.6171
▁huɓɓuɗ	-12.6171
▁sowondir	-12.6172
nornoo	-12.6174
▁yewtay	-12.6174
▁muloy	-12.6174
ittugol	-12.6174
▁rawninaa	-12.6174
yoolagol	-12.6176
▁moftataa	-12.6176
▁waylitoto	-12.6177
▁fakko	-12.6178
▁kippug	-12.6179
▁gomɗinira	-12.6181
▁toŋuɗ	-12.6181
▁yaltirde	-12.6181
▁liw	-12.6182
▁limo	-12.6182
▁sada	-12.6183
▁ñii	-12.6183
▁yamirtaa	-12.6183
▁coodir	-12.6184
▁Tasko	-12.6189
▁mbulla	-12.619
▁jaaw	-12.6191
▁Acca	-12.6191
▁meha	-12.6193
▁haasbe	-12.6193
anduɗo	-12.6193
▁ardirannoo	-12.6194
ux	-12.6194
▁ɓonnd	-12.6195
▁hawniin	-12.6197
▁gadan	-12.6198
▁waɗɗiiɓe	-12.6199
bugol	-12.62
▁timminoy	-12.6201
▁bah	-12.6202
▁cinnd	-12.6202
▁ngadda	-12.6205
▁tolna	-12.6205
▁nanngay	-12.6205
▁bugaade	-12.6206
▁lelli	-12.6207
▁bonnitir	-12.6212
idoye	-12.6212
▁Jango	-12.6212
▁ƴoogir	-12.6213
▁cikkiti	-12.6213
ɓɗ	-12.6214
fsa	-12.6215
▁Baara	-12.6215
▁rerɗii	-12.6216
▁waɗɗoto	-12.6218
▁por	-12.6218
▁Wowl	-12.6219
wdii	-12.6222
▁Waajor	-12.6222
▁Feññinan	-12.6222
▁tuug	-12.6223
▁cum	-12.6224
alɗi	-12.6225
▁Selu	-12.6225
▁aadaa	-12.6225
▁jogo	-12.6225
▁Habbitee	-12.6225
majji	-12.6227
▁fontaaɗ	-12.6227
▁immintinteeɓe	-12.6228
▁jattu	-12.6229
▁seppay	-12.6233
▁hirsetee	-12.6233
▁yaggina	-12.6234
▁wonanoyt	-12.6235
▁rentinir	-12.6235
▁Ɲawndo	-12.6236
▁yottinoy	-12.6237
ŋtor	-12.6238
▁ɓadoo	-12.6238
▁mballa	-12.624
▁runtiima	-12.6242
▁ɓattin	-12.6242
▁ngenndu	-12.6243
▁binnga	-12.6244
▁wojjin	-12.6244
▁Ur	-12.6244
▁Wewlin	-12.6244
▁yoɓirte	-12.6244
▁kaɗoowo	-12.6245
▁Tam	-12.6246
Ndiyam	-12.6247
▁wallude	-12.6248
anngiri	-12.6248
▁tuti	-12.6249
▁fillan	-12.6249
▁hebl	-12.6249
▁soñaa	-12.6249
▁Tol	-12.6249
▁ɓattaate	-12.625
▁salligii	-12.6251
▁weeɓitoran	-12.6251
▁kaawase	-12.6253
▁heef	-12.6254
▁Sellin	-12.6255
▁ɓittorɗo	-12.6256
▁kaalana	-12.6256
▁Addoy	-12.6259
uto	-12.626
▁maapii	-12.626
wuya	-12.626
▁Sunnin	-12.6261
▁faggii	-12.6263
▁nanditayn	-12.6264
▁toony	-12.6265
ilaasi	-12.6269
sewee	-12.6271
▁piɓt	-12.6273
▁ñammina	-12.6274
▁suran	-12.6276
▁Sal	-12.6277
▁Harminan	-12.6277
▁Hawri	-12.6278
▁woɗɗitiinde	-12.6278
▁yooruɗi	-12.6279
▁hoyɗo	-12.6281
wen	-12.6282
▁noddeteno	-12.6282
Maa	-12.6282
▁ɲaamir	-12.6285
▁habbitan	-12.6285
▁furo	-12.6286
lajo	-12.6289
mmbi	-12.6289
▁ɗaana	-12.6291
▁weertu	-12.6293
▁ƴenti	-12.6294
▁wipp	-12.6295
ayniiɓe	-12.6296
▁ooñor	-12.6297
kaango	-12.6297
uggu	-12.6301
▁laba	-12.6303
▁saggit	-12.6304
▁wattitan	-12.6304
ati	-12.6305
▁hattanɓe	-12.6308
ltegol	-12.631
▁feron	-12.6311
▁tawir	-12.6311
tenoo	-12.6311
▁roondii	-12.6312
▁fottaynoo	-12.6312
▁hiima	-12.6313
▁waroy	-12.6316
▁waylitu	-12.632
ññina	-12.6324
▁aybini	-12.6326
▁iirin	-12.6328
liwal	-12.6328
nateeɗo	-12.6328
▁carii	-12.633
▁kafidii	-12.6331
▁fawt	-12.6331
▁moƴ	-12.6335
▁tuubay	-12.6338
koyɗe	-12.6338
▁takke	-12.6341
▁juhir	-12.6343
▁aamin	-12.6343
▁ndapp	-12.6343
▁gomɗim	-12.6343
▁ɓittii	-12.6345
▁haaniina	-12.6345
fiɗay	-12.6345
▁ŋarɗi	-12.6346
▁kafu	-12.6347
▁dañata	-12.6349
afata	-12.6349
▁finaa	-12.6354
▁ɗalii	-12.6355
goroore	-12.6356
▁newor	-12.6357
▁saafaa	-12.6358
▁tekkuɗ	-12.6358
▁ronndotooɗ	-12.6359
▁nanditir	-12.636
wataa	-12.6362
▁nokkure	-12.6363
ndeeydat	-12.6365
▁ɲiiɓin	-12.6366
▁didir	-12.6366
▁jiccino	-12.6366
▁wattiti	-12.6367
▁landotonoo	-12.6367
kurtu	-12.6367
▁muynuɗ	-12.6367
▁yiltitoyi	-12.6368
▁tellii	-12.6368
▁fennude	-12.6369
▁hulɓina	-12.6369
uri	-12.637
▁Waɗtin	-12.637
▁woopi	-12.6372
▁sowanoyte	-12.6378
▁okkoyta	-12.6378
▁nangannoo	-12.6378
▁beltiiɗ	-12.6379
▁neem	-12.6381
▁fawondirnd	-12.6381
▁fiilto	-12.6381
▁yamirɗon	-12.6381
▁bewir	-12.6382
arata	-12.6383
▁Seer	-12.6383
▁imminoyte	-12.6384
iniraa	-12.6392
ituɗo	-12.6392
▁ceerii	-12.6393
epandii	-12.6395
▁feera	-12.6395
▁nafqee	-12.6396
▁njalt	-12.6397
▁tuunu	-12.6399
Yiltee	-12.64
▁anndaaɗi	-12.6401
▁Saaki	-12.6403
▁hoyde	-12.6404
ndoore	-12.6406
▁ndunngu	-12.6407
▁tuunintino	-12.6408
▁ɗuurii	-12.6411
bakkalii	-12.6412
▁lamminir	-12.6412
▁yanganii	-12.6414
Dogu	-12.6414
▁feetu	-12.6415
▁eɓɓiino	-12.6416
reweteendi	-12.6416
▁meeɗaa	-12.6416
▁foolaa	-12.6417
▁tiwe	-12.6418
Ba	-12.6418
▁jogortee	-12.642
▁Wirn	-12.6421
Saar	-12.6422
▁Nenni	-12.6423
▁firlitir	-12.6425
▁laamodoya	-12.6425
▁ƴellitii	-12.6427
▁nafoda	-12.6431
inkino	-12.6431
ondirane	-12.6432
▁ñawlii	-12.6437
▁baj	-12.6438
▁Wer	-12.6438
▁ceerndata	-12.6439
▁Miij	-12.6439
▁ɓillin	-12.6442
▁simoore	-12.6444
▁Hal	-12.6446
▁kawru	-12.6446
▁Moƴƴe	-12.6446
▁Daaloyt	-12.6449
▁hayrude	-12.6449
▁awƴi	-12.645
▁daakinoo	-12.6467
notaako	-12.6467
weltanir	-12.6468
[...]
