<unk>	0
<s>	0
</s>	0
'	-3.22226
▁,	-3.41447
▁de	-3.72202
▁et	-3.78804
,	-3.97406
▁.	-4.05088
▁la	-4.13773
s	-4.22472
.	-4.23996
▁le	-4.2457
▁les	-4.36047
▁qui	-4.38757
▁vous	-4.43993
-	-4.48021
▁à	-4.49023
▁que	-4.53974
▁l	-4.73406
▁«	-4.75942
▁d	-4.78828
▁	-4.79032
▁pas	-4.79946
▁ne	-4.89151
▁en	-4.93239
▁qu	-4.95223
▁des	-4.97958
▁a	-5.00593
▁est	-5.08255
▁Il	-5.08856
▁dans	-5.1465
▁pour	-5.19895
▁ce	-5.20721
▁un	-5.23246
▁Et	-5.32847
▁il	-5.34475
est	-5.36483
▁:	-5.40255
▁n	-5.41498
▁lui	-5.45063
▁»	-5.45467
▁leur	-5.46045
▁du	-5.46207
▁nous	-5.5187
:	-5.52568
▁Allah	-5.62588
▁ils	-5.64767
▁dit	-5.66131
▁une	-5.66944
il	-5.67295
▁se	-5.67338
▁s	-5.69229
▁Seigneur	-5.72578
▁ceux	-5.72842
▁je	-5.73643
▁par	-5.73938
▁Nous	-5.75372
▁sur	-5.82838
;	-5.83092
ils	-5.84361
▁au	-5.84501
▁Dieu	-5.84879
▁avec	-5.88003
▁sont	-5.95492
a	-5.99091
e	-6.01295
Allah	-6.03032
▁[	-6.03869
▁mais	-6.06038
▁Mais	-6.07513
▁?	-6.12828
t	-6.15174
▁comme	-6.1546
▁donc	-6.16495
▁Jésus	-6.17188
▁(	-6.17568
▁eux	-6.18066
!	-6.21324
▁fait	-6.22104
▁son	-6.22796
».	-6.27928
nt	-6.29859
▁ont	-6.31928
un	-6.32464
▁tu	-6.32636
▁si	-6.32701
]	-6.34688
▁c	-6.35217
▁C	-6.35899
▁été	-6.37322
▁sa	-6.38523
▁aux	-6.40773
▁celui	-6.42239
▁leurs	-6.42279
▁plus	-6.42308
▁Car	-6.43191
ont	-6.4375
▁terre	-6.44599
▁car	-6.44604
▁bien	-6.46742
vous	-6.47753
fin	-6.48961
?	-6.49144
▁y	-6.51039
▁Je	-6.53775
ent	-6.53838
▁votre	-6.58515
▁avons	-6.58739
▁tout	-6.58969
▁gens	-6.59287
▁jour	-6.60781
▁tous	-6.60812
▁aussi	-6.63468
▁Le	-6.63523
▁t	-6.64496
èrent	-6.65089
)	-6.69637
▁ou	-6.70925
▁moi	-6.7139
ai	-6.72914
▁choses	-6.74797
▁ses	-6.75017
en	-6.75095
▁ni	-6.75142
▁Lui	-6.75934
▁mon	-6.76947
▁sera	-6.7974
▁alors	-6.82367
▁quand	-6.82422
▁était	-6.82653
ez	-6.83585
▁m	-6.84081
es	-6.84437
▁ton	-6.85592
▁cela	-6.88654
▁te	-6.88659
ant	-6.90723
▁où	-6.9091
▁vérité	-6.92396
▁vos	-6.92551
on	-6.94739
▁toute	-6.95013
ons	-6.95757
▁me	-6.96675
▁Si	-6.97107
▁même	-6.97129
▁contre	-6.97229
é	-6.97947
▁avait	-6.98357
▁!	-7.01743
▁suis	-7.02903
▁vers	-7.03039
à	-7.03338
▁parmi	-7.043
▁toi	-7.04713
▁vie	-7.05674
▁soit	-7.05986
▁ainsi	-7.06441
aient	-7.07806
une	-7.08154
▁Les	-7.08399
▁notre	-7.10182
▁deux	-7.11498
y	-7.12263
ait	-7.12893
▁elle	-7.14687
▁j	-7.15269
▁avez	-7.16288
▁A	-7.16302
▁sans	-7.16319
▁ces	-7.16711
ce	-7.17609
▁homme	-7.17826
le	-7.17888
là	-7.17923
▁châtiment	-7.1885
▁peuple	-7.1912
▁Ne	-7.20388
▁dirent	-7.21048
▁hommes	-7.22304
▁certes	-7.22759
d	-7.22987
▁foi	-7.23011
▁faire	-7.23365
Il	-7.25981
▁là	-7.26307
r	-7.27072
▁étaient	-7.29839
▁Christ	-7.30024
▁seront	-7.30791
▁parole	-7.30797
▁ciel	-7.33016
it	-7.33047
homme	-7.33229
▁Que	-7.3363
▁fils	-7.34249
▁être	-7.34709
▁En	-7.35539
▁dis	-7.35866
▁après	-7.3659
▁Dis	-7.3669
▁jusqu	-7.36866
▁devant	-7.38056
▁Puis	-7.381
▁part	-7.39112
entre	-7.39255
▁disant	-7.40047
▁autres	-7.40392
▁êtes	-7.40622
▁mort	-7.41104
▁Ceux	-7.42219
eux	-7.43584
▁cieux	-7.43758
▁donné	-7.43889
er	-7.44249
▁Vous	-7.44707
cette	-7.44968
tu	-7.45116
?»	-7.45194
▁rien	-7.45871
▁grand	-7.46224
▁Tu	-7.46725
même	-7.47238
▁Père	-7.48011
▁monde	-7.49236
▁La	-7.49494
▁fut	-7.49715
▁L	-7.50449
▁non	-7.52609
ment	-7.5262
▁selon	-7.53332
▁on	-7.55334
elle	-7.55446
▁Ce	-7.55797
▁Celui	-7.56147
▁point	-7.56585
▁S	-7.56796
▁croient	-7.56878
▁O	-7.57078
▁Or	-7.57418
▁toutes	-7.57757
▁disciples	-7.57844
▁grâce	-7.58058
au	-7.58556
z	-7.59644
Christ	-7.60665
Esprit	-7.61256
▁entre	-7.61439
▁avant	-7.61686
▁pourquoi	-7.61825
▁maison	-7.61867
▁frères	-7.61923
▁croyants	-7.62014
▁Alors	-7.62252
▁descendre	-7.63546
▁avoir	-7.63614
les	-7.64215
▁femme	-7.64446
▁enfants	-7.64572
▁cause	-7.64862
▁nom	-7.64896
▁-	-7.64941
▁encore	-7.65293
▁chose	-7.66177
▁Comme	-7.66468
▁No	-7.66633
▁autre	-7.67436
▁Livre	-7.67514
▁ma	-7.67813
▁personne	-7.68438
▁ta	-7.68691
▁Moïse	-7.69048
▁loi	-7.69141
▁beaucoup	-7.6927
▁veut	-7.69294
▁parce	-7.6975
▁P	-7.70446
▁chemin	-7.70899
▁Lorsqu	-7.70951
nous	-7.71303
ci	-7.72296
mêmes	-7.73374
▁J	-7.74044
▁grande	-7.75075
▁puis	-7.75283
▁sommes	-7.75897
▁œuvres	-7.76219
▁quiconque	-7.77827
as	-7.77986
O	-7.79207
▁Fil	-7.79268
de	-7.7931
▁Sa	-7.79639
près	-7.79858
▁peut	-7.80035
▁N	-7.8004
iez	-7.80683
▁père	-7.80718
▁propre	-7.81343
▁cru	-7.81492
▁Son	-7.81739
▁jamais	-7.81875
▁temps	-7.82452
▁mal	-7.82533
avons	-7.82627
▁Quan	-7.8268
▁disent	-7.83226
Nous	-7.83426
▁bonne	-7.83818
▁répondit	-7.84511
▁miséricorde	-7.85569
▁faites	-7.86421
▁Juifs	-7.86786
▁mes	-7.87629
▁avaient	-7.87662
▁fois	-7.87975
être	-7.88168
Voici	-7.88422
▁quelqu	-7.89245
▁gloire	-7.89943
▁foule	-7.90472
▁nombre	-7.90488
▁aura	-7.90564
▁frère	-7.91548
▁jours	-7.9171
▁Qu	-7.92046
▁péché	-7.92097
▁f	-7.92299
▁nos	-7.92518
▁cœur	-7.92687
▁envoyé	-7.92771
▁Miséricordieux	-7.92788
▁corps	-7.92796
▁seul	-7.93126
▁venu	-7.93157
▁nuit	-7.94538
▁vient	-7.94765
▁effet	-7.94768
irent	-7.9526
▁lorsque	-7.95528
▁morts	-7.96688
▁fais	-7.96981
▁injustes	-7.97804
▁yeux	-7.97954
▁aucun	-7.97976
▁ville	-7.98092
▁Tout	-7.98255
▁elles	-7.98432
la	-7.99238
▁chair	-7.99334
▁sujet	-7.99337
▁cœurs	-7.99451
▁dehors	-7.99666
▁main	-7.99756
▁vu	-7.99883
▁Paul	-7.99949
▁quelque	-8.0117
i	-8.01604
▁serviteurs	-8.02131
▁vraiment	-8.02492
toi	-8.0268
▁donne	-8.03332
▁es	-8.0343
▁maintenant	-8.0376
▁D	-8.03777
autres	-8.03831
quel	-8.03937
autre	-8.04147
était	-8.05193
▁sous	-8.05523
▁dire	-8.05529
▁De	-8.05853
▁Coran	-8.06389
▁récompense	-8.072
▁Pierre	-8.07845
avez	-8.08106
▁mécréants	-8.08454
moi	-8.08926
).	-8.09976
▁mains	-8.10425
!»	-8.11105
▁écrit	-8.11318
▁Jérusalem	-8.11769
▁soyez	-8.11803
▁droit	-8.12353
▁paroles	-8.12494
eau	-8.12742
▁bon	-8.1303
▁Après	-8.13276
▁mère	-8.13576
▁uns	-8.14254
▁mer	-8.16691
▁Jour	-8.16775
▁voix	-8.16787
▁lieu	-8.17477
▁femmes	-8.17491
▁ayant	-8.17551
▁Jean	-8.17571
▁font	-8.17762
l	-8.17839
▁reçu	-8.1816
.»	-8.19777
rès	-8.20471
▁Ainsi	-8.2057
▁feu	-8.20591
ne	-8.20601
▁envers	-8.2071
▁Messager	-8.20825
▁créé	-8.2153
▁guide	-8.22615
▁puissance	-8.22814
▁lumière	-8.22829
▁versets	-8.22873
▁Se	-8.23068
▁lorsqu	-8.2388
▁auront	-8.24341
▁aucune	-8.24528
▁bonnes	-8.24681
▁Un	-8.25281
▁témoignage	-8.25656
▁sortir	-8.25902
▁seulement	-8.2607
▁Ou	-8.26844
▁péchés	-8.26938
▁chaque	-8.27628
▁chez	-8.27949
▁nouveau	-8.28411
▁justice	-8.28424
▁venir	-8.28514
].	-8.28622
▁ai	-8.29212
▁chacun	-8.29238
▁comment	-8.29268
▁pendant	-8.2932
▁demeure	-8.29383
▁serez	-8.29555
▁voilà	-8.30081
▁sang	-8.30245
▁Voilà	-8.30546
delà	-8.30711
▁peu	-8.30947
▁voici	-8.30947
▁sept	-8.30953
elles	-8.31689
▁temple	-8.31768
),	-8.32368
▁as	-8.32537
Israël	-8.32576
▁serviteur	-8.33066
▁entendu	-8.33423
▁esprit	-8.33808
▁Certes	-8.33825
tre	-8.33848
▁voir	-8.33867
▁mensonge	-8.33997
...	-8.34238
▁certainement	-8.34377
▁rend	-8.34799
n	-8.35227
▁paix	-8.35261
▁Elle	-8.35371
▁prophètes	-8.35396
▁messager	-8.35769
▁ici	-8.35807
▁soient	-8.36185
▁fit	-8.36397
▁partie	-8.36564
▁quoi	-8.36572
▁vint	-8.36664
▁connaît	-8.38395
▁eut	-8.38706
▁déjà	-8.3881
▁trois	-8.38853
▁biens	-8.39899
▁Saint	-8.40656
je	-8.40798
▁étant	-8.41195
▁pieds	-8.41792
],	-8.4214
▁tes	-8.42625
▁signes	-8.43545
▁prêtre	-8.43602
▁Pourquoi	-8.43935
quelle	-8.44436
îmes	-8.44732
▁va	-8.44921
▁fera	-8.45451
▁sorti	-8.45723
▁Feu	-8.4646
▁savez	-8.47077
▁Quiconque	-8.47431
▁dira	-8.47542
▁pharisien	-8.48384
ation	-8.48427
▁peur	-8.4862
▁révélé	-8.48873
Je	-8.48905
▁nouvelle	-8.49149
x	-8.4962
▁sait	-8.50351
▁roi	-8.50528
▁place	-8.50545
▁T	-8.50597
▁prit	-8.50889
▁sais	-8.51015
rent	-8.51139
leur	-8.51166
▁porte	-8.51284
▁Qui	-8.51318
Enfer	-8.51412
▁Royaume	-8.51443
▁Pardonneur	-8.51447
▁mieux	-8.52533
▁cet	-8.52558
▁diront	-8.52654
andis	-8.52674
âmes	-8.52709
▁Par	-8.52754
▁promesse	-8.53336
▁pouvoir	-8.53541
▁vit	-8.53992
▁maître	-8.54157
▁pris	-8.54261
▁assis	-8.54583
▁plutôt	-8.546
▁Mon	-8.55214
▁prophète	-8.55512
▁pays	-8.55621
ions	-8.56648
▁religion	-8.56765
▁pieux	-8.56794
▁mauvais	-8.57145
ement	-8.57512
▁preuves	-8.57832
▁Nouvelle	-8.57863
▁Sage	-8.57877
ient	-8.57935
▁Abraham	-8.58272
avoir	-8.58317
▁rendu	-8.58956
▁appelé	-8.59071
▁Marie	-8.5919
▁Puissant	-8.59227
▁messagers	-8.59448
▁don	-8.6001
vinrent	-8.6031
▁M	-8.60819
▁meilleur	-8.61083
▁divinité	-8.61129
▁toujours	-8.6126
▁jugement	-8.61269
▁garde	-8.61468
▁crainte	-8.61489
▁droite	-8.61677
ux	-8.61701
▁quelques	-8.62851
▁savoir	-8.62871
▁trouvé	-8.63233
in	-8.63678
▁nation	-8.64166
▁livre	-8.64371
▁Omniscient	-8.64437
▁anges	-8.64459
ès	-8.64497
▁premier	-8.64642
▁connaissance	-8.64677
»	-8.64698
▁enfant	-8.64826
▁signe	-8.65006
▁quelle	-8.65566
▁milieu	-8.65911
▁Anges	-8.6619
▁Pharaon	-8.66195
▁sois	-8.66501
▁sort	-8.6669
▁voie	-8.67029
▁douze	-8.67136
▁éternellement	-8.67177
▁parler	-8.67406
▁celle	-8.68174
▁Bon	-8.68235
hui	-8.68405
▁pardon	-8.68946
ion	-8.68979
▁mis	-8.6898
▁saints	-8.69068
▁manger	-8.69473
▁soleil	-8.69569
▁païens	-8.69601
▁voyant	-8.69708
▁viendra	-8.69823
ra	-8.70745
▁sentier	-8.70826
▁alla	-8.70837
▁On	-8.71785
u	-8.71935
▁heure	-8.7207
▁joie	-8.7209
▁commandement	-8.7211
amour	-8.7228
▁E	-8.72324
▁anciens	-8.72368
▁sorte	-8.7245
és	-8.72719
▁âme	-8.72788
A	-8.72815
▁appartient	-8.7318
▁bouche	-8.73241
que	-8.73421
▁tête	-8.73437
▁Salât	-8.7348
▁ensuite	-8.73941
▁entrer	-8.74342
▁dites	-8.7454
▁Simon	-8.74688
▁cependant	-8.74704
▁preuve	-8.74725
ront	-8.74841
▁pain	-8.74911
▁veux	-8.7492
▁digne	-8.75301
▁Moi	-8.75391
▁Une	-8.75745
▁royaume	-8.75981
▁ténèbres	-8.75983
▁croyez	-8.75993
▁sagesse	-8.75994
▁savent	-8.76017
▁colère	-8.77314
▁plupart	-8.77315
▁volonté	-8.77319
▁David	-8.77375
▁vais	-8.77389
▁trait	-8.78136
▁entra	-8.78333
▁juste	-8.7844
▁p	-8.78531
▁Résurrection	-8.78668
▁confiance	-8.78669
dessus	-8.78955
▁fure	-8.79868
▁mit	-8.79879
▁venue	-8.79967
▁douloureux	-8.80037
▁mécru	-8.80068
assemblée	-8.80857
ée	-8.80868
▁mourir	-8.81425
bas	-8.81473
▁fasse	-8.81515
▁doit	-8.81674
▁donna	-8.81889
▁siècle	-8.82831
▁sauf	-8.82852
▁craignez	-8.82852
»,	-8.82862
▁famille	-8.83005
▁eu	-8.83438
▁pères	-8.835
▁voulu	-8.83586
▁donner	-8.84007
▁synagogue	-8.84262
▁croit	-8.84309
▁ceci	-8.84471
▁trouve	-8.847
▁avions	-8.84818
▁petit	-8.85026
▁trône	-8.85711
▁création	-8.85744
▁Toi	-8.85782
us	-8.85915
▁demanda	-8.85933
▁re	-8.8717
▁Tous	-8.87384
▁semblable	-8.87397
▁rendre	-8.87567
▁quatre	-8.87574
▁fin	-8.87722
▁parle	-8.88264
▁Est	-8.88495
▁Très	-8.88744
▁proche	-8.88979
▁vois	-8.88997
aimé	-8.89043
▁force	-8.89225
▁leva	-8.89524
▁forte	-8.89528
▁fruits	-8.89924
▁mille	-8.90284
h	-8.90295
▁soumis	-8.90362
▁nourriture	-8.90432
▁fruit	-8.90449
▁Galilée	-8.90451
C	-8.90465
▁dernier	-8.90484
▁actions	-8.90836
or	-8.90895
▁vrai	-8.91039
▁présente	-8.91314
▁témoins	-8.91335
▁vivant	-8.91593
▁mari	-8.91854
▁disaient	-8.92095
▁auparavant	-8.92101
abord	-8.92569
▁savons	-8.93147
▁Diable	-8.93289
▁Paradis	-8.93324
▁entend	-8.93561
▁ressuscité	-8.93608
▁apôtres	-8.93685
▁vêtements	-8.93989
▁préparé	-8.94076
▁plein	-8.94096
▁faut	-8.94463
▁malheur	-8.948
▁scribes	-8.95059
▁Joseph	-8.95177
▁moment	-8.9522
▁juge	-8.9608
▁sinon	-8.96537
▁doute	-8.96618
▁depuis	-8.9679
esprit	-8.9746
▁devenu	-8.97539
lui	-8.97979
▁Maître	-8.98127
▁sabbat	-8.98128
▁plusieurs	-8.98138
▁B	-8.98318
▁trouv	-8.98347
▁donnera	-8.98491
▁pierre	-8.9852
▁tant	-8.98701
ici	-8.99637
▁manière	-8.99794
▁première	-8.99794
▁besoin	-9.00203
▁témoin	-9.00221
▁disait	-9.00296
▁Oui	-9.00481
Si	-9.00648
eur	-9.0072
Abraham	-9.00781
▁tort	-9.01095
▁rappel	-9.01342
▁éternelle	-9.01548
▁compte	-9.01622
▁associés	-9.01731
▁demeurer	-9.0176
▁vis	-9.01965
▁appelle	-9.02068
▁dos	-9.02181
▁Mes	-9.02798
▁personnes	-9.02812
▁Non	-9.03042
Seigneur	-9.03178
▁résurrection	-9.03214
▁debout	-9.03245
▁demande	-9.03329
▁nul	-9.03384
▁loin	-9.03743
eurent	-9.04313
▁créés	-9.04329
venant	-9.04736
▁appris	-9.05061
▁salut	-9.05083
▁terme	-9.05089
▁véridiques	-9.0537
▁bête	-9.05518
▁montagnes	-9.06167
▁fidèle	-9.06415
▁ans	-9.06608
▁Ensuite	-9.06756
▁bientôt	-9.06763
▁près	-9.06863
▁tué	-9.07103
▁langue	-9.07395
▁bienfaits	-9.07707
▁faveur	-9.09129
▁prière	-9.09178
avait	-9.0918
▁périr	-9.09191
▁moins	-9.09203
▁vin	-9.09362
▁mange	-9.09446
▁prison	-9.09492
▁désert	-9.10246
▁vienne	-9.1041
▁barque	-9.10428
▁face	-9.10706
▁Noé	-9.10859
▁coupe	-9.1097
▁démons	-9.11109
▁fur	-9.11199
▁ange	-9.113
et	-9.11507
▁quant	-9.1173
▁Au	-9.11784
▁vent	-9.1191
▁meilleure	-9.1221
▁Connaisseur	-9.1231
▁appelés	-9.12611
▁haut	-9.12655
uns	-9.12844
▁trouver	-9.13041
▁chefs	-9.13344
▁autorité	-9.13579
pour	-9.13766
▁connu	-9.14042
▁demand	-9.14155
▁ancêtres	-9.14278
▁retour	-9.14296
▁faux	-9.1432
Le	-9.14639
▁voient	-9.14675
▁voit	-9.14734
▁entendre	-9.14901
▁montagne	-9.14913
▁Ma	-9.15539
ujour	-9.15796
re	-9.16121
▁reste	-9.16175
▁secours	-9.16377
▁aussitôt	-9.16837
▁Malheur	-9.16945
▁mensonges	-9.17076
▁fille	-9.17137
▁pardonne	-9.17303
êtes	-9.17333
▁quel	-9.17334
aime	-9.17843
▁aime	-9.17931
▁œuvre	-9.18041
▁permission	-9.18194
▁troisième	-9.18195
▁piété	-9.18196
▁contraire	-9.18212
▁prendre	-9.18218
▁boire	-9.18221
▁atteint	-9.18693
aux	-9.18939
▁dix	-9.18988
▁cité	-9.20035
▁derrière	-9.20301
ussitôt	-9.20401
▁groupe	-9.20694
▁prie	-9.20738
▁tel	-9.20796
▁visage	-9.21045
▁celles	-9.2108
▁belle	-9.21158
enfant	-9.21259
▁aurait	-9.21507
Ne	-9.22081
▁)	-9.22115
▁mécréance	-9.22315
▁habitants	-9.2234
▁grâces	-9.2239
▁Cependant	-9.22419
▁infidèles	-9.22449
▁apporté	-9.22449
is	-9.22571
▁vue	-9.22708
▁mesure	-9.2318
▁trouva	-9.23199
ou	-9.23449
▁accompli	-9.23707
▁cherche	-9.23882
▁F	-9.23933
▁connais	-9.24337
ù	-9.24396
▁matin	-9.24422
▁cinq	-9.24509
▁pur	-9.24618
▁divinités	-9.24675
▁oreilles	-9.24691
▁faisons	-9.24703
dans	-9.24813
▁seule	-9.24952
▁interdit	-9.25171
▁communauté	-9.25315
▁nommé	-9.25316
▁descendu	-9.2539
▁certains	-9.25396
Ses	-9.2553
▁connaître	-9.25672
▁menteurs	-9.25688
▁descend	-9.25779
â	-9.25841
▁acquis	-9.26529
▁combat	-9.26537
▁Amen	-9.26579
▁César	-9.26613
▁mois	-9.26675
▁livré	-9.2695
▁sacrificateurs	-9.26953
▁arriva	-9.27138
▁circoncis	-9.2727
▁envoya	-9.27365
▁parabole	-9.27551
▁menteur	-9.27567
▁nulle	-9.28021
ange	-9.28046
▁saint	-9.28284
▁pervers	-9.28337
▁Quel	-9.28554
Muhammad	-9.28678
orgueil	-9.28809
▁reçoit	-9.2884
▁raison	-9.28864
▁hypocrites	-9.28892
▁parlé	-9.28949
▁service	-9.28952
▁reconnaissants	-9.29237
▁partir	-9.29496
▁serons	-9.29607
▁Cela	-9.29716
ette	-9.3047
▁Tel	-9.30567
▁Ta	-9.30585
▁repentir	-9.30967
ie	-9.30988
▁brebis	-9.31108
▁ruisseaux	-9.31111
▁croyons	-9.31118
▁Jacob	-9.31159
▁pu	-9.31263
▁établi	-9.31318
▁accomplissent	-9.3132
▁criminels	-9.31339
▁promis	-9.31679
▁passé	-9.31699
après	-9.32037
ayez	-9.32079
▁ait	-9.32132
▁côté	-9.32135
▁chef	-9.3225
▁lune	-9.32516
▁permis	-9.32725
étais	-9.32736
où	-9.33128
argent	-9.33131
▁rencontre	-9.33148
▁annonce	-9.33417
▁suffit	-9.33453
▁salaire	-9.33454
▁autour	-9.33454
▁amour	-9.33488
▁science	-9.33626
Heure	-9.33649
▁virent	-9.3371
▁co	-9.33781
univers	-9.34079
▁esclaves	-9.34177
▁énorme	-9.34243
▁égard	-9.34396
▁laisse	-9.34407
▁diable	-9.34556
▁avertisseur	-9.34797
▁maisons	-9.35306
▁Juda	-9.35582
▁Toute	-9.35663
▁Jacques	-9.35815
▁Prophète	-9.35815
▁Omnipotent	-9.35877
▁voyez	-9.35902
▁Jardins	-9.36026
▁fixé	-9.36157
▁annoncé	-9.36164
▁propos	-9.36173
▁soir	-9.36194
▁parents	-9.3626
▁ordre	-9.36409
▁envoyés	-9.36427
▁jardins	-9.3643
▁épouses	-9.36627
▁ennemi	-9.36701
▁venus	-9.36871
▁présent	-9.36878
▁viennent	-9.36936
▁louange	-9.36957
▁bienfait	-9.37048
▁ennemis	-9.37205
▁donnée	-9.38016
▁mauvaise	-9.38085
▁message	-9.38167
▁croire	-9.38246
▁parfaitement	-9.3834
▁descendance	-9.38357
▁Satan	-9.38604
▁jugé	-9.38645
▁étions	-9.38721
▁pauvres	-9.38952
▁marche	-9.3917
▁révélation	-9.39463
▁serait	-9.39942
▁arrivé	-9.39991
ur	-9.40042
▁mauvaises	-9.40106
tte	-9.40856
▁Philippe	-9.40879
▁âmes	-9.41042
▁élevé	-9.41141
ité	-9.41302
urent	-9.4147
▁repos	-9.41533
▁ordonna	-9.41628
▁traité	-9.41731
ine	-9.42382
▁grands	-9.42385
▁facile	-9.42426
▁jeté	-9.4285
▁Leur	-9.43108
▁allait	-9.43118
▁clairement	-9.43337
▁voulez	-9.43341
▁perdants	-9.43346
▁Maintenant	-9.43378
▁étiez	-9.43561
▁Pour	-9.43591
▁faisaient	-9.43642
▁façon	-9.43699
▁miracles	-9.43981
▁portes	-9.44083
▁pécheurs	-9.44146
▁fête	-9.4448
▁goûter	-9.44579
▁génération	-9.44788
▁faite	-9.45326
and	-9.45472
▁prêt	-9.45729
▁suivi	-9.45809
▁Peu	-9.45875
▁quarante	-9.45948
▁table	-9.45985
étaient	-9.45988
▁crains	-9.46006
▁capable	-9.46026
▁membre	-9.46051
▁parlait	-9.46089
▁assemblées	-9.46204
▁ferons	-9.46237
Ce	-9.46239
▁donnez	-9.46282
▁travail	-9.46802
▁guidés	-9.46963
te	-9.47119
▁libre	-9.47149
approch	-9.47163
▁pleine	-9.47194
▁eau	-9.47277
yant	-9.47287
▁béni	-9.47314
▁produit	-9.47322
▁demander	-9.47579
▁conseil	-9.47613
ate	-9.47867
▁vivants	-9.48241
doivent	-9.48442
m	-9.48491
▁refuge	-9.48649
▁répondirent	-9.48673
▁pouvez	-9.48681
▁peuvent	-9.48718
▁punition	-9.48778
▁Craignez	-9.48849
▁Allez	-9.48925
▁étoiles	-9.48956
appartient	-9.48972
▁égarés	-9.49251
▁dé	-9.4947
▁dur	-9.49504
▁accordé	-9.49507
▁alliés	-9.49818
▁convenable	-9.49907
▁Messagers	-9.50435
▁honte	-9.50854
heure	-9.51051
▁pains	-9.51321
▁second	-9.51437
▁commencement	-9.5145
▁combien	-9.51458
▁obéissez	-9.51513
▁commis	-9.51684
Vous	-9.51697
Soyez	-9.51818
▁fort	-9.51836
▁dois	-9.51995
ayant	-9.52076
▁Pil	-9.52425
eront	-9.52732
▁appela	-9.52758
Votre	-9.5282
▁agréable	-9.52891
▁malade	-9.53027
▁visages	-9.53168
▁voyage	-9.53198
▁langues	-9.53424
▁servir	-9.53647
▁conscience	-9.54298
▁apparu	-9.54408
▁associateurs	-9.54416
▁ensemble	-9.54447
▁guerre	-9.54561
▁soldats	-9.54611
ordre	-9.54667
Est	-9.54873
▁Nul	-9.54994
eth	-9.5508
▁pardonné	-9.55274
rez	-9.55542
▁jouissance	-9.55818
eurs	-9.55872
▁injuste	-9.56015
▁aimé	-9.56605
▁poussière	-9.57226
▁village	-9.57229
▁suivre	-9.5723
▁certitude	-9.57231
▁faim	-9.57254
▁perte	-9.57274
▁forme	-9.57319
▁détournent	-9.57344
▁bienfaisants	-9.57368
▁premiers	-9.57427
▁saisit	-9.5757
▁rempli	-9.5761
▁prodiges	-9.57646
▁cherchent	-9.57674
achant	-9.57706
▁dons	-9.57735
▁né	-9.57761
▁entier	-9.5797
▁prescrit	-9.58016
▁Hérod	-9.58036
▁évident	-9.5811
▁croyant	-9.58169
▁monta	-9.5852
▁vivre	-9.5882
▁délai	-9.58851
▁moyen	-9.58983
▁mettre	-9.59049
▁pire	-9.59094
▁fer	-9.5942
▁pierres	-9.59524
▁cent	-9.59898
▁petits	-9.59951
▁cri	-9.60025
▁commandements	-9.60238
▁prix	-9.60281
▁magie	-9.60303
▁arrivèrent	-9.60312
▁recevoir	-9.60325
œuvre	-9.6051
▁ramenés	-9.60611
approcha	-9.60749
▁demandent	-9.60892
Omniscient	-9.60897
▁ordonné	-9.61077
▁af	-9.61229
▁ferai	-9.613
▁aveugles	-9.61552
▁désir	-9.61636
avaient	-9.61642
▁ô	-9.6165
▁crucifié	-9.62015
entendi	-9.62081
▁disciple	-9.62091
▁cherch	-9.62177
▁voile	-9.62212
▁évidente	-9.62609
▁craint	-9.62637
▁accorde	-9.62812
▁met	-9.62833
▁montrer	-9.62917
▁Va	-9.62917
▁semblables	-9.6292
▁sauver	-9.63104
▁passer	-9.63158
▁unique	-9.63179
dire	-9.63197
Qu	-9.63256
▁pitié	-9.63377
▁mystère	-9.63379
▁mariage	-9.63388
▁tombeau	-9.63418
▁tomber	-9.63437
▁voulait	-9.6344
▁suivent	-9.63493
des	-9.63519
▁nombreux	-9.63525
▁tuer	-9.63549
lesquels	-9.63571
▁Prenez	-9.63607
▁cherchez	-9.63723
lendemain	-9.63747
▁séjour	-9.63814
faisant	-9.63872
▁con	-9.63933
▁Grand	-9.6407
▁présen	-9.64182
▁attribué	-9.64243
▁Enfant	-9.64372
▁appel	-9.64566
▁Des	-9.64825
udée	-9.64895
▁vêtement	-9.65319
▁pluie	-9.65383
▁touche	-9.65434
jour	-9.65678
▁Heureu	-9.6594
]:	-9.66293
prenez	-9.66588
▁Zakât	-9.66602
▁persévérance	-9.66609
du	-9.66662
▁justes	-9.6675
sachez	-9.66778
▁bord	-9.66784
▁étranger	-9.6689
▁charge	-9.67169
▁certain	-9.67282
▁maladie	-9.6737
espérance	-9.67535
▁rois	-9.67624
urs	-9.67779
▁concerne	-9.67799
▁tribu	-9.6784
▁malades	-9.68077
▁vigne	-9.68285
▁égarement	-9.68303
▁devait	-9.68386
▁demeures	-9.68582
▁secret	-9.68582
▁Telle	-9.68585
▁générations	-9.68594
▁protecteur	-9.68618
▁rappelle	-9.68631
▁filles	-9.68826
▁principa	-9.68902
▁démon	-9.68949
▁in	-9.68999
▁environ	-9.69047
▁placé	-9.69545
▁jeune	-9.69619
▁Lot	-9.69967
▁allèrent	-9.69999
▁mangez	-9.7002
▁ruse	-9.70177
▁puisque	-9.70433
▁faibles	-9.70822
ïe	-9.70863
▁parfait	-9.71036
▁égare	-9.7166
▁compagnon	-9.72104
▁lettre	-9.72127
▁jeta	-9.7235
ersonne	-9.72412
▁dessus	-9.72732
▁ferme	-9.72858
▁sauvé	-9.73093
▁porter	-9.73285
▁Barnab	-9.73384
▁croix	-9.73388
▁patience	-9.73392
▁tentation	-9.73402
▁longtemps	-9.73403
▁bonté	-9.73421
▁notables	-9.73465
▁Salomon	-9.7355
▁glorifié	-9.73589
▁crurent	-9.73608
):	-9.73623
tenait	-9.73705
▁gauche	-9.73898
▁élus	-9.741
▁idoles	-9.74145
▁richesses	-9.74244
aie	-9.74258
▁autant	-9.74393
▁pratique	-9.74398
autorité	-9.74514
intelligence	-9.74529
▁sauvés	-9.74709
▁œil	-9.74721
ulent	-9.7477
▁prier	-9.74817
▁aller	-9.74922
▁pri	-9.7497
▁veuve	-9.75127
hors	-9.75133
▁baptisé	-9.7573
▁donnerai	-9.75757
▁champ	-9.75995
▁v	-9.76252
▁pense	-9.76291
▁tomba	-9.76461
▁resta	-9.76698
▁vain	-9.76719
riez	-9.76806
▁lampe	-9.76948
▁navire	-9.76954
▁céleste	-9.76955
▁multitude	-9.76956
▁assigné	-9.76977
▁verront	-9.76982
▁commandé	-9.76982
▁engagement	-9.77078
▁glorifie	-9.77185
▁oiseaux	-9.77209
▁djinns	-9.77223
qui	-9.77266
▁villes	-9.77295
▁nuée	-9.77489
▁verras	-9.77569
auront	-9.77784
vint	-9.77943
étenteur	-9.77994
▁jette	-9.78176
me	-9.79143
late	-9.79263
▁rester	-9.79403
ure	-9.79411
▁morte	-9.79687
▁puissant	-9.79712
▁laissé	-9.79791
▁action	-9.79982
▁Dan	-9.80052
▁désire	-9.80134
▁pouvai	-9.80159
avec	-9.80215
▁retourn	-9.8025
▁conduit	-9.80252
▁exemple	-9.8033
▁Grec	-9.80645
▁Macédo	-9.80645
▁égaux	-9.80648
▁sécurité	-9.80659
▁compagnie	-9.80659
▁rétribution	-9.80661
▁corruption	-9.80663
▁voulons	-9.80686
▁région	-9.8078
Et	-9.80788
▁racont	-9.80795
▁R	-9.80829
▁faisiez	-9.80833
suivirent	-9.8092
▁Regarde	-9.80969
f	-9.80969
▁rendez	-9.8099
▁bâton	-9.81018
▁V	-9.81056
hommes	-9.81137
▁adorez	-9.81313
▁envoie	-9.81443
▁juger	-9.81449
Tu	-9.81714
endant	-9.81861
▁alliance	-9.8192
▁aveugle	-9.81925
tion	-9.82059
▁rapport	-9.82128
▁manque	-9.82156
Qui	-9.82166
▁aurions	-9.82254
▁jeunes	-9.82298
appelle	-9.8235
▁entr	-9.82396
S	-9.82651
▁telle	-9.82724
vient	-9.82778
se	-9.82923
▁outre	-9.8306
▁explicite	-9.8314
▁trésor	-9.83181
ns	-9.83202
▁espérance	-9.83378
▁allié	-9.83401
▁faible	-9.8363
▁proches	-9.83835
▁éprouver	-9.83933
▁ve	-9.84227
▁déclaré	-9.84281
▁commande	-9.84412
▁difficile	-9.84454
▁victoire	-9.84492
▁sauvâmes	-9.84494
▁vécu	-9.84499
▁croyaient	-9.84504
Venez	-9.84564
▁suivez	-9.8457
▁fût	-9.84571
rons	-9.84585
▁assurément	-9.84595
▁ré	-9.84597
▁direction	-9.84607
▁donnons	-9.84818
▁jeter	-9.84937
▁prennent	-9.84953
aveugle	-9.84964
avais	-9.8528
▁sortes	-9.85294
▁poitrines	-9.85343
▁sages	-9.85404
▁doué	-9.85426
▁Gloire	-9.85529
▁cas	-9.85613
▁serments	-9.85687
rai	-9.85697
▁pria	-9.85724
▁guéri	-9.85743
▁amis	-9.85807
▁Cet	-9.86018
honneur	-9.86021
▁peine	-9.86023
▁entendent	-9.86036
Écriture	-9.86073
▁Écriture	-9.86871
▁bas	-9.86935
▁accord	-9.86945
ier	-9.87003
▁pécheur	-9.87209
▁source	-9.87216
▁riche	-9.87219
▁sacrifice	-9.87239
thée	-9.87595
mment	-9.8783
▁caché	-9.8797
▁sache	-9.88168
▁coup	-9.88276
▁montre	-9.88374
▁tués	-9.88442
▁malédiction	-9.88491
▁Clairvoyant	-9.88492
▁souffrance	-9.88507
▁gouverneur	-9.88514
▁souvent	-9.8858
▁craignent	-9.88593
▁route	-9.88604
▁connaissez	-9.88634
▁serv	-9.88673
▁bons	-9.88722
Même	-9.8878
▁têtes	-9.88782
▁Timo	-9.88997
▁ouvert	-9.89038
▁meurtre	-9.89052
▁gardé	-9.89131
avant	-9.89266
▁arbre	-9.89339
vez	-9.8937
▁laissez	-9.89432
▁trouveras	-9.89446
▁lesquel	-9.89508
▁avertis	-9.89521
▁Isaac	-9.89667
Égypte	-9.89794
▁repas	-9.8981
ter	-9.89825
interrogent	-9.89907
▁baptisés	-9.89967
▁Là	-9.89976
▁compagnons	-9.90012
Voilà	-9.90116
▁serai	-9.90118
▁pr	-9.90121
▁prend	-9.90438
aucune	-9.90496
▁Éli	-9.90642
▁Vo	-9.90995
▁pré	-9.91083
▁cités	-9.91201
▁serment	-9.91468
▁mont	-9.91518
▁ressuscités	-9.91936
▁affaire	-9.92072
▁chercher	-9.92323
▁noms	-9.92325
▁puisse	-9.92481
▁baptême	-9.92658
▁dernière	-9.92658
▁doctrine	-9.92658
▁Trône	-9.92659
▁Saluez	-9.92662
▁trente	-9.92666
▁terrible	-9.92668
▁fermement	-9.92712
▁méfaits	-9.92751
Aad	-9.92752
▁verrez	-9.92767
▁monter	-9.92769
▁pleinement	-9.92782
▁berger	-9.92803
▁saurez	-9.92844
▁cour	-9.92927
tiennent	-9.92983
▁invoquent	-9.92985
▁affligés	-9.93141
▁viendront	-9.93207
En	-9.93405
arbre	-9.93451
▁vingt	-9.93471
▁chercha	-9.93738
an	-9.9374
▁disons	-9.93894
ais	-9.93926
▁rappelez	-9.93933
▁chasse	-9.9396
▁peux	-9.93972
▁adultère	-9.94098
▁sacrée	-9.94242
▁vêtu	-9.94256
▁semé	-9.94259
étant	-9.94572
Que	-9.94577
adorer	-9.94839
par	-9.94867
▁traite	-9.94967
▁Quelle	-9.95089
▁vents	-9.95222
arfaitement	-9.95309
ève	-9.95379
ans	-9.95678
▁sœur	-9.95724
oyons	-9.9573
▁esclave	-9.96026
▁souffle	-9.96276
▁tomb	-9.96516
▁décidé	-9.9652
▁vont	-9.9667
▁grain	-9.9669
▁Es	-9.96807
▁enseigné	-9.96971
▁poids	-9.97006
▁royauté	-9.97006
▁centurion	-9.97007
▁Vérité	-9.97008
▁charité	-9.97009
▁désordre	-9.97009
▁Nazar	-9.97013
▁tremblement	-9.97021
▁Frère	-9.97051
▁discours	-9.97085
▁bruit	-9.97139
▁destination	-9.97236
▁Pi	-9.97309
o	-9.97318
té	-9.97327
▁nombreuse	-9.9734
assit	-9.97393
▁Quoi	-9.97528
▁actes	-9.97528
▁sauront	-9.9758
▁croyantes	-9.97681
▁pourtant	-9.97703
▁Fais	-9.97726
▁prophétie	-9.97806
▁garder	-9.97872
▁liens	-9.97925
▁passions	-9.97934
▁troupeau	-9.9822
▁arrive	-9.98247
eaucoup	-9.98328
▁seraient	-9.98337
▁sert	-9.98395
autel	-9.98534
▁existe	-9.98561
▁pa	-9.98637
▁Adam	-9.98714
able	-9.98752
Moïse	-9.98804
▁maîtres	-9.98926
▁Audient	-9.98939
Moi	-9.99059
▁tourne	-9.99197
▁lève	-9.99458
age	-9.99584
▁lit	-9.99636
▁resté	-9.99725
▁Bien	-9.99767
ouvrit	-9.99796
▁g	-10.0002
▁touché	-10.0014
▁prières	-10.0021
▁oublié	-10.0023
▁pauvre	-10.0024
▁humain	-10.0025
▁servi	-10.0033
▁pensée	-10.004
▁sainte	-10.0048
▁envoy	-10.0066
▁châtie	-10.008
Islam	-10.0115
ieux	-10.0144
▁marcher	-10.0148
▁Sauveur	-10.0155
▁détresse	-10.0155
▁garçon	-10.0155
▁destruction	-10.0155
▁trompette	-10.0157
▁soif	-10.0157
▁pacte	-10.0161
▁allons	-10.0164
▁Créateur	-10.0166
▁sème	-10.0169
▁jeûne	-10.0171
▁rassemblés	-10.0182
▁éprouvé	-10.0186
▁e	-10.0187
▁faiblesse	-10.0187
▁endurants	-10.0188
▁demandé	-10.0191
▁invoquez	-10.0193
égare	-10.0201
▁mangent	-10.0205
▁haute	-10.0214
▁arrivera	-10.0235
L	-10.0237
▁convoitises	-10.025
N	-10.0269
▁dispute	-10.027
▁couronne	-10.029
appel	-10.0297
▁possédé	-10.0309
▁Ésa	-10.0315
▁suppli	-10.0316
▁partit	-10.0333
▁parla	-10.0345
▁montré	-10.0355
▁passe	-10.0363
ierez	-10.0378
▁crée	-10.038
époux	-10.0384
▁répond	-10.0386
égarement	-10.0393
épreuve	-10.0394
▁do	-10.0412
▁paraboles	-10.0427
▁impur	-10.0446
▁entré	-10.0455
▁fou	-10.0464
▁annoncer	-10.0475
▁salue	-10.0478
▁prompt	-10.0493
▁Juif	-10.0498
▁plaisir	-10.0499
▁march	-10.0502
▁conforme	-10.0507
▁maudit	-10.0516
Mon	-10.0518
▁spirituel	-10.0519
▁rest	-10.0521
ssez	-10.0537
▁jure	-10.0551
▁saisir	-10.0565
▁but	-10.0584
▁pren	-10.0584
No	-10.0585
▁ventre	-10.0587
▁laiss	-10.0591
▁regarda	-10.0602
▁bestiaux	-10.0631
▁bénédiction	-10.0631
▁coutume	-10.0632
▁Parole	-10.0633
▁comprennent	-10.0634
▁diverses	-10.0639
▁fumée	-10.0646
▁habite	-10.0647
oche	-10.0651
▁naissance	-10.0651
▁autrefois	-10.0656
▁tiers	-10.0659
▁remplis	-10.0662
▁venait	-10.0682
▁enlevé	-10.0691
auraient	-10.0697
▁pensez	-10.0702
▁poissons	-10.0712
âme	-10.0719
▁implor	-10.0721
▁savaient	-10.0723
▁pl	-10.0724
▁six	-10.0755
▁vision	-10.0764
▁couché	-10.0765
E	-10.0767
▁parfum	-10.0768
entrer	-10.0771
▁riches	-10.0782
▁fautes	-10.0785
▁sacrifices	-10.0788
▁savait	-10.0791
▁prends	-10.0796
sur	-10.0805
▁champs	-10.0807
▁Rappel	-10.0823
▁monté	-10.0828
▁moyens	-10.0836
oreille	-10.0837
ignominie	-10.0865
▁épée	-10.0867
Pourquoi	-10.0874
incombe	-10.0875
interprétation	-10.0884
intention	-10.0888
▁commet	-10.0899
épée	-10.09
▁auraient	-10.0912
▁Al	-10.0919
▁vase	-10.094
▁retourner	-10.0976
▁insensé	-10.098
▁épouse	-10.0999
▁secoureur	-10.1001
▁perdu	-10.1001
▁devez	-10.1012
▁prêch	-10.1012
▁jardin	-10.1013
▁mères	-10.1016
▁miracle	-10.1024
▁derniers	-10.1044
▁prochain	-10.107
▁purifié	-10.1071
▁commun	-10.1101
▁purifie	-10.1112
vain	-10.1117
▁Thamûd	-10.1131
▁Thora	-10.1131
▁succès	-10.1132
▁cheveux	-10.1132
▁enseigne	-10.1132
▁obtenu	-10.1133
▁détruire	-10.1134
▁fondement	-10.1135
▁manteau	-10.1144
▁travaill	-10.115
▁allez	-10.115
▁dépensent	-10.1154
▁Quelques	-10.1154
▁voyons	-10.1162
▁dû	-10.1175
▁rétribué	-10.1194
▁vôtres	-10.1216
▁vieux	-10.1221
▁promesses	-10.123
▁repentan	-10.1237
▁Esprit	-10.1245
aü	-10.1247
ément	-10.1263
▁pensées	-10.1283
▁parti	-10.1296
▁années	-10.1304
▁sein	-10.1309
el	-10.1321
▁aurez	-10.134
▁cesse	-10.1347
▁Y	-10.1349
otre	-10.1351
▁pousser	-10.1357
▁crois	-10.1391
▁observe	-10.1406
▁choisi	-10.1416
▁pourront	-10.1418
accord	-10.1443
▁engendr	-10.1445
▁récit	-10.145
▁sûr	-10.1454
▁pou	-10.1491
ât	-10.1494
▁r	-10.1495
▁apôtre	-10.1527
▁richesse	-10.1531
▁année	-10.154
▁récite	-10.1557
gneau	-10.1562
al	-10.1567
▁endroit	-10.1601
▁Pas	-10.1614
▁meurt	-10.1622
▁É	-10.1629
▁H	-10.1633
▁guider	-10.1636
▁frappe	-10.1638
▁fardeau	-10.1656
argile	-10.1658
▁Fournaise	-10.1658
▁soixante	-10.1658
▁figuier	-10.1658
▁sixième	-10.1658
▁mutuellement	-10.1658
▁décret	-10.1659
▁beau	-10.1661
▁mangé	-10.1662
vènement	-10.1667
▁Rabb	-10.1671
▁possible	-10.1673
▁sexuelle	-10.1673
effectivement	-10.1685
▁jetèrent	-10.1693
▁immense	-10.1695
▁surtout	-10.1696
▁trébucher	-10.1697
▁tour	-10.1702
▁partout	-10.1703
▁viv	-10.1712
▁marchent	-10.1717
▁voies	-10.1723
▁aimez	-10.1727
▁ami	-10.1735
▁suivit	-10.175
▁tombée	-10.1753
▁saisis	-10.1762
▁vaines	-10.1762
accomplir	-10.1763
Viens	-10.1768
▁suite	-10.1768
▁livrer	-10.1778
!...	-10.1782
▁seuls	-10.1786
▁nouvelles	-10.1791
ère	-10.1806
ir	-10.1827
▁sources	-10.184
▁écris	-10.1852
▁parvenu	-10.1855
▁regard	-10.1881
▁vend	-10.1889
▁tombe	-10.1912
▁poussé	-10.193
▁travers	-10.1944
▁clair	-10.1947
▁ordres	-10.1952
▁diables	-10.1954
▁révélée	-10.1955
▁devons	-10.1956
▁cou	-10.1958
▁Re	-10.1961
La	-10.1967
ensuite	-10.1968
▁vraie	-10.1968
Audient	-10.197
image	-10.1972
▁su	-10.1989
▁réunis	-10.201
▁aimer	-10.2021
▁lié	-10.2023
▁bêtes	-10.2057
ombien	-10.208
▁To	-10.2084
▁ingrat	-10.2085
Sois	-10.2098
▁arrivée	-10.2105
▁détourne	-10.2115
aller	-10.2129
né	-10.2145
▁étend	-10.2156
cité	-10.2161
▁guérir	-10.217
▁ordonne	-10.2185
▁vaut	-10.2187
▁I	-10.2193
▁mérite	-10.2204
À	-10.2213
▁fournaise	-10.2213
▁protection	-10.2213
Univers	-10.2213
▁bébé	-10.2213
▁chevaux	-10.2213
▁chute	-10.2213
▁défaut	-10.2213
▁souffert	-10.2213
▁trop	-10.2214
▁titre	-10.2214
▁revenir	-10.2215
▁arriver	-10.2215
▁désigné	-10.2215
▁entière	-10.2215
▁longue	-10.2216
▁secourir	-10.2216
I	-10.2217
▁tunique	-10.2217
▁droiture	-10.2218
▁talent	-10.2218
Mangez	-10.222
▁ressuscite	-10.2222
enfl	-10.2223
▁espèce	-10.2225
▁agit	-10.2228
▁bois	-10.2228
▁inventé	-10.223
▁Homme	-10.2233
▁Laisse	-10.2233
▁rocher	-10.2233
leurs	-10.2235
);	-10.2236
▁Zacharie	-10.2239
▁lésés	-10.224
▁hâter	-10.224
▁valeur	-10.2247
▁enseignement	-10.225
▁réjoui	-10.2252
▁Faites	-10.2253
▁suit	-10.2257
▁guérit	-10.227
▁Prends	-10.2272
▁pourrait	-10.2276
▁armées	-10.2286
▁sauve	-10.2296
▁Anti	-10.23
acle	-10.2304
▁rendent	-10.2304
▁lutt	-10.2305
▁détourner	-10.2314
▁devenir	-10.2317
▁réjouis	-10.2349
▁trouvent	-10.2351
▁retira	-10.2361
▁Sau	-10.2369
▁conclu	-10.2373
▁auxquel	-10.2375
▁humains	-10.2375
▁sœurs	-10.2386
▁toit	-10.2395
iers	-10.2398
ance	-10.2408
osquée	-10.2422
viennent	-10.2425
▁confié	-10.2427
▁retourne	-10.243
▁complot	-10.2447
▁désobéi	-10.2463
aucun	-10.247
avance	-10.2478
aube	-10.2515
▁connaiss	-10.2529
Certes	-10.2538
▁petite	-10.2557
égard	-10.2558
engagement	-10.256
exception	-10.2563
▁chargé	-10.2569
▁guérie	-10.2592
aurions	-10.2615
▁éternel	-10.2628
▁égaré	-10.2651
▁regarder	-10.2653
▁turpitude	-10.266
qu	-10.2665
aurais	-10.2666
▁attend	-10.2668
▁poitrine	-10.2671
▁racine	-10.2672
aiment	-10.2686
▁nature	-10.2702
▁juges	-10.2722
▁lutte	-10.2752
▁Cap	-10.2758
yons	-10.2758
œil	-10.2765
▁reconnu	-10.2772
c	-10.2784
▁pied	-10.2788
▁po	-10.279
Inconnaissable	-10.2801
▁méchanceté	-10.2801
▁tradition	-10.2801
▁subsistance	-10.2801
▁jalousie	-10.2801
▁blâmable	-10.2802
▁désobéissance	-10.2802
▁Aucun	-10.2803
▁semence	-10.2803
▁prosternèrent	-10.2803
▁fardeaux	-10.2804
obéissance	-10.2804
▁contenu	-10.2805
▁souffrir	-10.2805
▁ouvertement	-10.2806
▁publicain	-10.2807
▁except	-10.2807
▁nourrir	-10.2808
▁commettent	-10.2809
▁sommeil	-10.2817
▁Dama	-10.2822
▁jugez	-10.2823
▁orphelins	-10.2823
esse	-10.2827
▁enseignant	-10.2829
▁portant	-10.283
▁palmiers	-10.283
▁secourus	-10.2831
▁invité	-10.2836
▁saviez	-10.2837
▁chaînes	-10.2838
▁retourna	-10.2842
▁utile	-10.2844
▁ignorants	-10.2845
▁Jonas	-10.2847
▁blé	-10.2848
▁chien	-10.2851
▁entende	-10.2856
▁Ces	-10.2863
▁lors	-10.2872
▁exhortation	-10.2875
▁avantage	-10.2885
▁héritiers	-10.2903
▁rendi	-10.2906
▁Jud	-10.2914
▁demain	-10.2926
▁Aaron	-10.2931
▁reni	-10.2939
donnâmes	-10.2949
▁état	-10.2956
▁affection	-10.2963
▁obéi	-10.2985
▁affaires	-10.299
▁remis	-10.3018
▁eaux	-10.3023
▁recherche	-10.3029
▁témoign	-10.3039
eût	-10.3056
▁présenter	-10.3063
▁brûler	-10.3079
▁couvre	-10.3098
▁agi	-10.3106
Par	-10.3109
écria	-10.312
▁condamné	-10.3126
▁assujetti	-10.313
▁cria	-10.3134
▁poser	-10.3167
aurait	-10.3173
Malheur	-10.3177
iniquité	-10.3181
▁supporter	-10.3182
Adam	-10.3184
▁laisser	-10.3194
▁pardonnera	-10.3207
os	-10.3216
▁rendra	-10.3224
accomplisse	-10.3254
sait	-10.3271
▁souverain	-10.3278
▁véridique	-10.3296
▁règle	-10.3296
▁convoitise	-10.3296
▁question	-10.3305
▁accordera	-10.3317
▁exposé	-10.332
▁voleur	-10.3322
▁annoncée	-10.3342
▁manifeste	-10.3344
▁coule	-10.3349
▁Quelqu	-10.3359
▁pleur	-10.3367
▁manqu	-10.3368
▁dépense	-10.3369
▁souffre	-10.338
▁tard	-10.3386
▁pure	-10.3389
▁repent	-10.3401
▁réjouir	-10.3404
▁demandes	-10.3404
▁protège	-10.3407
▁tenai	-10.3414
if	-10.3419
▁ressuscitera	-10.342
▁stratagème	-10.3426
▁folie	-10.3426
▁culte	-10.3427
▁croître	-10.3427
▁voulions	-10.3427
▁oui	-10.3428
▁morceaux	-10.3428
▁tromperie	-10.3428
▁noces	-10.3429
▁mourut	-10.3432
▁prosterner	-10.3433
▁pouvons	-10.3433
▁reçoivent	-10.3434
▁connaissons	-10.3436
▁commandant	-10.3438
▁conseiller	-10.344
▁gagner	-10.3443
▁Béni	-10.3444
▁davantage	-10.3445
▁descendants	-10.3446
▁injustement	-10.345
▁apporte	-10.3451
▁fu	-10.3451
▁bout	-10.3453
▁feuilles	-10.3453
▁sage	-10.3455
▁envoyâmes	-10.3458
▁allé	-10.3461
da	-10.3469
▁parlez	-10.347
▁tiens	-10.347
▁sourds	-10.3474
▁guidée	-10.3476
▁conform	-10.3487
▁répandu	-10.3487
▁priez	-10.3488
▁rangs	-10.3489
▁signifie	-10.3493
▁revêtu	-10.3497
▁malin	-10.35
▁appartiennent	-10.3503
▁devienne	-10.3507
▁vivra	-10.3514
▁parfaite	-10.3517
]?	-10.3521
▁conduite	-10.3523
aura	-10.3537
▁échapper	-10.3537
▁justifiés	-10.355
▁meilleurs	-10.3552
▁Parfait	-10.3559
ach	-10.356
▁questions	-10.3562
accomplit	-10.3563
▁Vers	-10.3587
▁commença	-10.3587
▁arrière	-10.3588
▁Seul	-10.3596
▁implore	-10.361
▁romp	-10.3611
entendez	-10.3615
▁frappé	-10.3627
▁occasion	-10.3628
▁vien	-10.3629
▁servante	-10.3643
▁trésors	-10.3644
▁profond	-10.365
▁suiv	-10.3655
▁vil	-10.3656
▁donnent	-10.3683
aire	-10.3689
▁frappa	-10.3692
▁masse	-10.3697
▁recev	-10.3718
▁dirai	-10.3724
▁trouvera	-10.3725
dain	-10.3734
▁obstru	-10.3743
▁Bar	-10.3751
▁perdre	-10.3762
▁révélations	-10.3764
▁offrir	-10.3765
▁entrent	-10.3795
▁donnés	-10.3796
erez	-10.381
▁goût	-10.3816
▁pens	-10.3837
▁gard	-10.3839
▁rejeté	-10.3839
▁hériter	-10.3847
héritage	-10.3849
abondance	-10.3849
▁égarer	-10.3852
▁dedans	-10.3881
▁recevra	-10.3889
ît	-10.3907
▁périsse	-10.3929
▁coq	-10.3938
▁porté	-10.3952
▁prisonnier	-10.396
▁secrète	-10.3962
▁licite	-10.3967
▁maris	-10.397
▁grave	-10.397
▁justifié	-10.3985
don	-10.3989
▁tuez	-10.3989
▁vou	-10.3991
▁respect	-10.3993
▁apporter	-10.3993
▁patient	-10.4003
▁demandera	-10.4027
▁genou	-10.4031
▁vive	-10.404
▁moisson	-10.4073
▁considère	-10.4074
▁récolte	-10.4076
▁balance	-10.4083
arche	-10.4083
▁brigand	-10.4086
▁Grâce	-10.4093
▁avilissant	-10.4093
▁bouillante	-10.4093
▁postérité	-10.4093
▁tonnerre	-10.4093
▁révèle	-10.4093
▁règne	-10.4093
▁Mîm	-10.4093
▁début	-10.4093
▁condition	-10.4093
▁compassion	-10.4093
▁tristesse	-10.4094
▁informera	-10.4094
▁croyiez	-10.4094
▁vertueux	-10.4094
▁comprenez	-10.4095
▁double	-10.4096
▁hardi	-10.4096
▁croiront	-10.4096
▁protéger	-10.4099
▁disparaître	-10.4101
▁butin	-10.4101
▁recevez	-10.4103
▁filet	-10.4106
▁Jugement	-10.4109
▁cachent	-10.4111
▁entièrement	-10.4112
▁Donne	-10.4113
▁dépensé	-10.4114
▁dîmes	-10.4114
▁sûrement	-10.4114
▁répondu	-10.4114
▁cachez	-10.4117
▁prosternés	-10.4117
▁dirons	-10.4121
▁endormis	-10.4126
▁tenté	-10.4128
▁témoignent	-10.4128
▁chaleur	-10.4129
▁Mont	-10.413
▁branches	-10.4141
▁mots	-10.4142
▁parlant	-10.4143
];	-10.4148
▁pardonner	-10.415
▁gêne	-10.4151
comme	-10.4154
▁transgresseurs	-10.4154
▁durant	-10.416
▁pièces	-10.4162
▁gardiens	-10.4173
▁tenez	-10.4175
▁Voyez	-10.4177
igne	-10.4179
▁restent	-10.4187
▁âge	-10.4189
▁partirent	-10.4206
▁partis	-10.421
▁calomnie	-10.4219
▁incirconcis	-10.4224
▁Adorez	-10.4226
▁adven	-10.4238
▁voulut	-10.4248
▁Vraiment	-10.4277
▁regarde	-10.4284
▁Réjouiss	-10.4285
▁quitta	-10.4289
▁entrés	-10.429
▁sou	-10.4294
▁éloigne	-10.4298
▁épreuve	-10.4299
▁or	-10.43
▁regards	-10.4302
▁peuples	-10.4312
haque	-10.4339
▁héritage	-10.4343
▁Maison	-10.4359
▁disputer	-10.437
▁revi	-10.4378
nne	-10.4391
▁nu	-10.4409
▁toucha	-10.4436
▁Ro	-10.4447
▁prophétis	-10.4467
aviez	-10.4476
▁étonné	-10.4496
▁veille	-10.4504
▁cents	-10.4523
ts	-10.4526
ard	-10.454
herbe	-10.4549
Goûtez	-10.4552
asseoir	-10.4555
Paix	-10.4557
énorme	-10.4558
adultère	-10.4562
alliance	-10.4562
▁intelligence	-10.4567
avions	-10.4581
▁fa	-10.4609
▁frapper	-10.4612
▁extrême	-10.4614
oire	-10.462
▁jugera	-10.4625
▁levé	-10.463
▁cachée	-10.4636
▁lu	-10.464
▁pouss	-10.4643
▁guidé	-10.4652
▁Veille	-10.4662
▁blasphème	-10.4669
▁sépulcre	-10.4669
▁serpent	-10.4672
▁accomplis	-10.4673
▁abond	-10.4682
▁reconnaissant	-10.4683
achiez	-10.4692
▁muet	-10.4692
▁pareille	-10.4701
▁vues	-10.4704
▁raisonn	-10.4734
▁exclusive	-10.4745
▁pro	-10.4752
▁frapp	-10.4763
▁passion	-10.4766
▁vas	-10.4771
▁verra	-10.4785
▁souci	-10.4797
▁Rétribution	-10.4807
▁célèbre	-10.4807
▁période	-10.4807
▁répulsion	-10.4807
▁sperme	-10.4807
▁territoire	-10.4807
▁vantardise	-10.4807
importe	-10.4807
▁famine	-10.4808
abîme	-10.4808
▁pèche	-10.4808
▁irréprochable	-10.4808
▁souvenir	-10.4808
▁puits	-10.4808
▁caverne	-10.4808
▁répit	-10.4809
▁honorable	-10.481
ut	-10.4811
▁fondation	-10.4811
▁boiteux	-10.4812
▁meurtrier	-10.4813
▁prosternent	-10.4817
▁désobéissant	-10.4817
Jamais	-10.4819
▁chambre	-10.4822
▁indigents	-10.4823
▁raisonnent	-10.4826
▁répondre	-10.4829
▁repentent	-10.4832
▁train	-10.4834
di	-10.4836
▁comprendre	-10.4838
▁ardente	-10.4847
enfants	-10.4854
▁injustice	-10.4857
▁porcs	-10.4859
▁glorifient	-10.4859
▁transgression	-10.486
▁prostituée	-10.4861
Les	-10.4861
▁méchants	-10.4866
▁cherchai	-10.487
▁gré	-10.4871
▁sanctifié	-10.4877
▁Cri	-10.4888
▁enseigner	-10.4896
▁huit	-10.4896
▁sceau	-10.4899
▁épines	-10.4902
▁faute	-10.4903
▁meurent	-10.4905
▁semble	-10.4909
▁voudrai	-10.4909
▁lever	-10.4916
▁port	-10.4916
▁Vois	-10.4917
▁neuf	-10.492
▁ouvre	-10.4921
énitu	-10.4932
▁prêche	-10.4946
▁foules	-10.4981
entendre	-10.4992
ncore	-10.5002
▁maudits	-10.5005
Mais	-10.5007
▁bais	-10.501
▁nuire	-10.5011
tenant	-10.5022
▁soin	-10.5036
▁prêché	-10.5044
son	-10.5046
▁cours	-10.5046
▁soi	-10.5049
cation	-10.5053
azare	-10.5058
▁confess	-10.5061
▁enseignements	-10.5067
▁accueilli	-10.5079
lent	-10.508
▁abondance	-10.5081
▁lettres	-10.5086
▁achevé	-10.5101
J	-10.511
▁désirs	-10.5119
âm	-10.512
▁amena	-10.5128
▁parcour	-10.5152
▁aide	-10.5159
ombre	-10.517
▁évidentes	-10.5174
aurai	-10.5182
ées	-10.5227
g	-10.5245
▁aurais	-10.5255
▁recevr	-10.5262
tout	-10.5287
▁veau	-10.531
▁connue	-10.5319
▁dépend	-10.5321
▁Messie	-10.5323
Rappelle	-10.5323
occasion	-10.5332
▁Pa	-10.5347
▁distingue	-10.5361
▁vaincr	-10.5397
▁aimera	-10.5417
▁marché	-10.543
▁souillure	-10.5435
▁femelle	-10.544
▁support	-10.5441
▁vierge	-10.5442
▁magicien	-10.5444
iser	-10.5444
▁vôtre	-10.5446
▁poisson	-10.5446
▁menace	-10.5447
anie	-10.5459
écart	-10.5466
afflige	-10.5479
▁noble	-10.5485
écri	-10.5488
▁mécréant	-10.5513
▁rencontrer	-10.5528
▁violent	-10.5555
▁court	-10.5559
▁commerce	-10.5565
▁lépreux	-10.5577
▁ministère	-10.5577
▁nécessaire	-10.5577
▁rigueur	-10.5577
▁orgueilleux	-10.5577
▁incapable	-10.5577
▁miséricordieux	-10.5577
▁violence	-10.5577
▁vallée	-10.5577
▁condamnation	-10.5577
▁douceur	-10.5578
▁Donc	-10.5578
▁complètement	-10.5579
officier	-10.5579
▁silence	-10.558
▁genre	-10.558
▁souvenez	-10.5581
▁goutte	-10.5581
▁deuxième	-10.5581
▁libert	-10.5582
▁réfléchissent	-10.5583
▁décrété	-10.5583
▁tombeaux	-10.5584
▁Béth	-10.5585
▁argent	-10.5586
▁émigré	-10.5587
▁bouches	-10.5588
▁beaux	-10.5589
▁combattre	-10.5589
attente	-10.5591
▁ressemblent	-10.5592
▁détournez	-10.5593
▁sandales	-10.5594
▁seigneur	-10.5595
▁Tyr	-10.5598
▁viendrai	-10.5607
gripp	-10.5608
▁libéré	-10.5609
▁répondent	-10.5611
▁Ismaël	-10.5611
▁arabe	-10.5613
▁accepté	-10.5615
▁attention	-10.5617
▁larmes	-10.5618
▁perles	-10.562
▁course	-10.563
▁front	-10.563
▁compter	-10.5635
▁impies	-10.5635
▁rassasié	-10.5639
▁pensent	-10.5642
am	-10.5644
▁emporté	-10.5647
▁équité	-10.5649
▁animaux	-10.565
▁couples	-10.5652
▁nuages	-10.5657
▁autrement	-10.5661
▁disiez	-10.5666
▁vaches	-10.5666
▁ouvrier	-10.5671
▁sens	-10.5671
tes	-10.5675
▁appeler	-10.5693
▁portent	-10.5752
▁choisis	-10.5761
▁corne	-10.5764
▁laissa	-10.5771
▁erreur	-10.5776
vis	-10.579
▁subir	-10.5797
ix	-10.5804
espèrent	-10.5809
▁Louange	-10.581
▁denier	-10.5815
▁dispersé	-10.5833
▁bâti	-10.5836
▁écoute	-10.5837
rions	-10.5856
▁formé	-10.5867
▁arbres	-10.5874
ire	-10.5877
▁certaine	-10.5887
▁douleur	-10.5913
duc	-10.5921
ables	-10.5926
ces	-10.5927
▁o	-10.593
▁divorce	-10.5934
▁annonça	-10.5941
▁chasser	-10.5941
▁rejette	-10.5942
ition	-10.5957
▁témoigne	-10.5962
▁principau	-10.6002
Lui	-10.6003
ssé	-10.6012
▁sac	-10.6012
exemple	-10.6013
mère	-10.6028
▁arrivés	-10.603
eut	-10.6032
enseignement	-10.6037
▁mour	-10.6041
▁couru	-10.6048
▁demeur	-10.605
▁long	-10.6056
▁lavé	-10.606
▁serais	-10.6066
ouvrir	-10.6068
▁di	-10.6087
Al	-10.6114
sse	-10.612
ille	-10.6123
▁glorifier	-10.6127
▁réduit	-10.613
▁arriv	-10.614
▁aim	-10.6147
histoire	-10.6152
▁sain	-10.6154
espère	-10.6156
endurance	-10.6158
Louange	-10.6163
Isaac	-10.6164
impôts	-10.6169
▁enseigna	-10.6179
▁fil	-10.6198
▁besoins	-10.62
ue	-10.6245
▁blanc	-10.626
▁triste	-10.626
entend	-10.6263
▁flamme	-10.6268
▁rebelle	-10.627
▁sincère	-10.6275
ser	-10.6276
▁mâle	-10.6277
▁parlera	-10.6277
▁sacrificateur	-10.6278
▁avais	-10.629
▁comblé	-10.6291
▁faisai	-10.6292
ène	-10.631
écouter	-10.6316
▁exhorte	-10.6316
arque	-10.6321
▁saura	-10.6353
▁jeûner	-10.6358
▁Te	-10.6372
)!	-10.6377
▁répand	-10.6385
▁jaillir	-10.6391
▁possède	-10.6391
▁purifier	-10.6391
▁puisqu	-10.6392
▁ordonn	-10.6396
▁suivai	-10.6396
▁pénétr	-10.6401
)».	-10.6407
▁toucher	-10.6407
▁péri	-10.641
Éternel	-10.641
▁Babylone	-10.641
▁Zébédée	-10.641
▁conçu	-10.641
▁généreuse	-10.641
▁impossible	-10.641
▁testament	-10.641
Evangile	-10.641
▁abondamment	-10.641
▁moitié	-10.641
▁perdition	-10.641
▁roseau	-10.641
▁fléaux	-10.641
▁tapis	-10.6411
▁tribunal	-10.6411
▁réussissent	-10.6411
▁redoutable	-10.6411
▁réponse	-10.6411
▁semaine	-10.6411
▁septième	-10.6412
▁instruit	-10.6412
▁buvez	-10.6413
▁échappé	-10.6415
▁journée	-10.6416
▁Silas	-10.6416
▁combattent	-10.6417
▁durable	-10.6417
▁agissent	-10.6419
▁avancé	-10.642
▁tromper	-10.6421
▁relâcher	-10.6422
▁capacité	-10.6422
▁innocent	-10.6424
▁tenir	-10.6426
▁cheval	-10.6426
▁courant	-10.6433
▁haine	-10.6433
▁future	-10.6434
▁commencé	-10.6436
▁créer	-10.6437
▁blanche	-10.6439
▁informé	-10.644
▁stupéfaits	-10.644
▁semer	-10.644
▁merveilles	-10.6446
▁voyais	-10.6446
▁adoraient	-10.6453
▁rassemblera	-10.6456
éens	-10.6462
▁gain	-10.6464
▁fortifié	-10.6466
▁Laissez	-10.6481
▁portez	-10.6482
▁blasphém	-10.6483
▁demandez	-10.6484
▁avertissements	-10.6487
▁dirige	-10.6492
èse	-10.6493
▁repentis	-10.6494
▁tombés	-10.6499
▁jurent	-10.6502
▁récités	-10.6502
assuran	-10.6511
▁cherché	-10.652
▁livres	-10.6521
▁all	-10.6533
▁humilité	-10.6533
▁blancs	-10.6547
▁bras	-10.655
plaire	-10.6552
▁données	-10.6565
▁panier	-10.6571
▁monte	-10.6576
▁envie	-10.6579
▁âne	-10.6583
▁écrire	-10.6595
▁guérison	-10.6602
▁Parm	-10.661
▁accomplie	-10.6613
▁vol	-10.6629
▁empêcher	-10.6629
▁compris	-10.663
▁prince	-10.663
▁fassi	-10.6659
▁deuil	-10.6672
▁repousser	-10.6676
▁sortent	-10.6677
▁prêcher	-10.6684
▁tenu	-10.6689
▁venues	-10.6699
efforce	-10.6707
▁adorer	-10.6715
▁cris	-10.6742
onne	-10.6751
▁tribus	-10.6756
ul	-10.6759
▁dette	-10.6763
ateur	-10.6765
▁ven	-10.6789
▁image	-10.679
été	-10.683
▁rassembl	-10.6835
▁marier	-10.6839
▁prise	-10.6851
abri	-10.6853
▁jetés	-10.6861
▁réunir	-10.6861
▁transgresser	-10.6862
▁levant	-10.6879
▁forts	-10.6879
▁louanges	-10.6881
▁amené	-10.6883
▁exacte	-10.6888
▁délivre	-10.689
▁vaisseau	-10.689
▁jeu	-10.6898
▁moqu	-10.6938
ureté	-10.6949
pratiquent	-10.695
▁querelle	-10.6955
era	-10.6959
▁rançon	-10.6968
impudi	-10.6974
vant	-10.6981
▁profit	-10.6983
▁pieuse	-10.6995
▁G	-10.6996
▁guéris	-10.7003
èle	-10.7009
▁dieux	-10.7015
Pierre	-10.7026
▁montra	-10.7036
▁Tit	-10.7044
impureté	-10.7044
chant	-10.7047
tient	-10.7048
quatre	-10.7057
Hérod	-10.706
immoralité	-10.7069
Gloire	-10.7071
Vraiment	-10.7072
affection	-10.7072
injustice	-10.7075
▁marcha	-10.7075
erreur	-10.7076
dix	-10.7081
ouïe	-10.7088
agneau	-10.7096
▁bel	-10.71
▁particip	-10.7114
entendent	-10.7118
▁enseign	-10.7119
huile	-10.7124
▁confesse	-10.7133
▁vaine	-10.7144
▁empêche	-10.7145
▁hâte	-10.7155
▁tira	-10.7159
éleva	-10.7167
▁expose	-10.7177
▁inattentif	-10.7183
▁visible	-10.7188
▁vaincu	-10.7194
ami	-10.7195
▁prodige	-10.7196
▁dîme	-10.7198
▁salu	-10.7209
▁fond	-10.721
▁annonciateur	-10.7216
▁excellent	-10.7241
▁craignai	-10.7248
▁compté	-10.7254
▁placer	-10.7264
▁atteigne	-10.7266
▁espoir	-10.7268
▁prononcé	-10.7269
▁sobre	-10.7275
▁traversé	-10.7281
étendit	-10.7286
▁ardent	-10.7289
▁recouvr	-10.729
▁associé	-10.7291
▁convien	-10.7292
▁prépar	-10.7293
▁reproche	-10.7298
▁défense	-10.7301
▁élu	-10.731
oppement	-10.7319
▁Melchi	-10.7319
Sodome	-10.7319
incrédulité	-10.7319
▁Indulgent	-10.7319
▁Iscariot	-10.7319
▁Thomas	-10.7319
▁bétail	-10.7319
▁détriment	-10.7319
▁neuvième	-10.7319
▁rébellion	-10.7319
▁sanctuaire	-10.7319
▁Trompe	-10.7319
▁quatrième	-10.7319
▁Samaritain	-10.7319
▁muraille	-10.7319
▁tempête	-10.7319
▁rapidement	-10.7319
▁blessure	-10.7319
▁presque	-10.7319
▁révélâmes	-10.7319
▁Samari	-10.7319
▁Femme	-10.732
▁produire	-10.732
▁Envoie	-10.732
▁fonction	-10.732
▁tranchant	-10.732
▁largement	-10.7321
▁sainteté	-10.7321
▁distance	-10.7321
▁sauvage	-10.7322
▁voisin	-10.7322
▁orgueil	-10.7322
▁précieuse	-10.7322
▁enduré	-10.7322
▁cinquante	-10.7322
▁perversité	-10.7323
▁récompensons	-10.7323
▁conversation	-10.7323
▁viande	-10.7323
▁pureté	-10.7325
▁craindre	-10.7325
▁acquittez	-10.7326
▁extrémités	-10.7327
▁peaux	-10.7327
▁réjouissez	-10.7328
▁recherch	-10.7328
▁Romain	-10.733
▁réjouissent	-10.7334
▁solide	-10.7334
▁vivons	-10.7335
▁ossements	-10.7337
▁rémission	-10.7337
▁commettre	-10.7338
▁châtiera	-10.7338
▁malgré	-10.7338
▁Pourtant	-10.7338
▁repentez	-10.7339
▁demeuré	-10.7343
▁déposé	-10.7343
▁faisions	-10.7346
▁payer	-10.735
▁interrogés	-10.7353
▁mettez	-10.7353
▁entendront	-10.7354
▁mangeaient	-10.7358
▁persuadé	-10.7359
▁André	-10.736
arrière	-10.7362
▁froid	-10.7365
▁Suis	-10.7366
▁stérile	-10.7367
▁écoutez	-10.7369
▁tranquille	-10.737
▁armes	-10.7373
▁rappellent	-10.7374
▁supplice	-10.7375
▁associent	-10.7376
▁ça	-10.7376
▁portera	-10.7376
▁humiliés	-10.7382
▁mène	-10.7384
▁tombent	-10.7399
▁avertisses	-10.7404
▁trouveront	-10.7407
▁parvenue	-10.741
oir	-10.7411
▁quitté	-10.7412
▁grandeur	-10.7428
▁détournés	-10.744
▁amener	-10.7444
▁intérêt	-10.7453
▁Croyez	-10.7454
▁fassent	-10.7457
▁pouv	-10.7459
▁échange	-10.7459
vec	-10.7463
▁oubli	-10.7473
he	-10.7475
▁adorent	-10.7475
▁ignorance	-10.7478
▁prié	-10.7481
émanant	-10.7482
vocation	-10.7484
▁convoqua	-10.7498
▁dépens	-10.7503
▁vo	-10.7514
▁propose	-10.7515
▁Du	-10.7518
▁angoisse	-10.7525
▁robe	-10.7533
▁sol	-10.7535
▁affliction	-10.755
assembl	-10.7553
▁invente	-10.7577
▁impurs	-10.758
▁embelli	-10.7584
▁sanctifi	-10.759
▁parl	-10.7605
▁partage	-10.762
écoute	-10.7627
▁charnel	-10.7652
▁passant	-10.7659
▁Ni	-10.7663
▁détruis	-10.767
▁devaient	-10.7683
▁coups	-10.7684
ûmes	-10.7689
▁souillé	-10.7692
▁iniquité	-10.7692
ssent	-10.7692
ole	-10.7709
▁Sur	-10.7709
vers	-10.7721
k	-10.7729
▁apport	-10.7739
▁déchir	-10.7746
▁boue	-10.7759
▁supporte	-10.7762
▁bouc	-10.7767
uriez	-10.7772
▁appri	-10.7778
▁enseignai	-10.7781
▁portée	-10.7782
▁souhait	-10.7783
▁sauvera	-10.7787
▁bu	-10.7803
▁apparten	-10.781
▁mentionne	-10.7811
ante	-10.7812
»!	-10.7815
ennemi	-10.7817
▁ombre	-10.7817
▁redoute	-10.7818
▁rue	-10.782
▁délivrer	-10.7823
ern	-10.7834
▁égal	-10.7847
▁revienne	-10.7848
▁contraint	-10.7851
▁avertisseurs	-10.7852
▁raconta	-10.7854
▁échanger	-10.7855
iront	-10.7866
▁taille	-10.787
▁troupe	-10.7899
issant	-10.7904
▁honneur	-10.7919
▁témoigner	-10.7953
▁incombe	-10.7955
▁dépenser	-10.7969
▁bénis	-10.7997
▁faveurs	-10.8003
▁crie	-10.8006
▁cacher	-10.801
▁présenté	-10.8011
▁entendue	-10.8022
hait	-10.8041
▁livrera	-10.8044
Pharaon	-10.8047
étonnement	-10.8054
auparavant	-10.8056
▁coupes	-10.8063
j	-10.8066
agit	-10.8066
▁transgress	-10.8069
affliction	-10.8069
vons	-10.807
mettent	-10.8072
île	-10.8074
▁moissonne	-10.8078
rappelez	-10.8083
)?	-10.8085
Oui	-10.8088
▁réduire	-10.8117
▁supplia	-10.8127
rie	-10.8139
▁mettra	-10.8148
▁poussa	-10.8149
pre	-10.8153
▁ten	-10.8156
▁revien	-10.8175
▁dessein	-10.8177
▁enceinte	-10.8179
▁difficulté	-10.8181
▁doigt	-10.8182
▁privé	-10.8184
▁division	-10.8186
▁transgresse	-10.8188
▁salutation	-10.8192
▁Levant	-10.8202
▁trompe	-10.8205
▁publique	-10.821
▁détourné	-10.8219
▁soumise	-10.8223
autant	-10.8228
▁idole	-10.8233
▁utilité	-10.8239
▁chagrin	-10.8239
▁soudain	-10.824
▁glorifi	-10.8254
▁déterminé	-10.8283
▁remplie	-10.8301
▁tombera	-10.8308
▁conjecture	-10.8311
▁prenne	-10.8312
▁morceau	-10.8317
▁bateau	-10.8317
▁chameau	-10.8318
▁Associateurs	-10.8319
▁Bédouins	-10.8319
▁Compatissant	-10.8319
▁Madyan	-10.8319
▁enjoint	-10.8319
▁magistrat	-10.8319
▁noyâmes	-10.8319
▁offert	-10.8319
▁chamelle	-10.8319
▁Fouta	-10.8319
▁profane	-10.8319
▁Écoutez	-10.8319
▁bonheur	-10.8319
▁partialité	-10.8319
▁servitude	-10.8319
▁transmettre	-10.832
▁foudre	-10.832
▁mahr	-10.832
Salâm	-10.832
▁ceinture	-10.832
▁immédiatement	-10.832
▁restreint	-10.832
▁pauvreté	-10.8321
ivraie	-10.8321
▁juré	-10.8322
▁Sagesse	-10.8323
▁tente	-10.8323
▁punir	-10.8323
▁combattez	-10.8325
▁mangèrent	-10.8325
▁fermier	-10.8326
▁vécurent	-10.8327
ve	-10.8328
▁commettez	-10.8329
▁avertir	-10.8329
▁voyaient	-10.833
▁profité	-10.833
▁verre	-10.8331
▁perdra	-10.8331
harn	-10.8333
▁arrêté	-10.8333
▁Beths	-10.8334
▁écouté	-10.8337
▁voul	-10.8339
▁pleurant	-10.8341
▁sach	-10.8341
▁vainqueurs	-10.8342
▁véritable	-10.8342
▁convaincus	-10.8342
▁libérer	-10.8343
▁possèdent	-10.8343
▁craignant	-10.8343
▁couvrir	-10.8343
▁Apollo	-10.8345
▁lance	-10.8347
accomplissement	-10.8347
▁inscrit	-10.8347
ner	-10.835
▁nourrit	-10.8353
▁limites	-10.8357
phe	-10.8358
▁Chrétiens	-10.8361
▁Chacun	-10.8364
▁plat	-10.8365
▁concernant	-10.8368
▁ferez	-10.837
▁vagues	-10.8374
▁démenti	-10.8378
▁rouge	-10.8378
▁jetez	-10.8379
▁traces	-10.8379
▁gardez	-10.8382
▁gri	-10.8383
▁considéré	-10.8384
▁désobéit	-10.8385
▁Apporte	-10.8388
▁vendu	-10.8391
▁communi	-10.8402
▁attendez	-10.8404
▁priant	-10.8406
▁réfléchir	-10.8406
▁humbles	-10.8408
▁disposé	-10.8409
▁Musulmans	-10.8413
oppé	-10.8413
▁maîtrise	-10.8414
▁souille	-10.842
▁pourraient	-10.8423
▁délices	-10.8425
▁obéissent	-10.8425
▁campagne	-10.8426
▁penser	-10.8427
oulent	-10.8436
▁parures	-10.8442
▁détruits	-10.8444
▁enlever	-10.8447
abba	-10.8449
▁seriez	-10.8452
▁divisés	-10.8454
▁change	-10.8461
▁consol	-10.8461
lon	-10.8464
▁troupes	-10.8464
▁observer	-10.8467
▁fuir	-10.8468
▁pareils	-10.8473
▁réforme	-10.8474
▁écoutent	-10.8475
chez	-10.8476
▁dispense	-10.8477
▁comblés	-10.8478
▁Qua	-10.8484
▁magiciens	-10.8497
▁décide	-10.8499
▁prena	-10.8507
▁pourras	-10.8508
▁boit	-10.8511
▁baptiser	-10.8526
▁accordée	-10.8526
▁craign	-10.8545
accus	-10.8547
eilleur	-10.855
▁atteste	-10.8554
▁détien	-10.8557
▁spirituelle	-10.8566
▁ingrats	-10.8568
▁transmis	-10.8574
▁sel	-10.8574
▁pleurs	-10.8579
▁entrez	-10.8583
▁abonde	-10.8583
▁ajoute	-10.8584
▁laissent	-10.8585
▁secoureurs	-10.8599
liviers	-10.8602
▁Sont	-10.8607
▁voy	-10.8616
eu	-10.8623
▁reprocher	-10.864
▁engendre	-10.8644
▁apporta	-10.8645
▁pécher	-10.8649
▁pourrez	-10.8653
▁devoir	-10.8653
▁b	-10.8653
▁ressemble	-10.8659
▁imposé	-10.8661
▁rappeler	-10.8661
▁chant	-10.8661
▁châtier	-10.8662
▁souffler	-10.8671
▁distinct	-10.8672
ût	-10.8683
arthe	-10.8689
▁péril	-10.8731
▁garant	-10.8734
▁tint	-10.874
arrêt	-10.8746
▁fix	-10.8747
▁tuent	-10.8751
▁oint	-10.8783
▁départ	-10.8789
▁troublé	-10.879
version	-10.88
ef	-10.8807
Asi	-10.8818
▁jurer	-10.8829
▁sacré	-10.8845
ha	-10.8845
▁battu	-10.8847
▁parent	-10.8859
▁offre	-10.8876
▁redonne	-10.888
▁traiter	-10.8889
▁mets	-10.8895
viendront	-10.8899
▁perd	-10.8911
▁aie	-10.8912
▁coul	-10.8913
▁ca	-10.8918
▁côtés	-10.8922
▁hât	-10.8927
▁conduisi	-10.8928
▁divisé	-10.893
▁dévorer	-10.8932
▁étais	-10.8935
▁ch	-10.8938
,)	-10.8948
lement	-10.8952
▁communautés	-10.8967
agon	-10.8969
ourez	-10.8975
▁princip	-10.8993
▁réservé	-10.8994
▁devenue	-10.901
▁forge	-10.9015
▁soumet	-10.9044
▁belles	-10.9048
▁changer	-10.9061
étoile	-10.9101
squels	-10.9111
▁agir	-10.9114
▁crut	-10.912
▁bo	-10.9129
▁criai	-10.9134
▁Me	-10.9134
autrui	-10.9137
▁pleure	-10.9139
Puissant	-10.915
▁moquai	-10.9159
▁relâch	-10.9164
▁repousse	-10.9165
oppression	-10.9171
▁songe	-10.9176
Entrez	-10.9179
agrément	-10.918
angoisse	-10.9181
Aaron	-10.9183
Y	-10.9187
▁donn	-10.9196
écrire	-10.9196
▁comptes	-10.9199
pied	-10.9199
▁plai	-10.9201
▁Cor	-10.9213
▁détruit	-10.9224
intérieur	-10.9234
▁cache	-10.9242
▁pareil	-10.9246
Non	-10.9247
▁tire	-10.9253
arrêter	-10.9255
▁interroge	-10.9256
▁parure	-10.9262
▁paralytique	-10.9268
▁Caï	-10.9268
em	-10.9269
▁Bo	-10.9272
▁gardien	-10.9276
▁discut	-10.9281
▁boisson	-10.9283
arrive	-10.9286
ccueillant	-10.9286
▁vite	-10.9287
▁commence	-10.9288
achez	-10.9289
▁fleuve	-10.9293
▁scribe	-10.9296
éprouver	-10.9298
▁jo	-10.9298
▁soldat	-10.9298
▁affligé	-10.9301
▁lourde	-10.9301
▁séduit	-10.9308
▁rêve	-10.9311
▁âgé	-10.9312
▁vache	-10.9312
aide	-10.9313
▁combattu	-10.9316
▁assur	-10.9319
▁abandonné	-10.932
▁caus	-10.9326
▁invoque	-10.9327
▁tuèrent	-10.9331
▁livra	-10.9338
▁désavoue	-10.9339
ar	-10.9365
▁marque	-10.9369
air	-10.9384
annoncer	-10.9388
▁enlève	-10.9392
▁descendi	-10.9394
▁suivant	-10.9407
▁Reste	-10.9408
▁saine	-10.9413
écris	-10.9415
yeux	-10.9417
lusieurs	-10.9425
venaient	-10.9427
▁Glorifie	-10.943
▁Mecque	-10.943
▁faucille	-10.943
▁protégé	-10.943
▁siège	-10.943
▁fièvre	-10.943
▁inquiétez	-10.943
▁raillerie	-10.943
▁colombe	-10.943
▁piège	-10.943
▁sérieux	-10.943
▁sentence	-10.943
▁situation	-10.943
▁réconciliation	-10.943
▁domination	-10.9431
▁revivre	-10.9431
▁motif	-10.9431
▁Fort	-10.9431
▁cantique	-10.9431
▁soumission	-10.9433
▁croirons	-10.9433
▁riz	-10.9433
▁reprendre	-10.9433
▁défendre	-10.9433
▁étonnez	-10.9433
▁ab	-10.9434
▁sévère	-10.9434
▁souviennent	-10.9434
▁fussent	-10.9435
▁changement	-10.9435
▁associez	-10.9436
▁rassemblement	-10.9436
onsidérez	-10.9436
▁détaillé	-10.9436
Baptiste	-10.9436
scription	-10.9437
▁révéla	-10.9437
▁réussiront	-10.9437
▁Syrie	-10.9437
▁satisfait	-10.9439
▁paille	-10.944
▁courage	-10.9441
▁rassemblerons	-10.9442
▁parenté	-10.9444
▁moindre	-10.9445
▁exhortez	-10.9447
▁nord	-10.9447
▁tournant	-10.945
▁écoulé	-10.945
▁attendait	-10.9451
▁Sâlih	-10.9451
▁récipient	-10.9451
▁Souvenez	-10.9451
▁paradis	-10.9452
▁construit	-10.9455
▁décision	-10.9458
▁onze	-10.9462
▁regardaient	-10.9468
▁pardonnez	-10.9472
▁couvrira	-10.9473
▁rive	-10.9474
▁nuits	-10.9479
▁mur	-10.9481
▁travaillent	-10.9481
▁restez	-10.9484
▁anciennes	-10.9486
mption	-10.9488
▁malheureux	-10.9489
▁fortune	-10.949
▁triompher	-10.9491
▁adorateurs	-10.9492
▁vi	-10.9495
▁persévérer	-10.9498
▁porteront	-10.9499
▁prête	-10.9502
▁infirmité	-10.9509
▁désormais	-10.951
▁pratiqu	-10.951
▁destiné	-10.9511
▁bénie	-10.9514
▁nier	-10.9518
▁docteurs	-10.9519
égarer	-10.9522
lier	-10.9527
▁argument	-10.953
▁Poi	-10.9536
▁jouir	-10.955
▁trou	-10.955
▁rapprocher	-10.9551
▁luxe	-10.9552
▁sud	-10.9556
▁désirent	-10.9558
▁dise	-10.9558
▁trahir	-10.9569
▁couvert	-10.9576
▁remplir	-10.9576
▁appelait	-10.9576
trèrent	-10.9578
▁veu	-10.9581
▁cessent	-10.9582
▁divisions	-10.9583
▁apprenne	-10.9584
▁décor	-10.9593
▁renvoya	-10.9595
▁visibles	-10.9597
▁intercession	-10.9599
▁habits	-10.9601
connaissant	-10.9603
▁corrompu	-10.9605
bern	-10.9605
▁mâles	-10.9614
▁mina	-10.9616
emmen	-10.9618
▁sable	-10.9624
▁menaces	-10.9624
▁ailes	-10.9641
inrent	-10.9642
▁lutter	-10.9644
É	-10.9645
▁Voy	-10.9659
▁prisonniers	-10.9663
▁Parc	-10.9664
▁épreuves	-10.9666
▁assise	-10.9668
▁gardent	-10.967
▁tirer	-10.967
▁verge	-10.968
▁envoyer	-10.9685
▁voleurs	-10.9687
▁agrément	-10.9688
▁saison	-10.9692
tournent	-10.9694
▁rage	-10.9701
▁couche	-10.9704
▁ressusciter	-10.971
▁raconter	-10.9718
▁répudie	-10.9732
▁an	-10.9734
▁asservi	-10.9738
▁mélange	-10.9744
▁entreront	-10.9752
▁plaisirs	-10.9757
mi	-10.9769
▁servira	-10.9772
▁préparer	-10.9776
▁atteindra	-10.9788
▁auras	-10.9792
oux	-10.9807
▁enjolivé	-10.9808
▁mettrai	-10.9813
seront	-10.9831
ch	-10.9846
aires	-10.9849
▁désiré	-10.9851
▁profiter	-10.9864
▁annonç	-10.9867
▁engagements	-10.9871
▁lait	-10.9881
]».	-10.9883
▁sûre	-10.9886
▁vignes	-10.9891
enverrai	-10.9894
T	-10.9896
▁captiv	-10.9898
▁Bé	-10.99
▁protecteurs	-10.9902
▁fermes	-10.9919
▁tache	-10.9922
▁imitat	-10.9926
aisance	-10.9931
cho	-10.9931
▁ramené	-10.9952
▁loup	-10.9954
▁mourra	-10.9972
▁trans	-10.9975
▁Éph	-10.9982
sa	-10.9989
▁confi	-10.9994
▁appellera	-11.0002
▁voué	-11.0006
▁prêcha	-11.0029
▁habit	-11.003
▁réjouiss	-11.0037
▁Commen	-11.0048
Acha	-11.0056
▁attribue	-11.0057
▁couper	-11.0057
▁parcouru	-11.0059
▁interdis	-11.006
▁nourri	-11.0062
▁construis	-11.0063
uge	-11.0064
Certains	-11.0067
▁accompliss	-11.0095
▁efface	-11.0098
▁ruine	-11.01
▁intention	-11.011
aussi	-11.0116
▁reconnaiss	-11.012
▁renonce	-11.0128
épouse	-11.0137
▁four	-11.014
▁ser	-11.0141
▁tourné	-11.016
▁Di	-11.0165
annonce	-11.0176
raient	-11.0193
hypr	-11.0198
▁commenc	-11.023
▁char	-11.0252
iens	-11.0253
▁murmur	-11.0262
ES	-11.027
▁servant	-11.0274
sion	-11.0295
▁accueille	-11.0303
▁passa	-11.0307
▁quitter	-11.0313
▁édifié	-11.0326
▁pousse	-11.0326
û	-11.0348
▁rang	-11.0354
▁renier	-11.0368
accroître	-11.0373
▁oublier	-11.0387
nts	-11.0401
▁enverra	-11.0405
Hélas	-11.0405
▁comble	-11.0406
Joseph	-11.041
▁sortira	-11.0412
▁clé	-11.0414
Ah	-11.0417
atteint	-11.0419
aurez	-11.0423
envoie	-11.0423
Haut	-11.0425
envoyer	-11.0425
atteindre	-11.0426
midi	-11.0428
vingt	-11.043
▁brille	-11.043
Adorez	-11.0431
incirconcis	-11.0432
▁Rom	-11.0432
étions	-11.0434
▁Galiléen	-11.0454
guidés	-11.0454
Cela	-11.0457
égarent	-11.0461
ls	-11.0481
appela	-11.0489
▁médit	-11.0498
▁réveill	-11.0525
▁ancien	-11.0534
hé	-11.0534
rait	-11.0539
▁étendue	-11.0545
▁joug	-11.0545
▁plante	-11.0545
▁lin	-11.0546
▁clan	-11.0546
▁pièce	-11.0549
▁nuage	-11.0549
▁délice	-11.0553
▁pourvu	-11.0554
▁connaisse	-11.0554
▁soutien	-11.0555
▁absent	-11.0556
▁honoré	-11.0557
▁écarté	-11.0559
▁délivré	-11.056
▁abondante	-11.0572
écarter	-11.0577
▁fleur	-11.0581
▁criminel	-11.0581
▁jeûn	-11.0584
ras	-11.059
ésormais	-11.059
▁parts	-11.0597
▁passage	-11.0601
im	-11.0605
▁Marc	-11.0613
▁invocation	-11.0639
▁armée	-11.0645
▁coin	-11.0647
▁tourner	-11.065
▁claire	-11.0658
isme	-11.0664
▁banni	-11.0668
▁élève	-11.0668
ième	-11.0671
▁récité	-11.0674
▁complète	-11.0676
▁Dominateur	-11.068
▁chandelier	-11.068
▁cinquième	-11.068
▁débiteur	-11.068
▁dépourvu	-11.068
▁maturité	-11.068
▁pénètre	-11.068
▁responsable	-11.068
▁résultat	-11.068
▁sacerdo	-11.068
▁sincérité	-11.068
▁soufre	-11.068
▁Corinth	-11.068
▁Soumis	-11.068
▁flanc	-11.068
▁Bethlé	-11.068
▁sciemment	-11.068
▁Endure	-11.068
▁Cilicie	-11.068
▁coalisés	-11.068
▁cultivateur	-11.068
▁pleuvoir	-11.068
▁misérable	-11.068
▁attribution	-11.068
▁huitième	-11.068
▁colline	-11.068
▁prétention	-11.0681
▁juive	-11.0681
avilissement	-11.0681
▁Sourate	-11.0681
▁purification	-11.0681
▁palais	-11.0681
▁imputé	-11.0681
▁comportement	-11.0681
▁vieillesse	-11.0682
▁procuré	-11.0682
▁fuite	-11.0683
▁séduire	-11.0683
▁divulguez	-11.0683
▁préparation	-11.0683
▁œuvraient	-11.0684
ébul	-11.0684
nani	-11.0684
▁fendre	-11.0685
▁asile	-11.0685
▁mendiant	-11.0686
▁calme	-11.0687
▁douce	-11.0689
▁prosternant	-11.069
▁introduit	-11.0691
▁jeunesse	-11.0691
▁résister	-11.0691
▁retient	-11.0691
▁répondront	-11.0691
▁ému	-11.0693
▁frais	-11.0694
opposent	-11.0694
▁suivront	-11.0697
▁durée	-11.07
▁hauteur	-11.0702
▁Ayez	-11.0703
▁pleurez	-11.0703
▁Demeure	-11.0703
▁pèlerinage	-11.0705
▁Demandez	-11.0708
▁lèvres	-11.0708
▁bi	-11.0709
▁moutons	-11.0709
▁châtiés	-11.071
▁fureur	-11.0712
▁Donnez	-11.0713
▁observé	-11.0715
▁brûleront	-11.0718
▁regardez	-11.0719
▁refusé	-11.0722
▁acheté	-11.0724
▁néant	-11.0726
▁accusé	-11.0726
obtenir	-11.0726
▁obéissants	-11.0728
approcher	-11.0729
▁acte	-11.073
Quan	-11.0733
▁agrée	-11.0733
▁roc	-11.0734
▁instruction	-11.0736
▁descendait	-11.0737
▁ressuscitent	-11.0738
▁recherchent	-11.0739
▁figure	-11.0739
▁quiétude	-11.0741
▁inflige	-11.0741
▁avancer	-11.0742
▁participer	-11.0742
▁touchera	-11.0743
▁dirigeant	-11.0744
▁Lys	-11.0746
▁Allons	-11.0746
▁ordonnance	-11.0747
▁emmené	-11.0747
▁accusations	-11.0747
▁Cieux	-11.0749
▁précédés	-11.0749
▁vaincre	-11.0751
▁mortel	-11.0754
▁confirmer	-11.0761
Attendez	-11.0762
▁outranciers	-11.0763
▁Demande	-11.0765
▁regardent	-11.0769
▁invisible	-11.0771
▁atteindre	-11.0775
▁acheter	-11.0777
▁jambes	-11.0781
▁favorisés	-11.0781
▁coupables	-11.0782
▁expulser	-11.0785
▁crient	-11.0785
▁endurci	-11.0786
▁associe	-11.0788
▁espère	-11.0789
▁sachent	-11.0791
▁délier	-11.0792
▁aliments	-11.0792
▁dépos	-11.0792
▁anéantir	-11.0796
▁raconté	-11.0797
▁ador	-11.0797
▁scellés	-11.08
▁lapider	-11.0801
▁récompensé	-11.0805
▁vanter	-11.0807
▁raconte	-11.0816
▁mentir	-11.0817
▁camp	-11.0819
▁confirma	-11.0825
▁trancher	-11.0828
▁rêves	-11.0835
vèrent	-11.0838
▁couler	-11.0844
▁condamner	-11.0853
▁Mag	-11.0856
▁voler	-11.0857
▁crime	-11.0862
▁livr	-11.087
▁menti	-11.0872
▁amère	-11.0873
▁subsiste	-11.0874
▁pi	-11.0877
▁dés	-11.089
▁coupé	-11.0899
▁Tro	-11.0903
▁indigne	-11.0903
▁hypocrisie	-11.0906
▁vierges	-11.0908
▁vante	-11.0909
▁Apportez	-11.0911
non	-11.0915
▁retrouver	-11.0916
inclinent	-11.0923
irai	-11.0924
▁abandonner	-11.0926
▁cont	-11.0931
▁revêt	-11.0933
▁attendent	-11.0936
▁réciter	-11.0941
▁licites	-11.0942
▁placent	-11.0964
▁brisé	-11.0968
▁relâche	-11.0972
▁revenu	-11.0972
éclair	-11.0975
▁Entrez	-11.0976
viens	-11.0979
▁établis	-11.0979
▁é	-11.0989
▁réservée	-11.1003
▁rassembler	-11.1007
▁reçue	-11.1014
▁versa	-11.1021
▁essay	-11.1029
▁sors	-11.1033
hèse	-11.1041
▁immoralité	-11.1041
▁ventres	-11.1043
▁récits	-11.1049
▁vivante	-11.1053
ssement	-11.1055
▁imposer	-11.1059
▁embrasse	-11.1063
▁li	-11.1075
▁dép	-11.1083
▁perplexe	-11.109
tant	-11.1093
▁noir	-11.1113
▁datte	-11.1115
▁comparaîtr	-11.1118
▁entrera	-11.1121
▁lits	-11.1129
ves	-11.1145
▁arrach	-11.1158
quer	-11.1164
▁regret	-11.1165
appelez	-11.1173
▁intérieure	-11.1173
▁saisi	-11.1173
▁plan	-11.1179
▁plaça	-11.1181
esquels	-11.1183
aïd	-11.1194
Éli	-11.1198
▁offense	-11.1204
▁permettre	-11.1208
▁profère	-11.1213
▁ba	-11.1217
]!	-11.122
▁médi	-11.1222
venus	-11.1241
▁établir	-11.1251
▁travaille	-11.1273
▁arde	-11.1287
▁refuse	-11.1296
▁acquitt	-11.13
▁apprendre	-11.1301
▁exécut	-11.1312
enfuir	-11.1317
▁évidents	-11.1318
▁ajoutera	-11.1318
obéis	-11.1327
Sa	-11.1329
▁compt	-11.1341
▁Crucifie	-11.1347
▁interprétation	-11.1353
adore	-11.1358
▁procure	-11.1364
▁rendrai	-11.1375
ilité	-11.1384
▁rassembla	-11.1393
▁nié	-11.1399
▁mot	-11.1404
▁puiss	-11.1411
▁briller	-11.1421
▁cha	-11.1422
▁révéler	-11.1425
Ma	-11.1442
ique	-11.1448
▁gé	-11.1475
▁form	-11.1479
évi	-11.1483
enfui	-11.1492
▁mûr	-11.1503
▁vide	-11.1512
▁interdits	-11.1514
▁passés	-11.1515
interrog	-11.1526
▁régn	-11.1534
[	-11.1535
rain	-11.1539
▁fus	-11.155
ins	-11.1557
▁expliqu	-11.156
▁regardai	-11.1567
▁Ga	-11.157
▁rapporte	-11.1572
bel	-11.1583
▁profonde	-11.1586
éloigne	-11.1588
▁écouter	-11.1588
▁tr	-11.1589
▁prononce	-11.1598
▁lapid	-11.1608
▁sacrifiée	-11.1613
béissez	-11.1616
ro	-11.1623
▁empêch	-11.1623
▁chante	-11.1637
▁so	-11.1642
ible	-11.1658
▁hauts	-11.166
▁endurcis	-11.166
▁écrite	-11.1675
▁résiste	-11.1686
oubli	-11.1687
▁pos	-11.1691
▁sanctifie	-11.1717
▁décidera	-11.1723
Celui	-11.1729
héritier	-11.173
nce	-11.1732
▁to	-11.1736
▁demi	-11.1741
ô	-11.1751
▁tourment	-11.1754
▁promise	-11.1766
▁graine	-11.1774
étr	-11.18
▁averti	-11.1809
moins	-11.1829
ailleurs	-11.183
ram	-11.1831
▁posé	-11.1838
▁présenta	-11.1838
Unique	-11.1843
▁Asi	-11.1843
▁laver	-11.1843
hypocrisie	-11.1855
accusation	-11.1856
offrande	-11.1857
Apportez	-11.1857
ignorance	-11.1858
élève	-11.186
adorez	-11.1865
attendent	-11.1866
affaire	-11.1867
▁naturel	-11.1885
▁attaché	-11.19
▁divers	-11.1905
élèver	-11.1905
▁compr	-11.1907
▁purs	-11.1908
ma	-11.1915
▁Ét	-11.1927
▁viol	-11.1935
▁reniera	-11.1937
U	-11.1937
▁confie	-11.194
▁légère	-11.1947
▁solennel	-11.1948
▁grosse	-11.1956
▁familles	-11.1961
▁méprise	-11.1963
asservis	-11.1963
ias	-11.1964
▁largesse	-11.1969
▁préféré	-11.197
▁conséquence	-11.197
▁créature	-11.1971
▁Jardin	-11.1975
▁scellé	-11.1978
▁persécuté	-11.1981
▁transgresseur	-11.1984
▁mention	-11.1984
▁élev	-11.1986
▁changé	-11.1987
▁secte	-11.1992
▁sonna	-11.2001
▁humble	-11.2008
▁aliment	-11.2008
▁Cherch	-11.2013
dedans	-11.2015
▁assigne	-11.2029
▁rappelé	-11.2031
▁fermé	-11.2035
attend	-11.204
▁mêlé	-11.2053
▁offr	-11.2064
▁menaça	-11.2075
▁Ange	-11.2076
Au	-11.2077
▁presse	-11.2078
enseigner	-11.2087
▁fouet	-11.2087
mes	-11.2089
▁reçoive	-11.209
▁trouble	-11.21
▁Jér	-11.2102
▁Pardonne	-11.2103
▁Laodicée	-11.2109
▁Souverain	-11.2109
▁cadavre	-11.2109
▁corrupteurs	-11.2109
▁générosité	-11.2109
▁malhonnête	-11.2109
▁navigu	-11.2109
▁opportun	-11.2109
▁propriété	-11.2109
▁préalable	-11.2109
▁rivalité	-11.2109
▁éphémère	-11.2109
▁modèle	-11.2109
▁Honore	-11.2109
▁Nathan	-11.2109
▁cristal	-11.2109
▁gueule	-11.2109
▁atome	-11.2109
▁langage	-11.2109
▁lointain	-11.2109
allégresse	-11.2109
▁divans	-11.2109
▁cupidité	-11.2109
▁réussissiez	-11.2109
▁Baptiseur	-11.2109
▁noyau	-11.2109
▁accoudés	-11.2109
échappatoire	-11.2109
▁minuit	-11.2109
▁souveraineté	-11.2109
▁zélé	-11.2109
▁Bientôt	-11.2109
▁différence	-11.2109
▁Sabbat	-11.2109
▁accouché	-11.2109
▁majest	-11.2109
▁incorruptible	-11.2109
▁continuellement	-11.2109
▁Face	-11.2109
▁supplication	-11.2109
▁brûle	-11.211
▁Cana	-11.211
▁Gardez	-11.211
▁déshonneur	-11.211
▁détourna	-11.211
▁médecin	-11.211
▁confusion	-11.211
▁malice	-11.211
▁paître	-11.2111
▁étrangère	-11.2111
▁prétendiez	-11.2111
▁torrent	-11.2111
▁Cyr	-11.2111
▁beauté	-11.2111
étang	-11.2111
▁soupir	-11.2111
▁comprenaient	-11.2111
▁ramener	-11.2111
▁exposons	-11.2111
▁colonne	-11.2111
aël	-11.2112
▁magnifique	-11.2112
drin	-11.2112
▁fermeté	-11.2112
▁dépôt	-11.2112
▁succéder	-11.2112
▁festin	-11.2112
▁désespèrent	-11.2113
▁retenez	-11.2113
▁raisonniez	-11.2114
▁suffira	-11.2115
▁rejeter	-11.2115
▁retarder	-11.2115
▁reconnurent	-11.2116
▁Écri	-11.2117
▁santé	-11.2118
thène	-11.2119
▁reçois	-11.2119
▁inutile	-11.2119
▁millier	-11.2122
▁permanent	-11.2122
▁souper	-11.2122
▁desséchée	-11.2122
▁construire	-11.2122
▁miel	-11.2123
▁ajouter	-11.2126
▁surface	-11.2126
▁plaît	-11.2127
▁principauté	-11.2127
▁différentes	-11.2127
▁pêcheur	-11.2128
▁désireront	-11.2128
▁discute	-11.2129
▁portait	-11.2132
▁endurent	-11.2133
▁Hûd	-11.2135
▁stade	-11.2135
▁Rendez	-11.2136
▁congé	-11.2136
▁Sinon	-11.2137
eussent	-11.2138
▁interrompu	-11.2139
▁mentionné	-11.214
▁supportez	-11.214
▁apparaître	-11.214
▁prétend	-11.214
▁travailler	-11.214
▁transcend	-11.2141
▁moquent	-11.2141
▁rivières	-11.2142
▁malfaiteurs	-11.2142
▁voiture	-11.2143
▁approuvé	-11.2144
▁accordons	-11.2145
▁édifier	-11.2145
▁tournez	-11.2146
▁refus	-11.2146
▁vipère	-11.2148
▁retirer	-11.2149
▁attendons	-11.2153
▁discerner	-11.2154
▁sublime	-11.2154
▁dommage	-11.2154
▁avertissement	-11.2155
▁saluer	-11.2155
▁avertit	-11.2156
▁méritent	-11.2161
▁miens	-11.2161
▁raffermir	-11.2163
▁rapprochés	-11.2163
▁parlaient	-11.2164
▁renient	-11.2164
amenèrent	-11.2168
▁projet	-11.2168
▁heureux	-11.2171
▁marchez	-11.2171
▁absence	-11.2173
▁temporaire	-11.2173
▁avares	-11.2177
▁oublie	-11.218
▁éclairer	-11.218
ses	-11.2183
erons	-11.2184
▁mosquées	-11.2184
▁bandes	-11.2184
▁tomberont	-11.2185
▁équivalent	-11.219
▁public	-11.219
▁couleurs	-11.2192
▁aille	-11.2193
▁présentèrent	-11.2194
▁Jos	-11.2197
▁savants	-11.2198
▁venger	-11.22
▁gorge	-11.22
▁Muhammad	-11.2203
▁illicites	-11.2205
▁prescriptions	-11.2205
▁équitables	-11.2206
▁objets	-11.2206
▁h	-11.2212
▁Gabriel	-11.2213
▁offrande	-11.2214
▁reposer	-11.2218
▁race	-11.222
suscité	-11.222
ler	-11.2221
▁Dites	-11.2224
▁adversaires	-11.2226
▁repentant	-11.2226
éloigner	-11.2227
▁cher	-11.2228
▁persécutions	-11.2228
▁guidera	-11.2229
▁man	-11.2231
▁rendons	-11.2232
▁accorder	-11.2235
▁éleva	-11.2236
▁tendre	-11.2238
▁aider	-11.2242
▁renvoyé	-11.2246
▁odeur	-11.2252
▁tourmenté	-11.2253
▁saurait	-11.2254
▁mission	-11.2254
▁rencontrent	-11.2258
▁précipité	-11.2268
interroger	-11.2269
▁Repent	-11.2269
▁tourments	-11.2269
nés	-11.2269
▁délivrés	-11.2269
▁déposa	-11.227
mpara	-11.227
▁condamne	-11.2276
▁plantes	-11.2276
▁revêtir	-11.2277
▁réconforté	-11.2282
▁dément	-11.2282
▁chanta	-11.2283
▁direz	-11.2285
▁étoile	-11.2286
ensevelir	-11.2296
tez	-11.2299
▁instant	-11.23
▁Aux	-11.2305
▁tentes	-11.2307
▁comptent	-11.2307
▁troublés	-11.2308
▁doutent	-11.231
▁salutations	-11.232
▁baissa	-11.2323
▁récolter	-11.2325
▁ramène	-11.2329
▁inattentifs	-11.2332
▁vole	-11.2334
▁divine	-11.2337
erie	-11.2339
▁exhort	-11.235
invoquer	-11.2358
▁venez	-11.2359
ndre	-11.2361
▁conduis	-11.2363
▁commune	-11.2366
veniez	-11.2374
exhorte	-11.2376
▁sincères	-11.2379
▁leçon	-11.2386
▁augmente	-11.2387
Râ	-11.2395
▁plume	-11.24
▁réserve	-11.2401
▁secoué	-11.2406
▁hébr	-11.241
▁midi	-11.241
▁secrètes	-11.2413
▁promet	-11.2423
▁persévér	-11.243
▁cendre	-11.2433
▁siens	-11.2436
▁exposés	-11.2439
▁dresser	-11.2442
▁passez	-11.2442
▁arc	-11.2451
interroge	-11.2454
▁règles	-11.2457
▁passera	-11.2465
▁As	-11.2471
▁étroite	-11.2483
▁réprimanda	-11.2484
▁mesurer	-11.2492
ations	-11.2496
▁sem	-11.2498
▁épargner	-11.2501
▁montr	-11.2503
▁rendues	-11.2522
▁clairs	-11.2523
▁boirai	-11.2533
▁mondes	-11.2533
▁éloigné	-11.254
▁flageller	-11.2544
▁arracher	-11.2549
▁ouïe	-11.2551
▁idolâtre	-11.2551
▁ru	-11.2554
▁partager	-11.2556
▁Jo	-11.2559
▁loua	-11.256
▁contrainte	-11.2563
▁endurance	-11.257
▁suppos	-11.2575
▁trahiss	-11.2578
contre	-11.2583
▁haï	-11.2586
▁excit	-11.2587
▁précipit	-11.2593
▁appelez	-11.2598
▁entraîne	-11.2599
entends	-11.2612
▁écriv	-11.2615
sent	-11.2616
▁linge	-11.2617
▁perpétu	-11.2626
▁passent	-11.263
▁brûlée	-11.2641
bo	-11.2647
▁naturelle	-11.2649
▁Paix	-11.265
▁oreille	-11.2655
▁Ho	-11.2669
▁continu	-11.2687
▁abandonn	-11.2694
ite	-11.2705
▁porc	-11.2715
▁rejetée	-11.2731
▁contes	-11.2735
▁pluies	-11.2742
▁crucifier	-11.2742
▁agité	-11.2759
▁br	-11.2764
▁accomplir	-11.2769
taient	-11.2773
▁invoqu	-11.2777
▁exterminé	-11.2781
▁dite	-11.2789
▁chance	-11.2797
▁béniss	-11.2799
▁impos	-11.2808
nna	-11.2828
père	-11.2832
▁invoqua	-11.2832
obéit	-11.2837
▁prophétise	-11.2838
]?»	-11.2841
▁san	-11.2843
ccomplissez	-11.2857
▁méprisé	-11.286
ants	-11.2861
donnait	-11.2874
▁commencer	-11.2892
sans	-11.2903
▁trouvée	-11.2917
alité	-11.2918
▁accepte	-11.2921
▁pourra	-11.2927
▁époux	-11.2931
ge	-11.2933
▁fermer	-11.2954
▁approchai	-11.2977
ifs	-11.2978
ium	-11.2993
lo	-11.2999
▁puissante	-11.3
▁achet	-11.3003
▁tribun	-11.3005
▁persist	-11.3013
ni	-11.3017
▁mo	-11.3022
élevez	-11.3038
▁vendre	-11.3042
▁quitte	-11.3043
tous	-11.305
habite	-11.3053
▁ac	-11.3065
use	-11.3065
fois	-11.3067
associer	-11.3069
▁posa	-11.3071
▁All	-11.3096
▁excuse	-11.3098
▁retombe	-11.3102
▁régner	-11.3115
oint	-11.3118
▁convi	-11.3122
envoy	-11.3131
▁Avan	-11.3132
▁stricte	-11.314
▁subi	-11.3144
▁dissimul	-11.3146
éri	-11.3158
lé	-11.3179
▁secour	-11.3184
▁commettra	-11.3197
mon	-11.3198
▁permi	-11.3199
▁position	-11.3204
M	-11.3217
▁effacer	-11.3232
disant	-11.3274
▁adressa	-11.3277
mba	-11.3283
▁Ép	-11.33
bba	-11.3306
vos	-11.3307
▁failli	-11.3308
▁susciter	-11.3309
▁chassa	-11.3311
▁montrera	-11.3315
▁tourna	-11.3318
▁Sam	-11.3318
▁persécut	-11.3322
▁tromp	-11.3326
▁mor	-11.3347
▁tombé	-11.3356
pe	-11.3359
approche	-11.336
'[	-11.3377
▁risque	-11.3377
▁évit	-11.3378
ments	-11.3381
▁baptise	-11.3384
excuser	-11.3386
▁nourris	-11.3393
▁méchant	-11.3394
Ceux	-11.3404
▁renvoy	-11.3406
accompagn	-11.3424
▁précéder	-11.3431
▁nient	-11.3438
habitude	-11.3444
aigre	-11.3448
▁posséd	-11.3449
association	-11.3462
état	-11.3463
▁terreur	-11.3464
▁poursuit	-11.3469
Ordre	-11.347
inimitié	-11.3473
▁perfection	-11.3473
ieds	-11.3485
mis	-11.3486
▁repenti	-11.3487
▁convoit	-11.3493
effroi	-11.3495
▁bâtiss	-11.3498
▁agiss	-11.3499
opprobre	-11.3508
Satan	-11.351
▁exige	-11.3511
▁Néa	-11.3512
Amenez	-11.3513
existe	-11.3517
intercession	-11.3521
objet	-11.3523
Croyez	-11.3523
humilité	-11.3523
intérêt	-11.3524
environ	-11.3528
▁secou	-11.353
Anges	-11.3531
âge	-11.3531
▁épouser	-11.3535
épit	-11.3535
▁ramèner	-11.3543
▁issu	-11.3544
neuf	-11.3545
endroit	-11.3549
▁défend	-11.3551
adorent	-11.3559
▁agréé	-11.3563
▁possédai	-11.3574
▁ébranlé	-11.3582
▁espér	-11.3583
▁visite	-11.3583
échapper	-11.3592
▁doutes	-11.3592
▁boira	-11.3595
▁sanction	-11.3605
▁Couchant	-11.3612
▁gratuite	-11.3612
▁préservé	-11.3614
▁enseveli	-11.362
▁Nazaréen	-11.3625
▁marchandise	-11.3635
enant	-11.3638
▁élément	-11.3638
▁incrédule	-11.3638
accompl	-11.364
▁jambe	-11.364
▁persécution	-11.3641
▁docteur	-11.3642
▁coupable	-11.3642
▁djinn	-11.3642
▁fi	-11.3643
▁profondeur	-11.3644
▁mers	-11.3644
▁voyageur	-11.3648
▁empêché	-11.365
établir	-11.3653
▁complet	-11.3654
▁déçu	-11.3656
▁branche	-11.366
▁vert	-11.366
▁endurant	-11.3662
▁sourd	-11.3666
▁adversaire	-11.3669
venez	-11.3672
▁lancé	-11.3678
gie	-11.3679
▁ignorant	-11.3682
▁retard	-11.3691
▁inter	-11.3695
▁Ch	-11.3696
▁couple	-11.3703
▁favorisé	-11.3714
▁pensé	-11.3723
▁chassé	-11.3727
▁opposé	-11.3728
▁obéir	-11.3735
nd	-11.3735
▁proclam	-11.3738
▁danger	-11.3739
▁tab	-11.3739
ja	-11.3742
▁disparu	-11.375
▁allumé	-11.3751
inq	-11.3754
▁Nico	-11.3758
▁impie	-11.3761
oyer	-11.3763
▁comparer	-11.3763
▁fass	-11.3767
▁patie	-11.3768
▁sollicit	-11.3768
ssiez	-11.3772
▁fraîche	-11.3772
▁prédicat	-11.3774
improviste	-11.3775
▁Chuayb	-11.3775
▁Hypocrite	-11.3775
▁Médine	-11.3775
▁Protecteur	-11.3775
▁bavard	-11.3775
▁bracelet	-11.3775
▁camarade	-11.3775
▁cataclysme	-11.3775
▁clarté	-11.3775
▁combustible	-11.3775
▁efficac	-11.3775
▁harmonieusement	-11.3775
▁impérissable	-11.3775
▁mercenaire	-11.3775
▁méthode	-11.3775
▁quelconque	-11.3775
▁scorpion	-11.3775
▁successeurs	-11.3775
▁végétation	-11.3775
▁Annonce	-11.3775
▁buisson	-11.3775
▁hasard	-11.3775
▁séducteur	-11.3775
▁vertueuses	-11.3775
▁Hâmân	-11.3775
▁Hébreu	-11.3775
▁pâturage	-11.3775
▁pénible	-11.3775
▁mémoire	-11.3775
▁résidence	-11.3775
immortali	-11.3775
▁réputation	-11.3775
▁grenier	-11.3775
Eden	-11.3775
impuissance	-11.3775
▁conflit	-11.3775
▁Mecquois	-11.3776
▁Prisc	-11.3776
▁Galatie	-11.3776
▁vieillard	-11.3776
▁originaire	-11.3776
▁besogneux	-11.3776
▁retraite	-11.3776
▁fracas	-11.3776
▁captif	-11.3776
▁chasteté	-11.3776
▁vengeance	-11.3776
▁totalement	-11.3776
▁divergeaient	-11.3776
▁interpréter	-11.3776
▁facilité	-11.3776
▁Vivant	-11.3776
▁fraude	-11.3776
▁discorde	-11.3776
▁irrité	-11.3776
▁résolution	-11.3776
▁Reconnaissant	-11.3776
▁épargné	-11.3776
▁séparation	-11.3777
▁disponible	-11.3777
▁Juge	-11.3777
▁calomniateur	-11.3777
▁Jusqu	-11.3777
▁dixième	-11.3777
▁prédication	-11.3777
phyl	-11.3777
▁Thessalonique	-11.3777
▁raisonnable	-11.3778
▁proclamer	-11.3778
▁construction	-11.3778
▁renvoie	-11.3778
▁mourrez	-11.3779
▁valet	-11.3779
intercède	-11.3779
▁chameaux	-11.3779
▁apparaîtra	-11.3779
obscurité	-11.3779
▁plage	-11.3779
▁glorieux	-11.3779
▁Sîn	-11.378
▁détiennent	-11.378
▁récitation	-11.3781
▁exalté	-11.3782
▁voudront	-11.3782
▁nourrissez	-11.3782
▁rétribuons	-11.3782
▁œuvré	-11.3782
▁divulguent	-11.3782
▁attendre	-11.3783
tier	-11.3784
▁fosse	-11.3784
▁sentiment	-11.3785
▁profér	-11.3785
▁misère	-11.3785
▁revenez	-11.3786
▁refait	-11.3787
▁craindrez	-11.3787
▁adorons	-11.3788
▁confus	-11.3788
▁invoqué	-11.3788
▁soumettez	-11.3788
▁Cherchez	-11.3788
▁terrifié	-11.3789
culté	-11.379
▁mienne	-11.379
▁bagages	-11.379
▁constant	-11.379
▁fournit	-11.3791
▁consoler	-11.3791
▁quatorze	-11.3791
▁sauterelles	-11.3791
▁concert	-11.3791
▁sentiers	-11.3791
▁rappellera	-11.3792
▁finale	-11.3792
▁transportés	-11.3793
▁coucher	-11.3796
▁répudier	-11.3796
▁assidu	-11.3797
▁ressent	-11.3797
▁reine	-11.3798
▁moquer	-11.3798
▁disputez	-11.3801
▁terrain	-11.3804
▁librement	-11.3804
▁vînt	-11.3804
▁soulève	-11.3805
▁subiront	-11.3806
▁glorifiant	-11.3806
▁profite	-11.3806
▁Sinaï	-11.3806
▁suffisant	-11.3807
▁Révélation	-11.3807
▁Rien	-11.3809
▁lois	-11.3809
▁oblige	-11.3809
▁collecteur	-11.381
▁croirez	-11.381
▁simplement	-11.3811
▁assignent	-11.3812
▁surveillant	-11.3814
▁repens	-11.3814
vait	-11.3815
sez	-11.3815
▁cordes	-11.3815
▁expulsés	-11.3816
▁abreuvés	-11.3816
▁talons	-11.3817
▁usé	-11.3817
▁boirez	-11.3818
▁adopté	-11.3818
▁rechercher	-11.3818
▁lourd	-11.3821
▁Dé	-11.3821
▁agissez	-11.3822
▁refusent	-11.3823
▁œuvrez	-11.3824
▁Ka	-11.3825
▁Chu	-11.3825
unir	-11.3825
▁désirons	-11.3826
▁crié	-11.3827
▁retiré	-11.3829
ger	-11.383
▁habitation	-11.383
▁marchand	-11.383
▁protègent	-11.3831
▁arriveront	-11.3832
▁dépouillé	-11.3832
▁aimerait	-11.3834
▁tourmente	-11.3836
▁engagés	-11.3837
▁noyés	-11.3838
▁hôtes	-11.3841
▁chastes	-11.3842
ssons	-11.3842
▁prêter	-11.3844
▁réconcilié	-11.3847
▁visiteur	-11.3852
▁ju	-11.3852
▁emporter	-11.3853
▁cherchiez	-11.3855
▁participant	-11.3855
ud	-11.3855
▁désirez	-11.3856
▁obscurci	-11.3857
▁extrait	-11.3859
▁épis	-11.386
▁allions	-11.3861
▁surgir	-11.3862
Es	-11.3863
▁comparable	-11.3863
▁accompagné	-11.3864
▁voulais	-11.3864
▁rencontré	-11.3864
iller	-11.3864
▁efforts	-11.3865
▁attristés	-11.3865
▁cupide	-11.3865
▁exhorté	-11.3868
p	-11.3868
▁proclamé	-11.3875
▁doté	-11.3877
▁détruites	-11.3877
▁conserver	-11.3879
▁Serviteur	-11.3879
▁écartent	-11.388
▁repoussé	-11.3881
▁prononcée	-11.3881
▁aperçu	-11.3883
▁sers	-11.3883
erions	-11.3884
▁flots	-11.3885
▁Ty	-11.3891
▁Alexandr	-11.3891
leine	-11.3893
▁confirmé	-11.3894
▁musulmans	-11.3896
▁verts	-11.3898
▁excès	-11.3898
▁Iblis	-11.3898
▁Suivez	-11.3899
▁retourné	-11.3901
▁choisit	-11.3901
▁enseignera	-11.3902
▁ra	-11.3902
▁diraient	-11.3904
▁Montre	-11.3904
▁parvient	-11.3907
endurcisse	-11.3911
▁chassés	-11.3914
▁incrédules	-11.3914
▁éléments	-11.3915
▁empêchés	-11.392
Certainement	-11.392
▁purifiées	-11.3921
▁supporté	-11.3922
▁hier	-11.3924
▁troubles	-11.3933
▁vogue	-11.3934
▁persuad	-11.3934
▁labour	-11.3936
▁sectes	-11.3938
▁héritier	-11.3939
▁créatures	-11.3941
▁gratuit	-11.3941
▁intercesseurs	-11.3942
▁eunuque	-11.3944
▁persécutés	-11.3945
▁disais	-11.3946
▁généalogie	-11.3948
▁adoration	-11.3948
▁lecture	-11.3949
▁Ass	-11.3949
▁tourn	-11.3952
▁cuir	-11.3956
▁confiant	-11.3956
▁adoré	-11.3957
▁visiter	-11.3963
enveloppa	-11.3966
▁écartés	-11.3967
▁engendré	-11.3968
▁disposer	-11.3969
Arist	-11.397
▁dominer	-11.3973
▁mangea	-11.3975
ph	-11.3978
▁prosterne	-11.3983
heureuse	-11.3991
▁fleuves	-11.3991
▁continuer	-11.3996
enaient	-11.3999
aba	-11.4
▁abus	-11.4002
liés	-11.4002
▁ouvertes	-11.4003
▁Dém	-11.4005
▁élevée	-11.4007
▁paysan	-11.4011
▁remplacer	-11.4013
▁doigts	-11.4017
▁difficultés	-11.4017
▁plateau	-11.4018
▁conjectures	-11.4019
▁égar	-11.4024
▁confier	-11.4026
▁préserve	-11.4028
▁écoutai	-11.4032
▁comptés	-11.4036
▁dévor	-11.4037
Va	-11.4038
▁Mi	-11.4039
▁voudra	-11.4044
▁ép	-11.4046
▁sén	-11.4046
▁croyante	-11.4047
▁sacrés	-11.4051
▁soie	-11.4059
issez	-11.4059
▁souven	-11.4064
▁consolé	-11.407
▁femelles	-11.4093
rirent	-11.4094
▁«[	-11.4096
▁lier	-11.4114
▁nôtre	-11.4115
▁gér	-11.4119
▁observa	-11.4134
▁Fé	-11.4134
▁Haut	-11.4135
▁muets	-11.4139
observe	-11.414
▁augmenter	-11.4146
▁précise	-11.4147
▁étrange	-11.4157
ak	-11.4157
▁louer	-11.4162
élever	-11.4171
▁ro	-11.4177
née	-11.4178
Puis	-11.4178
▁blâme	-11.4193
▁avertisse	-11.4199
▁chargés	-11.4205
▁lion	-11.4214
▁dieu	-11.4219
hiver	-11.423
ius	-11.423
▁dépouill	-11.424
▁appr	-11.4245
ourage	-11.426
offrir	-11.4262
int	-11.4274
▁regardé	-11.4275
▁perdus	-11.428
ortez	-11.429
tienne	-11.43
viez	-11.4301
▁haïr	-11.4308
euse	-11.4316
▁répandi	-11.4318
▁rejet	-11.4328
▁Ah	-11.4346
impudique	-11.4354
▁taise	-11.4358
▁divisée	-11.436
▁circuler	-11.436
iel	-11.4363
ri	-11.4363
▁marchan	-11.4365
▁grains	-11.4375
▁venge	-11.4381
▁rétabli	-11.4383
um	-11.4384
▁tâche	-11.4409
mé	-11.4411
at	-11.4419
▁appren	-11.4419
▁asseoir	-11.4422
osité	-11.4435
▁scelle	-11.4436
▁créées	-11.4438
attach	-11.4442
▁affermi	-11.4467
▁rendue	-11.4473
▁fondé	-11.4475
▁batt	-11.4478
Hérodia	-11.4478
provenant	-11.4483
▁devin	-11.4491
che	-11.4491
▁al	-11.4495
hier	-11.4509
▁tombes	-11.4512
▁rétribuera	-11.4516
▁enveloppé	-11.4523
▁trace	-11.4533
▁Jose	-11.4534
espoir	-11.4536
▁base	-11.4544
rète	-11.455
ron	-11.4556
▁pires	-11.4559
▁confirm	-11.4562
▁aurai	-11.4572
▁exception	-11.4581
▁soumett	-11.4581
▁détruira	-11.4586
▁troqu	-11.4588
▁souffl	-11.4591
chique	-11.4598
▁lot	-11.4607
▁veiller	-11.4608
tournèrent	-11.4612
▁penses	-11.4621
▁refusa	-11.4629
▁glorifierai	-11.463
▁agneau	-11.4632
▁dévore	-11.4639
▁persiste	-11.4643
paraîtra	-11.4644
▁interrogea	-11.4644
▁imposa	-11.4646
▁Comm	-11.4646
▁répondra	-11.4651
▁exact	-11.4651
vions	-11.4652
▁chemins	-11.4655
▁agréables	-11.4661
▁appartena	-11.4662
attachera	-11.4673
▁ouvrir	-11.4688
▁accroît	-11.4691
q	-11.47
▁égale	-11.4708
▁dépasse	-11.4709
▁parties	-11.4709
▁Tar	-11.4721
▁clou	-11.4723
lez	-11.4728
▁abaissé	-11.4731
▁dél	-11.4755
▁buv	-11.4763
▁produis	-11.4783
▁redout	-11.4801
allait	-11.4802
▁détach	-11.4805
▁Ko	-11.4814
▁pay	-11.4817
▁laissera	-11.4826
▁important	-11.4832
▁grince	-11.4837
▁brûl	-11.4837
exhorter	-11.4838
▁rem	-11.4839
icité	-11.4855
oppose	-11.4856
▁élevés	-11.4861
▁souffr	-11.4861
▁chass	-11.4886
action	-11.4889
amener	-11.489
▁croira	-11.4898
▁brûlé	-11.4901
ex	-11.4908
▁hor	-11.4927
impose	-11.4927
▁gaspill	-11.4951
▁préfère	-11.4972
▁lèvera	-11.4974
▁permet	-11.4977
▁redonner	-11.4978
▁déclar	-11.4981
acte	-11.4982
▁Salut	-11.4982
donnèrent	-11.5009
▁...	-11.5009
▁rencontr	-11.5018
▁joui	-11.5023
▁pleurai	-11.5026
bou	-11.5038
▁adressé	-11.504
connaissiez	-11.5046
▁renie	-11.5073
▁concour	-11.5083
▁mette	-11.509
ise	-11.5094
eille	-11.5094
core	-11.51
▁puiser	-11.5125
▁considér	-11.5127
▁sortie	-11.5131
Ces	-11.5152
ab	-11.5157
ble	-11.5162
▁trahi	-11.5162
▁sauvée	-11.5164
▁désobéir	-11.5173
parmi	-11.5174
amenez	-11.5174
▁endure	-11.5181
▁ois	-11.5182
▁Pens	-11.5183
invoque	-11.5185
▁Bi	-11.5199
entendra	-11.52
ort	-11.5203
▁laine	-11.5213
▁rassemble	-11.5216
▁Pense	-11.5228
toire	-11.5237
ka	-11.5242
▁convoqu	-11.5243
▁manquer	-11.5247
▁haïs	-11.5247
▁accept	-11.5247
▁couvr	-11.527
▁prescrite	-11.5277
faire	-11.5297
▁renvers	-11.5297
▁fatigue	-11.5304
▁tienne	-11.5307
be	-11.532
▁préci	-11.5329
bien	-11.5329
accuser	-11.5339
▁Com	-11.5346
origine	-11.5351
Seul	-11.5351
testable	-11.5354
Quel	-11.5357
▁pardonn	-11.5358
▁affermis	-11.5362
si	-11.5365
gue	-11.5371
▁crach	-11.5381
▁rep	-11.5396
▁convoite	-11.5427
▁choisir	-11.5432
▁déclare	-11.5435
▁gr	-11.5449
impôt	-11.5454
oi	-11.5456
▁remont	-11.5464
alternance	-11.5469
anciens	-11.547
gramme	-11.5473
dirent	-11.5474
▁mendi	-11.5478
▁éman	-11.5479
encens	-11.5484
▁permett	-11.5484
Sors	-11.5485
agrée	-11.5487
ence	-11.5487
éhen	-11.5488
amena	-11.549
▁sec	-11.549
excellence	-11.5494
instruire	-11.5495
ordonne	-11.5496
amitié	-11.5497
impiété	-11.5497
avertisseur	-11.5498
assez	-11.5504
per	-11.5509
F	-11.551
annonç	-11.5511
▁trouverai	-11.5513
instant	-11.5517
evé	-11.5519
appartiennent	-11.5519
orphelin	-11.5519
exhortation	-11.552
▁récompenses	-11.552
Voyez	-11.5521
Une	-11.5524
avertissement	-11.5525
enlever	-11.5526
▁saisira	-11.5529
▁réconfort	-11.5531
▁Prépare	-11.5536
associé	-11.5536
appeler	-11.5539
observer	-11.5539
▁multiplie	-11.5545
▁tranche	-11.5545
Prostern	-11.5549
extérieur	-11.5551
enfuire	-11.5557
▁abondant	-11.5558
▁gros	-11.557
écoutent	-11.5571
▁entendi	-11.5571
enfla	-11.5572
générations	-11.5573
voir	-11.5573
▁tue	-11.5576
elon	-11.5577
entendaient	-11.558
▁guid	-11.5582
▁individu	-11.5586
envie	-11.5586
▁amène	-11.5588
▁appar	-11.5594
▁écrivi	-11.5599
cieux	-11.56
attends	-11.5606
▁crucifi	-11.5609
▁joign	-11.5611
▁culture	-11.5613
iste	-11.5614
dème	-11.5622
▁précipiter	-11.5623
▁équitable	-11.5632
▁surveill	-11.5632
▁prescription	-11.5639
▁terrestre	-11.564
▁chaîne	-11.5643
▁illicite	-11.5643
▁monture	-11.5644
▁accablé	-11.5646
▁atteinte	-11.5647
▁voula	-11.5653
▁mariée	-11.5664
▁séparé	-11.5665
▁Rac	-11.5675
▁outrancier	-11.5676
▁calcul	-11.5684
joindre	-11.5686
▁cacha	-11.5691
▁loue	-11.5694
Rappel	-11.5695
▁multiplié	-11.57
abatt	-11.5701
▁vieille	-11.5708
▁fermée	-11.5711
▁fixa	-11.5714
▁rassemblée	-11.5715
nda	-11.5716
xception	-11.5718
▁infidèle	-11.5723
▁restée	-11.5724
▁Pro	-11.5725
ule	-11.5727
▁cach	-11.5729
entreront	-11.5736
▁tracé	-11.5748
▁excellente	-11.5752
▁déserte	-11.5752
▁subsister	-11.5757
implorer	-11.576
▁baisser	-11.5764
▁ivrogne	-11.5764
▁Adore	-11.5772
Antéchrist	-11.5775
`	-11.5775
horizon	-11.5775
▁Gomorr	-11.5775
▁ROI	-11.5775
▁Sublime	-11.5775
▁attentivement	-11.5775
▁breuvage	-11.5775
▁calebasse	-11.5775
▁compensation	-11.5775
▁corbeille	-11.5775
▁débarrass	-11.5775
▁estomac	-11.5775
▁explication	-11.5775
▁généreux	-11.5775
▁insuffl	-11.5775
▁lèpre	-11.5775
▁menaçons	-11.5775
▁parcimonie	-11.5775
▁proconsul	-11.5775
▁province	-11.5775
▁préjudice	-11.5775
▁réprobation	-11.5775
▁superposés	-11.5775
▁Ousmane	-11.5775
▁Tamûd	-11.5775
▁activité	-11.5775
▁bienséance	-11.5775
▁cuivre	-11.5775
▁débauche	-11.5775
▁exemplaire	-11.5775
▁glouton	-11.5775
▁gîte	-11.5775
▁obstacle	-11.5775
▁suprême	-11.5775
▁Décision	-11.5775
▁Matthieu	-11.5775
▁toupet	-11.5775
▁caravane	-11.5775
▁aromat	-11.5775
▁dîner	-11.5775
Almam	-11.5775
▁horreur	-11.5775
▁miettes	-11.5775
▁choix	-11.5775
▁inébranlable	-11.5775
▁Combattez	-11.5775
▁contact	-11.5775
ostentation	-11.5776
▁conviction	-11.5776
▁régler	-11.5776
▁diligence	-11.5776
▁ressemblance	-11.5776
▁sévérité	-11.5776
▁précipitamment	-11.5776
▁farine	-11.5776
▁nivelée	-11.5776
▁valable	-11.5776
▁communication	-11.5776
Alphée	-11.5776
▁précède	-11.5776
▁périssable	-11.5776
▁métal	-11.5776
▁berceau	-11.5776
▁psaume	-11.5776
▁jadis	-11.5776
▁décrivent	-11.5776
▁requête	-11.5776
▁Capable	-11.5776
▁frontière	-11.5776
▁aboli	-11.5777
▁déclin	-11.5777
Descendez	-11.5777
▁croyance	-11.5777
▁troublant	-11.5777
▁Enlève	-11.5777
▁entrailles	-11.5777
▁reconnaissance	-11.5777
▁négoce	-11.5777
Italie	-11.5777
▁sarment	-11.5777
▁conduire	-11.5777
▁barrière	-11.5777
aïb	-11.5777
▁largeur	-11.5777
▁Job	-11.5778
aï	-11.5778
▁averse	-11.5778
▁Répondez	-11.5778
▁saveur	-11.5778
▁enterrer	-11.5778
▁bourse	-11.5778
▁fabriqué	-11.5778
▁reculer	-11.5778
▁perverti	-11.5778
▁circoncir	-11.5779
▁discernement	-11.5779
▁renom	-11.5779
▁portique	-11.5779
▁racheter	-11.5779
▁vanité	-11.5779
▁commettaient	-11.578
▁aumône	-11.578
▁existait	-11.578
▁disparaissent	-11.578
▁frange	-11.578
▁reconnaîtront	-11.5781
▁loger	-11.5781
▁célébrer	-11.5781
▁dorment	-11.5781
▁contrat	-11.5781
▁Accomplissez	-11.5781
▁battre	-11.5781
▁reviendront	-11.5781
▁plainte	-11.5781
▁neige	-11.5782
▁prosternation	-11.5782
▁moquerie	-11.5782
▁os	-11.5783
▁luxure	-11.5783
▁flûte	-11.5783
▁grêle	-11.5783
▁communiqué	-11.5783
▁remuer	-11.5783
▁paralysé	-11.5783
▁comprendront	-11.5783
▁inventaient	-11.5783
▁proclamation	-11.5784
▁lisez	-11.5784
▁croiraient	-11.5785
acquitter	-11.5785
▁émigrent	-11.5786
▁rompre	-11.5787
▁exécuté	-11.5787
adoption	-11.5788
▁labourer	-11.5788
▁connaisseur	-11.5788
▁dévoué	-11.5788
▁vaste	-11.5789
émerveillent	-11.5789
▁veuille	-11.579
▁fourmi	-11.579
▁mérité	-11.579
▁reprenez	-11.5792
▁discuté	-11.5792
▁modest	-11.5793
▁méditent	-11.5793
▁houris	-11.5794
▁Crois	-11.5794
▁clefs	-11.5794
▁éloignez	-11.5794
▁réussite	-11.5797
▁Phil	-11.5798
▁profitable	-11.5798
▁fléchi	-11.5798
▁redoutez	-11.5799
▁convenu	-11.58
▁crieront	-11.5801
▁bride	-11.5801
▁dressées	-11.5802
▁dispersent	-11.5802
▁souffrez	-11.5802
esquive	-11.5802
▁discuter	-11.5802
▁blâmé	-11.5803
▁cerne	-11.5803
▁parachève	-11.5803
▁greffé	-11.5804
▁Êt	-11.5804
▁apportaient	-11.5805
▁abrégé	-11.5806
▁carcan	-11.5806
▁briser	-11.5806
▁vivaient	-11.5806
▁Lyd	-11.5806
▁dirigea	-11.5807
▁amant	-11.5808
▁avare	-11.5809
▁témoignons	-11.5812
▁rare	-11.5812
▁légitime	-11.5812
▁Icon	-11.5812
▁avocat	-11.5813
▁jouer	-11.5813
▁Artém	-11.5813
▁émissaire	-11.5813
▁satisfaction	-11.5813
▁amusement	-11.5813
▁empressement	-11.5813
▁Anciens	-11.5814
▁laisserons	-11.5814
▁adhérence	-11.5814
▁récitons	-11.5815
▁chaud	-11.5817
▁défenseur	-11.5817
▁incroyant	-11.5817
▁nager	-11.5818
▁nourrice	-11.5819
▁disparut	-11.5819
▁brillante	-11.5819
▁mentent	-11.5821
▁fallu	-11.5822
▁souviens	-11.5823
▁trouviez	-11.5824
▁foyers	-11.5824
▁opprimés	-11.5824
▁Envoyés	-11.5824
▁chèvres	-11.5824
▁cruche	-11.5824
▁matrices	-11.5825
▁achète	-11.5825
enfoncer	-11.5826
▁retournerez	-11.5827
▁phase	-11.5831
▁suspend	-11.5831
▁embrassé	-11.5831
▁herbes	-11.5832
▁fâché	-11.5832
▁olivier	-11.5833
▁pompe	-11.5836
▁cesseront	-11.5836
▁coupa	-11.5837
▁forgé	-11.5837
▁ass	-11.5837
▁entouré	-11.5838
▁cachiez	-11.5838
▁considèrent	-11.584
▁recommandé	-11.5842
▁poursuivis	-11.5842
▁accueillir	-11.5844
▁retournerons	-11.5844
▁obéiss	-11.5844
▁également	-11.5844
▁creux	-11.5845
▁accoucher	-11.5846
▁approche	-11.5852
enjamin	-11.5853
▁pattes	-11.5855
▁tremp	-11.5856
▁inconnus	-11.5856
▁Elie	-11.5857
appuyer	-11.5857
▁courir	-11.5864
enseignements	-11.5866
▁désolé	-11.5866
▁écarte	-11.5866
▁éclairs	-11.5868
▁acquiert	-11.587
▁Accorde	-11.587
▁apparence	-11.5871
▁gagné	-11.5872
▁artisan	-11.5873
▁enveloppe	-11.5873
▁recommander	-11.5874
▁retenti	-11.5875
▁réalisée	-11.5876
▁piller	-11.5877
▁prêtez	-11.5879
ûm	-11.5879
▁Pen	-11.588
incliner	-11.5881
henn	-11.5884
▁échouer	-11.5884
▁traîtres	-11.5885
▁bœufs	-11.5887
▁provisions	-11.5887
▁contrées	-11.5887
▁trompés	-11.5888
▁caval	-11.5889
▁anéantis	-11.5891
▁racheté	-11.5894
▁aimons	-11.5897
▁demandons	-11.5898
▁dirigé	-11.5902
▁naître	-11.5905
▁jeûnent	-11.5908
▁criant	-11.5908
▁mi	-11.5908
phage	-11.5912
▁séparés	-11.5914
cède	-11.5919
ore	-11.5919
▁oiseau	-11.5923
▁invention	-11.5923
▁abomination	-11.5927
▁ouverte	-11.5928
▁aspect	-11.5931
appellent	-11.5934
▁sanctifiée	-11.5935
▁emportèrent	-11.5936
▁vieilles	-11.5937
De	-11.5939
▁copie	-11.5941
▁arraché	-11.5942
▁périront	-11.5946
▁présentez	-11.5946
▁obéis	-11.5949
▁marchandises	-11.595
▁objet	-11.595
▁enchante	-11.595
▁édifice	-11.5953
▁oppos	-11.5954
▁profondeurs	-11.5954
▁insulte	-11.596
▁terminé	-11.5961
▁retournés	-11.5963
▁transformer	-11.5964
▁affliger	-11.5967
▁permets	-11.5967
On	-11.5974
▁capital	-11.5974
▁pourrais	-11.5977
▁mangerez	-11.598
▁largesses	-11.5981
▁conséquences	-11.5981
▁croît	-11.5982
▁avarice	-11.5986
▁exclusiv	-11.5989
▁montent	-11.5999
▁absents	-11.6001
▁poste	-11.6007
▁quart	-11.6008
▁offensé	-11.6009
▁rude	-11.6013
▁occupé	-11.6016
inquiè	-11.6019
▁dessous	-11.6019
éloign	-11.6022
▁servit	-11.6023
▁descendent	-11.6025
car	-11.6026
▁épine	-11.6029
honore	-11.6032
▁séduits	-11.6034
▁joueur	-11.6034
ièrent	-11.6036
venait	-11.6043
impos	-11.6043
▁auto	-11.6045
auf	-11.6046
▁abandonnés	-11.6048
achemine	-11.6056
Im	-11.6059
▁ramasser	-11.6062
▁paie	-11.6062
entrez	-11.6064
D	-11.6064
▁trouvai	-11.607
▁publiques	-11.6073
▁pleurer	-11.6073
apporter	-11.6074
▁œuvrent	-11.6076
▁enceintes	-11.6076
▁savant	-11.6078
▁Entre	-11.6081
huit	-11.6081
▁rende	-11.6082
▁enveloppa	-11.6084
▁aidé	-11.6086
▁reconnaisse	-11.6097
▁vaincus	-11.6111
▁Caïn	-11.6121
▁emmen	-11.6121
▁permises	-11.6126
indign	-11.6128
▁préserver	-11.6128
agréent	-11.6136
èdes	-11.614
▁persécuter	-11.6142
▁tombai	-11.6143
assied	-11.6144
▁jou	-11.6145
▁entendaient	-11.615
▁promen	-11.615
▁nobles	-11.6151
▁Am	-11.6163
▁réclamer	-11.6163
▁approché	-11.6164
ous	-11.6167
▁tap	-11.6174
▁mens	-11.6183
...?	-11.6191
mènera	-11.6193
▁pe	-11.6195
▁supérieur	-11.62
Trois	-11.6201
▁sépulcres	-11.6202
▁serpents	-11.6202
▁blasphèmes	-11.6202
▁déposer	-11.6208
▁conf	-11.621
▁recommand	-11.621
▁disciplin	-11.6214
mettait	-11.6221
▁amenèrent	-11.6225
▁bénies	-11.6235
▁fane	-11.6238
▁gémiss	-11.6246
▁inclin	-11.626
sement	-11.6261
▁péch	-11.6266
▁Mama	-11.6271
▁abaisse	-11.6277
▁brou	-11.6281
▁donnerait	-11.6282
▁oppression	-11.6284
▁vari	-11.6286
▁croy	-11.6304
▁allai	-11.6305
introduis	-11.6306
▁encouru	-11.6307
ris	-11.6313
▁rétribuer	-11.6315
▁île	-11.632
assigne	-11.6323
▁cola	-11.6324
▁emporta	-11.6326
▁tôt	-11.6331
▁réussir	-11.6349
▁plu	-11.6356
sser	-11.6371
▁prient	-11.638
▁régime	-11.638
▁harpe	-11.6387
nos	-11.6397
ive	-11.6398
ân	-11.6404
▁honor	-11.6406
▁prophétiser	-11.6408
dis	-11.6408
▁crier	-11.6425
erbe	-11.6425
▁murmure	-11.643
add	-11.6434
▁assemblée	-11.6434
tait	-11.6435
▁descende	-11.6438
▁triomphe	-11.6445
▁figue	-11.6446
▁recevron	-11.6455
▁guident	-11.6455
arrivera	-11.6456
▁adopt	-11.6459
▁sépare	-11.6463
▁histoire	-11.6463
▁prendra	-11.6468
▁tradui	-11.6472
▁voyai	-11.6475
▁distribu	-11.6478
▁souten	-11.6481
imé	-11.6482
oé	-11.6504
▁confia	-11.6517
▁séparer	-11.6518
▁Prépar	-11.6525
▁adore	-11.6541
▁convaincr	-11.6542
▁jura	-11.6554
▁prononc	-11.6555
▁amen	-11.6567
▁extrêm	-11.6568
ime	-11.6579
▁Goûtez	-11.6582
▁explicites	-11.6582
▁Rappelle	-11.6586
▁marie	-11.6608
▁strict	-11.6609
glise	-11.6613
dou	-11.6615
alism	-11.6617
prenaient	-11.6626
▁aisé	-11.6636
▁renversa	-11.6644
▁serre	-11.6648
▁extérieure	-11.665
▁content	-11.6654
imer	-11.6661
▁ruses	-11.6671
▁légende	-11.6676
▁rompu	-11.6688
▁adresse	-11.6691
ecture	-11.6691
▁tranché	-11.6693
▁tô	-11.6694
▁vaudra	-11.6702
ccès	-11.6705
▁secrets	-11.6707
▁cous	-11.671
▁ren	-11.6718
mposition	-11.6719
▁z	-11.6719
▁dev	-11.6728
▁placés	-11.6729
▁tarde	-11.6751
▁ex	-11.6773
▁témoigna	-11.6777
▁grade	-11.6781
▁déferl	-11.6785
Orient	-11.6791
▁compri	-11.6804
▁déli	-11.6808
▁ha	-11.6809
▁encourag	-11.6812
▁reconnaîtra	-11.6827
▁fend	-11.684
phas	-11.6843
▁Sil	-11.6853
▁av	-11.6856
mathé	-11.6867
!».	-11.6874
▁bâtir	-11.6874
▁transport	-11.6889
▁Sor	-11.6902
isent	-11.6907
ellement	-11.6913
▁com	-11.6915
▁Luc	-11.6915
étonna	-11.6918
hériter	-11.6923
▁abattu	-11.6938
veillez	-11.6953
▁flot	-11.6954
▁Celle	-11.6958
▁voiles	-11.6977
▁suive	-11.6983
▁Co	-11.6986
▁gar	-11.699
▁respecte	-11.6991
▁-.	-11.7009
çant	-11.7019
attache	-11.7038
▁Dû	-11.7051
▁retrouvé	-11.7056
sant	-11.706
▁incite	-11.7062
pensez	-11.708
▁préparée	-11.7088
▁fini	-11.709
▁conserve	-11.7102
▁enfin	-11.7106
Jette	-11.7107
aspe	-11.7116
▁pai	-11.7125
▁changera	-11.7127
no	-11.7133
▁peste	-11.7135
aimer	-11.714
▁maudir	-11.7151
tie	-11.7153
tourneront	-11.7166
▁écarter	-11.7175
▁tra	-11.7176
▁insist	-11.718
▁pér	-11.7182
▁mettron	-11.719
▁réuniss	-11.7191
▁comm	-11.7206
▁revin	-11.7217
écarte	-11.7219
mplissez	-11.722
▁bâtisse	-11.7229
▁souhaiter	-11.7234
onsieur	-11.7234
▁Dét	-11.7236
▁ga	-11.7237
ienne	-11.7244
▁dout	-11.7263
▁levez	-11.7266
▁exerce	-11.7266
opérati	-11.7283
table	-11.7286
▁réelle	-11.7287
▁dr	-11.729
▁enrichis	-11.7291
lle	-11.7291
▁oblig	-11.7317
urant	-11.732
▁voyager	-11.7322
▁pensai	-11.7324
ction	-11.733
▁arrache	-11.733
uel	-11.7332
▁traita	-11.7334
▁tremble	-11.7337
▁réfléchiss	-11.734
implorent	-11.7355
▁décid	-11.7363
▁devanc	-11.7366
ière	-11.7373
venir	-11.7375
ass	-11.7378
▁prém	-11.7386
▁rétribue	-11.7392
▁joue	-11.7405
anges	-11.7411
▁saisisse	-11.7413
saient	-11.7415
pas	-11.7425
▁creus	-11.7426
▁profitera	-11.7428
▁dure	-11.743
▁réfléchi	-11.7439
▁recouvre	-11.7444
nez	-11.7446
▁guérissa	-11.7462
▁mépris	-11.7474
▁pensa	-11.7483
avis	-11.7486
▁imposée	-11.7499
nie	-11.7502
▁circonci	-11.7502
pprochez	-11.7514
apport	-11.7533
imés	-11.7537
der	-11.7538
enseigne	-11.7542
▁réussi	-11.7544
▁supérieure	-11.7551
▁gis	-11.7558
▁baptis	-11.7578
▁desquel	-11.7587
▁pèse	-11.76
associe	-11.7609
▁ho	-11.7613
▁connus	-11.7618
▁reven	-11.7619
▁continue	-11.762
exhortant	-11.7623
▁poursuiv	-11.763
étude	-11.7631
▁avance	-11.7637
envoyé	-11.764
▁placée	-11.7646
isés	-11.7656
▁qualifi	-11.7663
changerai	-11.7668
▁Grande	-11.7676
▁ob	-11.768
▁Sara	-11.7682
empêche	-11.7688
droit	-11.7691
▁suivrai	-11.7695
do	-11.7703
tisme	-11.7703
▁repouss	-11.7706
odeur	-11.7715
ac	-11.7726
quels	-11.7729
▁moments	-11.7738
▁administr	-11.7738
▁stup	-11.7741
▁lire	-11.7752
▁simpl	-11.7758
▁suscitera	-11.7763
étend	-11.7766
▁Élis	-11.7792
Tout	-11.7793
Son	-11.7816
▁récompensera	-11.782
Anti	-11.7847
▁invent	-11.7848
effet	-11.7849
▁réjouira	-11.785
▁édifi	-11.7851
rthe	-11.7855
istes	-11.7864
orient	-11.7868
ran	-11.7875
issaient	-11.7879
...»	-11.7882
Ainsi	-11.7891
▁restera	-11.7892
▁fortifi	-11.7895
accompagner	-11.7896
▁cr	-11.7897
▁Attend	-11.7914
▁provoqu	-11.792
envers	-11.7921
▁gra	-11.7927
▁Sal	-11.7936
▁consent	-11.7936
▁devra	-11.7936
▁disperse	-11.7938
Frappe	-11.7952
ot	-11.7954
▁récolt	-11.7955
encre	-11.7959
▁traits	-11.7959
▁déchaîn	-11.7965
Comme	-11.7966
▁atteign	-11.7967
allon	-11.7967
hospitalité	-11.7968
alentour	-11.7968
▁Ja	-11.7971
▁tenter	-11.7974
▁estime	-11.7981
offre	-11.7986
entretenai	-11.7987
Pour	-11.7994
Tenez	-11.7994
▁Ju	-11.7996
atteigne	-11.7997
Fais	-11.8001
Allez	-11.8001
apprendre	-11.8002
▁touch	-11.8002
Jetez	-11.8004
Invoquez	-11.8005
argument	-11.8007
agisse	-11.8008
champ	-11.8008
avarice	-11.8011
croît	-11.8013
atteste	-11.8013
Prends	-11.8015
adoration	-11.8016
eunuque	-11.8017
olivier	-11.8017
deux	-11.8017
femmes	-11.8018
animaux	-11.8018
▁bou	-11.8021
obéissent	-11.8021
équité	-11.8022
Quoi	-11.8022
▁aveugl	-11.8027
apportera	-11.803
invocation	-11.8032
éternel	-11.8032
▁antérieur	-11.8034
▁insoucian	-11.8039
dit	-11.804
Pas	-11.8052
▁mé	-11.8053
années	-11.8053
▁rassemblé	-11.8063
▁participe	-11.8065
idoles	-11.8067
▁précédé	-11.8068
alliés	-11.8068
augmenter	-11.807
▁appelles	-11.8073
Me	-11.8074
destiné	-11.8079
▁paraît	-11.8085
▁Cha	-11.8087
▁Cé	-11.8089
▁per	-11.8091
▁porteur	-11.8091
Parc	-11.8099
usage	-11.8102
aimez	-11.8106
▁poète	-11.811
▁prépare	-11.8115
élus	-11.8116
▁papa	-11.812
▁relève	-11.812
▁cessa	-11.8121
abaisse	-11.8124
rais	-11.8124
▁obligation	-11.8127
▁nudité	-11.8131
▁désespéré	-11.8134
▁bœuf	-11.8135
audrait	-11.8135
▁intelligent	-11.8135
▁Mal	-11.8136
▁ensorcelé	-11.8136
▁bless	-11.8136
▁musulman	-11.8137
▁attristé	-11.8137
▁traître	-11.8137
▁contrée	-11.814
▁palmier	-11.8141
▁provision	-11.8147
▁plaine	-11.8147
▁établie	-11.8154
▁interroger	-11.8163
▁mar	-11.8169
▁recommanda	-11.817
▁secouru	-11.8171
▁écar	-11.8176
▁humilié	-11.8178
émie	-11.8179
▁intercesseur	-11.8187
▁perle	-11.819
ciel	-11.8192
▁mosquée	-11.8193
▁perverse	-11.8201
▁bande	-11.8202
▁ancienne	-11.8204
olat	-11.8207
▁maltraite	-11.8208
▁étonnant	-11.8221
▁couleur	-11.8223
▁recueill	-11.823
în	-11.8231
▁brillant	-11.8232
▁prescri	-11.8233
▁résolu	-11.8233
▁destinée	-11.8237
▁confirme	-11.8238
racinés	-11.8239
▁gardera	-11.8242
umière	-11.8245
▁enflé	-11.8247
▁Tâ	-11.8248
▁lésé	-11.8248
rabb	-11.8249
▁réalis	-11.8254
▁boive	-11.8256
hab	-11.8257
poli	-11.8258
▁Ba	-11.8258
▁pleura	-11.8259
Des	-11.8261
stawâ	-11.8262
nké	-11.8262
héritiers	-11.8264
▁grec	-11.8267
▁reviendra	-11.8268
▁tyran	-11.827
▁révolt	-11.827
▁célébr	-11.8272
▁reviendrai	-11.8273
▁obscur	-11.8274
▁popula	-11.8275
▁cheveu	-11.8275
▁Occupe	-11.8275
Azize	-11.8275
Egypte	-11.8275
Iblîs	-11.8275
Invisible	-11.8275
allégeance	-11.8275
iguë	-11.8275
▁Barthélemy	-11.8275
▁Discernement	-11.8275
▁Foûta	-11.8275
▁Suprême	-11.8275
▁Thyatir	-11.8275
▁Yahya	-11.8275
▁Zélote	-11.8275
▁abominable	-11.8275
▁agressivité	-11.8275
▁aguets	-11.8275
▁brocart	-11.8275
▁citoyen	-11.8275
▁concitoyen	-11.8275
▁contradiction	-11.8275
▁corruptible	-11.8275
▁dénombré	-11.8275
▁estropié	-11.8275
▁falaise	-11.8275
▁glacial	-11.8275
▁graduellement	-11.8275
▁hésitants	-11.8275
▁infligé	-11.8275
▁inférieur	-11.8275
▁inséparable	-11.8275
▁intègres	-11.8275
▁majorité	-11.8275
▁menstruation	-11.8275
▁monstrueuse	-11.8275
▁nocturne	-11.8275
▁nécessiteux	-11.8275
▁nécessité	-11.8275
▁ouragan	-11.8275
▁prosélyte	-11.8275
▁prédécesseurs	-11.8275
▁quotidien	-11.8275
▁rachat	-11.8275
▁refoulés	-11.8275
▁renforç	-11.8275
▁rivage	-11.8275
▁sottise	-11.8275
▁soupçon	-11.8275
▁stabilité	-11.8275
▁tolérable	-11.8275
▁courroux	-11.8275
▁divertissement	-11.8275
▁délégation	-11.8275
▁embryon	-11.8275
▁fatigué	-11.8275
▁proverbe	-11.8275
▁précédemment	-11.8275
▁quadrup	-11.8275
▁usuraire	-11.8275
inscrire	-11.8275
▁dissension	-11.8275
▁domestique	-11.8275
▁honnête	-11.8275
▁manioc	-11.8275
▁militaire	-11.8275
▁tortuosité	-11.8275
appesantis	-11.8275
▁rectitude	-11.8275
▁tranquillisent	-11.8275
▁consigné	-11.8275
▁répète	-11.8275
▁légumes	-11.8275
▁patriarche	-11.8275
▁privations	-11.8275
▁Tâghût	-11.8275
▁frivolité	-11.8275
▁intercéder	-11.8275
▁lassitude	-11.8275
▁progrès	-11.8275
▁séduction	-11.8275
▁contract	-11.8275
▁exclusif	-11.8275
archange	-11.8275
▁dénué	-11.8275
▁indigène	-11.8275
▁appuyé	-11.8275
▁calamité	-11.8276
▁jumelle	-11.8276
▁vestige	-11.8276
▁coussin	-11.8276
▁vigilants	-11.8276
▁céréale	-11.8276
▁extorqueur	-11.8276
▁tranquillité	-11.8276
▁couteau	-11.8276
▁distraction	-11.8276
▁déroute	-11.8276
▁marmite	-11.8276
▁sauvegarde	-11.8276
▁damné	-11.8276
▁taureaux	-11.8276
▁rachète	-11.8276
▁miroir	-11.8276
▁religieux	-11.8276
▁Salmon	-11.8276
▁négligence	-11.8276
▁poignée	-11.8276
▁dévotion	-11.8276
▁arrogants	-11.8276
▁violemment	-11.8276
▁diminution	-11.8276
▁institué	-11.8276
Assurément	-11.8276
▁bureau	-11.8276
exauçâmes	-11.8276
▁volontairement	-11.8276
▁renforcé	-11.8276
▁aigle	-11.8276
▁bronche	-11.8276
▁vouloir	-11.8276
Éphésien	-11.8276
▁retenir	-11.8276
▁Mettez	-11.8276
▁tortueux	-11.8276
▁reprends	-11.8276
▁fornication	-11.8276
▁courroucé	-11.8277
▁instrument	-11.8277
▁désaccord	-11.8277
▁caractère	-11.8277
▁capitaine	-11.8277
▁impatience	-11.8277
▁poison	-11.8277
▁réalité	-11.8277
▁étudié	-11.8277
▁renommée	-11.8277
▁talion	-11.8277
▁attaqués	-11.8277
▁guise	-11.8277
▁errant	-11.8277
▁paresseux	-11.8277
▁manifestée	-11.8277
▁Renvoie	-11.8277
▁manifestation	-11.8277
▁dévier	-11.8277
▁éprouve	-11.8278
▁fautifs	-11.8278
▁outrage	-11.8278
▁conviendra	-11.8278
eaux	-11.8278
hénicie	-11.8278
▁juriste	-11.8278
▁charbon	-11.8278
▁matière	-11.8278
▁Zab	-11.8278
▁tissu	-11.8278
▁fendra	-11.8278
UI	-11.8278
▁Sâd	-11.8278
▁volont	-11.8279
▁bienheureux	-11.8279
▁dépassé	-11.8279
▁indifférent	-11.8279
▁œuvriez	-11.8279
▁crâne	-11.8279
▁détourniez	-11.8279
▁mangiez	-11.828
▁renard	-11.828
▁révélons	-11.828
▁bassin	-11.8281
▁fraternelle	-11.8281
▁souveniez	-11.8281
▁sourit	-11.8281
▁Yâ	-11.8282
▁trahison	-11.8282
▁divergèrent	-11.8282
▁doublé	-11.8282
▁cloche	-11.8282
▁examiner	-11.8282
▁fournir	-11.8283
▁induit	-11.8283
▁reconnaîtrez	-11.8283
▁déshonorez	-11.8283
▁rangés	-11.8284
▁agitation	-11.8284
▁Vrai	-11.8284
▁engloutir	-11.8284
▁réjouissance	-11.8284
▁réconcilier	-11.8284
▁terminer	-11.8284
▁Pardonnez	-11.8284
▁large	-11.8285
▁enveloppera	-11.8285
▁mécroit	-11.8285
▁lourdeur	-11.8285
▁renverser	-11.8285
▁suspens	-11.8285
▁doucement	-11.8286
étri	-11.8286
▁maudissent	-11.8287
▁rappellerez	-11.8287
▁fuyez	-11.8287
▁attachez	-11.8287
▁répandre	-11.8287
▁disputaient	-11.8288
▁quantité	-11.8288
▁marchions	-11.8288
▁tutelle	-11.8289
ceaux	-11.8289
▁longueur	-11.8289
▁compagne	-11.8289
▁ignorent	-11.8289
▁haïssent	-11.8289
▁dormaient	-11.8289
▁bienfaiteurs	-11.8289
▁enfonc	-11.8289
▁redressa	-11.829
▁battant	-11.829
▁lentement	-11.829
▁apprenez	-11.829
sseyez	-11.829
▁assistant	-11.829
▁divergent	-11.8291
▁permettez	-11.8291
▁réveiller	-11.8292
▁arbitr	-11.8293
▁menaçait	-11.8293
▁couverture	-11.8293
▁tison	-11.8294
administration	-11.8294
▁possédez	-11.8294
etits	-11.8294
▁répéter	-11.8294
▁mouillé	-11.8295
▁avisé	-11.8295
▁comparerai	-11.8296
▁dominent	-11.8296
▁insolent	-11.8297
▁brin	-11.8298
▁conscien	-11.8298
▁boivent	-11.8298
▁tremblant	-11.8298
▁bovins	-11.8298
▁regardiez	-11.8298
▁soumettre	-11.8298
assistance	-11.8298
vé	-11.8299
▁raisins	-11.8299
▁salée	-11.8299
ub	-11.8299
▁divergences	-11.8299
▁plaisent	-11.83
▁proie	-11.83
▁produisent	-11.83
▁Faux	-11.83
▁gentil	-11.8301
▁exalte	-11.8302
▁Dj	-11.8302
▁mourrons	-11.8302
▁repris	-11.8302
▁Coré	-11.8303
▁embrasser	-11.8304
▁moquèrent	-11.8304
▁cuve	-11.8305
▁rencontrèrent	-11.8305
▁refusez	-11.8306
▁éclater	-11.8306
▁minim	-11.8308
▁tourmenter	-11.8309
▁souhaitez	-11.8312
▁nettoie	-11.8313
▁plaçons	-11.8313
▁She	-11.8313
entouraient	-11.8313
▁singes	-11.8313
▁avide	-11.8314
▁supplier	-11.8314
▁refuser	-11.8315
▁serré	-11.8316
▁recouvert	-11.8316
▁fondu	-11.8316
▁endormi	-11.8318
▁spect	-11.8318
lément	-11.8318
▁constance	-11.8321
▁détournant	-11.8323
▁déployé	-11.8323
invoquions	-11.8324
▁tiendront	-11.8324
▁aiguille	-11.8324
▁hyène	-11.8324
▁ressusciterai	-11.8324
▁Rends	-11.8324
▁inéluctable	-11.8324
▁responsabilité	-11.8324
▁évidence	-11.8324
▁entretien	-11.8325
▁balancer	-11.8325
▁effort	-11.8326
▁trompé	-11.8326
▁acquièrent	-11.8326
▁aiguillon	-11.8327
▁Arrivé	-11.8328
▁craintif	-11.8329
▁amassez	-11.833
▁fui	-11.8331
▁multipliées	-11.8331
▁Mets	-11.8331
▁goûtez	-11.8331
▁ân	-11.8331
tèrent	-11.8331
▁adoriez	-11.8332
▁quinze	-11.8334
▁effacé	-11.8337
gulaire	-11.8337
▁méprisent	-11.8338
▁permettra	-11.8338
▁considérez	-11.8338
▁réjouiront	-11.8339
▁bleu	-11.8339
▁rassuré	-11.834
▁murmurent	-11.8342
▁pression	-11.8343
enfance	-11.8345
▁tabou	-11.8345
▁disputés	-11.8345
▁glorifiez	-11.8347
▁façonné	-11.8348
▁percé	-11.8349
▁enchaîné	-11.8349
▁parvenir	-11.835
▁participent	-11.8353
ancre	-11.8353
▁bienfaisant	-11.8354
▁soutient	-11.8362
▁regarderont	-11.8363
ciens	-11.8364
▁proue	-11.8366
▁hu	-11.8367
▁planté	-11.8368
▁rites	-11.8368
▁indigné	-11.8368
▁attesté	-11.837
▁sexuels	-11.8371
▁toilette	-11.8371
▁approch	-11.8371
▁fendu	-11.8372
▁soutenu	-11.8372
▁éteindre	-11.8375
▁console	-11.8376
▁marqués	-11.8378
humiliant	-11.8378
▁habille	-11.8379
▁discussions	-11.8381
▁gémissements	-11.8381
rage	-11.8383
ude	-11.8384
▁animé	-11.8384
agir	-11.8385
▁écrive	-11.8385
▁éclat	-11.8385
guère	-11.8386
▁exauce	-11.8387
▁mouche	-11.8387
amb	-11.8387
▁moqués	-11.8388
▁détest	-11.8391
RE	-11.8394
▁hostilité	-11.8398
▁émeute	-11.84
▁grasse	-11.84
▁égoïste	-11.8401
▁oncle	-11.8405
▁Mattha	-11.8405
Onési	-11.8406
▁mener	-11.8406
▁renouvelle	-11.8411
autorisation	-11.8414
▁enflés	-11.8417
▁explique	-11.8418
▁désobéis	-11.8419
▁soulage	-11.8419
▁nudités	-11.8422
▁convoquer	-11.8423
▁désespérés	-11.8423
▁ensorcelés	-11.8424
▁antérieurs	-11.8425
▁dévoré	-11.8425
▁déterminée	-11.8427
▁ferma	-11.8428
vent	-11.8429
▁effrayés	-11.843
▁Z	-11.8433
▁défendu	-11.8436
▁intens	-11.8441
▁folle	-11.8443
▁Tim	-11.8446
▁meure	-11.8449
▁blessé	-11.8451
▁Bala	-11.8451
▁rire	-11.8452
▁poule	-11.8455
▁disputeur	-11.8456
▁quoique	-11.8456
exclusi	-11.8457
▁jaune	-11.8457
▁persuasi	-11.8457
▁persécutes	-11.846
▁montures	-11.8462
▁Gad	-11.8463
angle	-11.8463
onction	-11.8463
nier	-11.8463
▁accablés	-11.8463
▁terrestres	-11.8464
exercer	-11.8465
▁asperge	-11.8465
▁oliviers	-11.8467
▁époque	-11.8469
▁appliqu	-11.8475
emmener	-11.8478
▁proféré	-11.8478
▁existence	-11.8479
▁partagé	-11.8481
âcher	-11.8482
▁ordonner	-11.8483
▁citer	-11.8483
▁dissiper	-11.8484
▁causer	-11.8486
▁merveille	-11.8489
▁mode	-11.8489
▁récitent	-11.849
ices	-11.849
▁rassemblées	-11.8492
▁obtiendr	-11.8497
▁réprimand	-11.8498
étention	-11.8498
ré	-11.8499
▁gouverner	-11.85
▁appliqué	-11.8501
admir	-11.8502
▁ravis	-11.8502
▁imposteurs	-11.8504
▁fl	-11.8505
jouissez	-11.8505
parent	-11.8508
▁traîner	-11.8508
▁fermées	-11.8509
▁recul	-11.8512
▁aumônes	-11.8512
▁agréés	-11.8513
▁voyageurs	-11.8513
▁observez	-11.8515
Retournez	-11.8517
▁courent	-11.8518
exemples	-11.8518
▁joindre	-11.8519
▁endur	-11.8522
dition	-11.8522
attribue	-11.8524
▁basse	-11.8525
mm	-11.8526
endaient	-11.853
▁guérissai	-11.8535
ta	-11.854
▁éloignés	-11.854
▁nomme	-11.8542
▁Nom	-11.8545
▁encouragé	-11.8548
▁préférés	-11.8549
▁forgeron	-11.855
appar	-11.8552
▁attachés	-11.8556
▁Invoquez	-11.8556
▁croie	-11.8556
▁léser	-11.8569
▁jougs	-11.8571
▁exaucée	-11.8579
▁déploy	-11.8579
▁brisés	-11.8581
aider	-11.8581
Arch	-11.8582
▁honorés	-11.8589
▁pourvus	-11.859
▁étendues	-11.8593
▁attribuées	-11.8604
interdis	-11.8606
▁haie	-11.8607
▁installer	-11.8607
▁arguments	-11.8609
ze	-11.8613
épousez	-11.8615
▁interdites	-11.8616
▁accusation	-11.8619
▁déchirée	-11.8619
effacera	-11.862
▁ombres	-11.8621
▁enregistr	-11.8627
taillé	-11.8629
▁trépas	-11.8631
▁volé	-11.8634
▁mangeront	-11.8637
▁jauni	-11.8637
itude	-11.8642
▁Accepte	-11.8649
▁voisine	-11.8649
▁privés	-11.8658
▁persév	-11.866
▁réveillé	-11.8661
▁étage	-11.8663
obstin	-11.8666
▁desseins	-11.8671
▁élever	-11.8674
▁utilités	-11.8675
▁verset	-11.8679
▁blasphémé	-11.8682
▁quitt	-11.8683
▁montant	-11.8687
▁ira	-11.8692
▁néglige	-11.8694
▁maternelle	-11.8698
▁tournerai	-11.8706
▁opprobre	-11.8708
oindre	-11.8709
▁consulte	-11.8713
▁annonciateurs	-11.8714
▁peau	-11.8716
▁associer	-11.8718
atteindrez	-11.8718
▁essayer	-11.8722
▁ancre	-11.8728
écouteront	-11.8731
▁exig	-11.8739
▁déc	-11.8741
▁faibliss	-11.875
▁flammes	-11.8752
▁fournisse	-11.8753
Ari	-11.8753
▁éviter	-11.8755
▁approcha	-11.8759
▁rebelles	-11.8759
▁apparue	-11.8762
▁Sors	-11.8771
▁sonner	-11.8774
Quelle	-11.8786
▁cracher	-11.879
▁souhaite	-11.8791
▁Unique	-11.8793
▁souillures	-11.8797
▁verser	-11.8801
▁tueront	-11.8802
oc	-11.8806
lles	-11.881
▁recueilli	-11.881
▁cré	-11.8814
▁combatt	-11.882
▁patients	-11.8823
▁perdue	-11.8829
▁Juste	-11.8833
▁simple	-11.8835
▁arrêt	-11.8839
▁injustices	-11.8841
interrogeant	-11.8843
▁Amenez	-11.8854
▁portion	-11.8854
▁vivron	-11.8875
▁entrée	-11.8876
▁assign	-11.8881
▁peupla	-11.8882
▁permise	-11.8884
▁verrai	-11.8886
▁combl	-11.8889
veillant	-11.889
▁précédera	-11.8894
obscurcir	-11.8896
atoires	-11.8899
sie	-11.8901
▁enlèvera	-11.8901
▁contest	-11.8902
▁réuni	-11.8909
▁bond	-11.8912
joignent	-11.8914
ification	-11.8924
igner	-11.8928
▁discuta	-11.8931
▁loge	-11.8934
▁risqu	-11.8935
▁passée	-11.8938
▁trompeur	-11.8939
ères	-11.8943
observ	-11.8947
▁informer	-11.8952
▁assigner	-11.8957
▁tribut	-11.8958
▁racines	-11.8963
▁turpitudes	-11.8965
myr	-11.8968
▁convoiter	-11.8989
aillent	-11.8996
▁murs	-11.8999
▁conten	-11.9005
▁heurte	-11.9006
ête	-11.9009
rit	-11.9011
▁geste	-11.9011
▁heureuse	-11.9021
▁exposer	-11.9024
▁autrui	-11.9025
▁traîn	-11.9033
▁étonnement	-11.9034
▁planta	-11.9053
▁assombris	-11.906
▁déplacer	-11.9071
▁jugerai	-11.9073
▁regardera	-11.9075
oués	-11.9078
nommé	-11.9084
▁atteigni	-11.9086
▁gras	-11.9101
▁ti	-11.9102
erne	-11.9102
ente	-11.9108
▁March	-11.9109
▁viole	-11.9111
armi	-11.9123
▁feron	-11.9123
iras	-11.9127
▁servie	-11.913
tiré	-11.9142
!]	-11.9147
▁acquér	-11.9151
▁command	-11.9152
lus	-11.9153
▁égarent	-11.9156
▁Ali	-11.9157
rant	-11.9162
▁ôt	-11.9163
▁rassasi	-11.9175
oter	-11.9181
▁maintenu	-11.9189
▁consomm	-11.9191
oublie	-11.9193
▁invoquer	-11.92
siste	-11.9201
▁maux	-11.9203
▁touchés	-11.9204
▁ouvr	-11.9207
▁forg	-11.9212
▁salué	-11.9214
▁pension	-11.9217
▁cadeau	-11.9218
▁éternels	-11.9221
oulin	-11.9226
appellera	-11.923
ba	-11.9232
périssent	-11.9234
cher	-11.9239
▁insensée	-11.9241
▁précéd	-11.9255
actions	-11.9255
▁déclarer	-11.926
lette	-11.9263
▁substitu	-11.9278
▁prospér	-11.9279
demeurent	-11.9293
yez	-11.9302
▁achève	-11.9305
ig	-11.9319
▁favorise	-11.932
▁»;	-11.9326
▁édifiée	-11.9338
▁réduite	-11.9348
talité	-11.9351
▁considéra	-11.9358
appelles	-11.9359
acceptera	-11.936
erai	-11.9365
▁partag	-11.9371
▁écart	-11.9374
▁culbut	-11.9374
▁Abi	-11.9381
▁Mâ	-11.9383
én	-11.9384
▁maudiss	-11.939
▁repose	-11.9401
▁cachés	-11.9406
▁séduise	-11.941
▁justifie	-11.9415
▁fausse	-11.9425
tif	-11.9427
lein	-11.9428
▁commander	-11.9439
▁annonc	-11.9446
rs	-11.9446
▁édifie	-11.9447
▁fortifia	-11.9448
lu	-11.9451
osa	-11.9452
accusateur	-11.9456
connaissaient	-11.9468
▁souche	-11.9469
facilement	-11.947
achève	-11.948
▁mécontent	-11.9485
empar	-11.9489
▁mépriser	-11.9492
▁environn	-11.9494
épouser	-11.9503
ek	-11.951
▁chantera	-11.9511
aille	-11.9511
▁att	-11.9512
▁observ	-11.9513
▁remi	-11.9522
▁quittera	-11.9522
▁craigne	-11.9526
isation	-11.9531
▁provoquer	-11.955
▁déclara	-11.9552
▁trébuch	-11.9557
▁décider	-11.956
▁unis	-11.9561
étonnai	-11.9563
▁endurer	-11.9565
séde	-11.957
P	-11.958
▁héro	-11.9582
▁paraiss	-11.9584
▁troublée	-11.9593
▁soulev	-11.9595
▁aîné	-11.9597
▁crucifiés	-11.9606
ivinité	-11.9612
▁grinc	-11.9624
▁traverser	-11.9625
▁ôter	-11.9625
ania	-11.9627
▁Ra	-11.9632
ibéri	-11.9653
rissante	-11.9656
▁ramenée	-11.9658
ath	-11.9672
▁anéanti	-11.9687
▁exemples	-11.9697
Alph	-11.9707
▁absten	-11.971
ousse	-11.9719
ements	-11.973
lq	-11.973
bi	-11.974
▁récidive	-11.9742
▁épais	-11.9748
▁remarqu	-11.9749
▁craindra	-11.9752
▁fréquent	-11.9754
▁étude	-11.9754
▁constat	-11.9758
▁aimai	-11.9761
rdeur	-11.978
ï	-11.9786
▁étonnée	-11.9789
▁respecter	-11.9796
▁produits	-11.9797
▁tuera	-11.9809
▁réparti	-11.9809
ssaient	-11.9822
lation	-11.983
uses	-11.9832
appa	-11.9845
▁conseils	-11.986
ouvrira	-11.986
▁fréquente	-11.9864
▁dénonce	-11.9874
▁penche	-11.9878
cture	-11.9879
▁réponds	-11.9881
Jésus	-11.9885
▁désigna	-11.9886
▁puni	-11.9894
▁éprouv	-11.9896
▁ins	-11.9897
envoya	-11.991
▁appartenai	-11.9913
écoule	-11.9924
uf	-11.9926
▁utilise	-11.993
ham	-11.9942
attacher	-11.995
▁vus	-11.9956
▁réaliser	-11.9957
▁correct	-11.9972
isait	-11.9979
pha	-12.0009
tenez	-12.001
▁retomber	-12.001
sera	-12.0016
▁toile	-12.0035
▁curi	-12.0037
vit	-12.0043
▁ri	-12.0044
▁traversa	-12.0046
▁restai	-12.0062
▁abri	-12.0067
isant	-12.0085
▁lament	-12.0088
xer	-12.0089
▁permette	-12.0102
▁informe	-12.0104
ose	-12.013
ttes	-12.0139
got	-12.014
iche	-12.0141
▁convers	-12.015
rées	-12.0161
▁imit	-12.0163
puis	-12.0167
▁liée	-12.0171
▁coll	-12.0174
clin	-12.0176
ué	-12.0184
▁Lu	-12.0186
isser	-12.02
▁raisonnai	-12.0209
olive	-12.0214
▁So	-12.0217
▁fléchir	-12.0217
▁Jé	-12.0221
oivent	-12.0232
▁poussée	-12.0237
▁contienne	-12.0246
▁Ha	-12.0247
Dé	-12.0248
▁scandal	-12.0249
isible	-12.0249
celui	-12.0252
accepte	-12.0256
▁romain	-12.0258
▁apporterai	-12.0266
▁sub	-12.0269
éclaire	-12.0272
celle	-12.0273
▁bat	-12.0276
▁conven	-12.0289
Mes	-12.0289
ga	-12.0294
quête	-12.0297
▁hy	-12.0306
attaque	-12.0308
▁acquitte	-12.0317
▁prosterna	-12.0317
urer	-12.0321
▁issue	-12.0328
intégr	-12.0332
▁tendu	-12.0334
Ar	-12.0334
▁charnelle	-12.0336
omme	-12.0338
▁réalise	-12.0358
▁périra	-12.0367
▁Détourne	-12.0369
▁situé	-12.0372
▁An	-12.0376
ah	-12.0388
iro	-12.0396
▁rafraîchi	-12.0405
uste	-12.0406
comparaître	-12.0412
▁cl	-12.0427
▁gagna	-12.0427
▁épi	-12.043
▁lev	-12.0434
▁vêtue	-12.0438
nom	-12.0441
▁enfl	-12.0442
▁Boa	-12.0443
▁assaill	-12.0447
▁sépara	-12.045
▁men	-12.0456
▁frappera	-12.0462
ète	-12.0469
▁guida	-12.0475
▁reproch	-12.0479
▁voulai	-12.0479
oublier	-12.0481
mina	-12.0483
▁remise	-12.0492
▁condamn	-12.0497
▁brillera	-12.0508
ui	-12.0512
▁précipita	-12.053
R	-12.0531
▁Tou	-12.0536
▁fall	-12.054
écheresse	-12.0541
▁comprend	-12.0543
âf	-12.0551
▁Ami	-12.0553
▁parles	-12.0554
va	-12.0555
▁retire	-12.0556
niers	-12.0559
▁surpasse	-12.0564
▁Eli	-12.0577
pensons	-12.058
▁pose	-12.0585
alors	-12.0586
▁répudi	-12.0586
rier	-12.06
▁harp	-12.0603
▁plac	-12.0609
élu	-12.0609
▁raisonner	-12.0619
▁déf	-12.0637
▁gagn	-12.0637
▁mécroie	-12.0639
aurons	-12.064
▁glorifia	-12.0641
▁séduis	-12.0645
▁répandra	-12.0646
ens	-12.0656
▁punis	-12.066
▁déborde	-12.066
▁raisonne	-12.0663
scine	-12.0669
▁tir	-12.0671
contribu	-12.0675
▁préparera	-12.0676
ic	-12.0677
▁mett	-12.0677
rsion	-12.068
ept	-12.0688
▁enfui	-12.069
acquitte	-12.0691
▁douter	-12.0699
Croiron	-12.0699
▁fixe	-12.0703
ad	-12.0704
▁marié	-12.0721
▁facilite	-12.0732
asse	-12.0742
▁lac	-12.0744
▁pardonnes	-12.0746
▁disperser	-12.0752
▁détruise	-12.0755
▁Approche	-12.0755
▁idée	-12.0757
ature	-12.0757
▁autel	-12.0758
ü	-12.0759
▁voilé	-12.0759
ainsi	-12.076
châtiment	-12.0766
▁nui	-12.0767
▁implorer	-12.0776
▁chang	-12.0778
quit	-12.0782
▁plaisant	-12.0786
▁prév	-12.0788
cela	-12.0791
cie	-12.0797
ssions	-12.0807
▁Just	-12.0809
▁gen	-12.0816
▁lamenter	-12.0848
▁hér	-12.085
▁impudi	-12.0852
▁lavée	-12.0863
▁préfér	-12.0863
gner	-12.0885
▁habité	-12.0891
▁Géné	-12.0911
▁adresser	-12.0913
manderez	-12.0919
devant	-12.0919
éprouva	-12.0927
rice	-12.0929
▁pressai	-12.0938
étiez	-12.0953
usez	-12.0968
Tuez	-12.0969
Re	-12.0971
▁couronn	-12.0973
▁continuai	-12.0975
▁malheurs	-12.098
▁accompagn	-12.0988
▁Ru	-12.0996
▁Ré	-12.1004
frère	-12.1008
▁Génér	-12.1009
éloigna	-12.1011
▁apparent	-12.1011
▁no	-12.1015
Livre	-12.1026
▁exult	-12.1032
▁honore	-12.1033
accomplira	-12.1035
▁allum	-12.1041
▁grav	-12.1047
taire	-12.1051
▁amas	-12.1053
▁bru	-12.1057
▁enlev	-12.1059
▁nourritures	-12.106
dieux	-12.1063
▁rebâti	-12.1086
entrée	-12.1092
▁considérai	-12.1098
endre	-12.1101
▁contredire	-12.1101
égal	-12.1107
▁Bér	-12.1114
▁reti	-12.1115
récompense	-12.1116
▁enf	-12.1118
▁confessera	-12.1121
▁prop	-12.1129
ador	-12.1134
Coran	-12.1136
attacha	-12.1137
encore	-12.114
Vou	-12.1141
▁ordonnée	-12.1143
Q	-12.1145
▁trembler	-12.1147
enflamme	-12.115
aumône	-12.1151
Messager	-12.1153
fille	-12.1155
▁garda	-12.1157
nique	-12.1166
▁moque	-12.1166
▁nourriss	-12.1167
▁ver	-12.1171
accueil	-12.1176
▁Mana	-12.1181
▁Pr	-12.1182
▁ge	-12.1192
éga	-12.1193
avantage	-12.1196
her	-12.1201
pée	-12.1206
▁DE	-12.1207
pagne	-12.121
appui	-12.1212
face	-12.1212
▁roule	-12.1215
armée	-12.1217
▁dénigr	-12.1221
embrasse	-12.1222
▁enroule	-12.1224
▁sentir	-12.1225
installa	-12.1226
éteint	-12.1228
servez	-12.123
▁domine	-12.1231
▁chanter	-12.1236
esclave	-12.1236
]»	-12.1236
échappe	-12.1237
▁désol	-12.1239
achever	-12.1245
épi	-12.1245
élection	-12.1252
▁ajout	-12.1255
▁sauta	-12.1256
▁trava	-12.1259
▁foin	-12.126
Ange	-12.1261
▁suivra	-12.1261
habiller	-12.1269
▁établisse	-12.1286
eindre	-12.1289
extrême	-12.1295
écriture	-12.13
amertume	-12.13
immolation	-12.1301
expiation	-12.1301
étonner	-12.1302
offense	-12.1302
entretenir	-12.1304
insurrection	-12.1304
Nul	-12.1306
Craignez	-12.131
▁charg	-12.1311
inévitable	-12.1312
▁indique	-12.1312
ceux	-12.1313
Égyptien	-12.1316
Prenez	-12.132
érer	-12.1321
ouvrier	-12.1323
oblige	-12.1323
côte	-12.1324
idolâtrie	-12.1324
audace	-12.1327
Appelez	-12.1327
oiseaux	-12.133
▁ravi	-12.1331
acheter	-12.1334
Apporte	-12.1336
assombri	-12.1337
hôte	-12.1337
impur	-12.1339
étranger	-12.134
Faites	-12.134
Dites	-12.134
inconnu	-12.1341
existence	-12.1341
immense	-12.1342
Telle	-12.1342
Jonas	-12.1342
abomination	-12.1343
Demande	-12.1343
emportèrent	-12.1344
invisible	-12.1344
▁invite	-12.1344
Suivez	-12.1345
Iblis	-12.1346
Gabriel	-12.1346
invoquez	-12.1346
dessous	-12.1346
épines	-12.1347
infirmité	-12.1348
▁franchi	-12.1348
excès	-12.1348
effort	-12.1349
époque	-12.135
donner	-12.135
Laissez	-12.135
aspect	-12.1354
obtiendr	-12.1354
▁orgueilleuse	-12.1358
observez	-12.1361
endurer	-12.1363
endormi	-12.1363
enlève	-12.1364
oiseau	-12.1366
attendez	-12.1367
▁inspire	-12.1368
écar	-12.1368
▁remplace	-12.1368
impie	-12.1371
«	-12.1372
▁bran	-12.1373
aperçu	-12.1379
Musulmans	-12.138
▁englouti	-12.1381
▁essuy	-12.1384
▁amass	-12.1388
accomplissent	-12.139
éprouvez	-12.139
aïe	-12.1392
science	-12.1397
▁précipite	-12.1402
▁thésauris	-12.141
échanger	-12.1417
▁serve	-12.142
entour	-12.1421
avaler	-12.1422
comparables	-12.1424
épousera	-12.1427
▁Sim	-12.1432
▁corr	-12.1433
▁cuirasse	-12.1437
▁Regard	-12.1442
▁présentera	-12.1444
▁respectueuse	-12.1445
▁Za	-12.1451
▁veill	-12.1453
tali	-12.1455
appelait	-12.1455
▁chrétien	-12.1457
▁propriétaire	-12.1458
▁flèche	-12.1458
▁génisse	-12.1458
▁q	-12.1463
▁discussion	-12.1464
▁installé	-12.1465
▁glorifiera	-12.1465
▁hautain	-12.1466
▁gémissement	-12.1468
envoyés	-12.1468
▁obéissant	-12.1468
▁chaste	-12.1469
▁lapidé	-12.1471
▁raffermi	-12.1471
▁stupéfait	-12.1473
▁engagé	-12.1475
▁attenda	-12.1475
▁marqué	-12.1476
▁vague	-12.1477
▁maltrait	-12.1478
▁anti	-12.1479
▁futilité	-12.148
▁interrogé	-12.1481
issons	-12.1483
▁prosterné	-12.1483
▁assassin	-12.1484
▁noyé	-12.1485
▁indiqu	-12.1487
▁trempe	-12.149
▁remplisse	-12.1492
▁bienfaisan	-12.1492
▁limite	-12.1495
▁emprisonn	-12.1497
▁échou	-12.1499
▁Ay	-12.15
▁inf	-12.1502
▁menton	-12.1502
nthe	-12.1502
▁destin	-12.1503
▁moqué	-12.1504
▁tord	-12.1506
▁feuille	-12.1506
▁Israélite	-12.1511
▁renversée	-12.1514
abet	-12.1526
▁uni	-12.1527
▁effrayé	-12.1529
▁consola	-12.1529
▁collecte	-12.1535
▁imposteur	-12.1536
obéir	-12.1537
▁rapproché	-12.1538
▁adorateur	-12.154
▁somm	-12.1542
ème	-12.1546
▁infini	-12.155
adress	-12.1551
▁retenu	-12.1552
▁prouvé	-12.1552
▁Claud	-12.1553
▁inspiré	-12.1554
▁éclatant	-12.1556
attrister	-12.1565
▁ivres	-12.1565
▁saisiss	-12.1566
▁Pri	-12.1569
▁brûlant	-12.1572
▁décrét	-12.1573
▁permanen	-12.1574
ulon	-12.1578
ste	-12.1588
etirez	-12.1589
▁rig	-12.159
▁dérange	-12.1595
▁comprenne	-12.1596
▁van	-12.1597
dab	-12.1598
▁glori	-12.1598
▁perdr	-12.1599
adora	-12.1599
▁cerner	-12.16
▁appartiendr	-12.1601
lusion	-12.1602
ale	-12.1602
culaire	-12.1602
▁dicte	-12.1604
▁Thessaloni	-12.1604
tingu	-12.1605
▁Craign	-12.1607
▁Salue	-12.1607
onomie	-12.1607
▁fléau	-12.1608
fidélité	-12.1608
▁raille	-12.1608
▁pèlerin	-12.1608
énédiction	-12.1608
È	-12.1609
▁rouspét	-12.1609
Aréopag	-12.1609
Qadr	-12.1609
Qarnayn	-12.1609
Umra	-12.1609
Wajh	-12.1609
alphabet	-12.1609
article	-12.1609
coreligionnaires	-12.1609
immensité	-12.1609
çà	-12.1609
▁Goliath	-12.1609
▁Insensé	-12.1609
▁Interroge	-12.1609
▁Mattath	-12.1609
▁Plutôt	-12.1609
▁Recevez	-12.1609
▁Stéphanas	-12.1609
▁Sâmirî	-12.1609
▁alterner	-12.1609
▁caillou	-12.1609
▁cheptel	-12.1609
▁châteaux	-12.1609
▁conciliation	-12.1609
▁constellations	-12.1609
▁célibataire	-12.1609
▁diarrhée	-12.1609
▁déjeuner	-12.1609
▁démangeaison	-12.1609
▁dévergondée	-12.1609
▁fantôme	-12.1609
▁firmament	-12.1609
▁fragile	-12.1609
▁fragment	-12.1609
▁féminin	-12.1609
▁féroce	-12.1609
▁gibier	-12.1609
▁guirlandes	-12.1609
▁hébraïque	-12.1609
▁inaltérable	-12.1609
▁infirme	-12.1609
▁ingrédient	-12.1609
▁irrévocable	-12.1609
▁judaïs	-12.1609
▁linceul	-12.1609
▁maniganc	-12.1609
▁muezzin	-12.1609
▁noyade	-12.1609
▁néfaste	-12.1609
▁perçu	-12.1609
▁pluriel	-12.1609
▁privilège	-12.1609
▁problème	-12.1609
▁proximité	-12.1609
▁présomptueux	-12.1609
▁pénurie	-12.1609
▁rakât	-12.1609
▁rancune	-12.1609
▁religieuse	-12.1609
▁remboursé	-12.1609
▁représailles	-12.1609
▁réciproque	-12.1609
▁réflexion	-12.1609
▁schisme	-12.1609
▁secrétaire	-12.1609
▁sevrage	-12.1609
▁singulier	-12.1609
▁stimule	-12.1609
▁successifs	-12.1609
▁supériorité	-12.1609
▁symbole	-12.1609
▁système	-12.1609
▁sépulture	-12.1609
▁sérénité	-12.1609
▁théâtre	-12.1609
▁tourbillon	-12.1609
▁verdure	-12.1609
▁victorieux	-12.1609
▁vigueur	-12.1609
▁ébahis	-12.1609
▁érudit	-12.1609
▁Dernier	-12.1609
▁Guinée	-12.1609
▁explose	-12.1609
▁halète	-12.1609
▁insensible	-12.1609
▁malléable	-12.1609
▁prononça	-12.1609
▁véracité	-12.1609
Hénoc	-12.1609
empereur	-12.1609
▁absolument	-12.1609
▁courroie	-12.1609
▁dérision	-12.1609
▁entêté	-12.1609
▁fiancé	-12.1609
▁homosexuel	-12.1609
▁illuminé	-12.1609
▁victime	-12.1609
adversité	-12.1609
▁débris	-12.1609
▁dédaigne	-12.1609
▁embauch	-12.1609
Qayy	-12.1609
▁fraternité	-12.1609
▁refermer	-12.1609
▁souples	-12.1609
▁succession	-12.1609
araignée	-12.1609
▁fonio	-12.1609
▁forêt	-12.1609
▁hérésie	-12.1609
▁fourberie	-12.1609
▁impuissants	-12.1609
▁Maudit	-12.1609
▁pourriture	-12.1609
▁tempérant	-12.1609
▁enclos	-12.1609
▁majeur	-12.1609
▁absolue	-12.1609
▁défunt	-12.1609
▁lièvre	-12.1609
▁puberté	-12.1609
▁Gallio	-12.1609
▁Herm	-12.1609
▁grenad	-12.1609
▁charpentier	-12.1609
▁pélérinage	-12.1609
cycl	-12.1609
uxiliaire	-12.1609
▁prévaloir	-12.1609
▁douane	-12.1609
▁répétition	-12.1609
▁piquet	-12.1609
▁stature	-12.1609
▁énoncé	-12.1609
archie	-12.1609
▁médisance	-12.1609
▁séisme	-12.1609
▁bougie	-12.1609
▁chanceuse	-12.1609
▁éblouissant	-12.1609
▁Récite	-12.1609
logie	-12.1609
▁possession	-12.1609
▁réglé	-12.1609
▁concevoir	-12.1609
▁poing	-12.1609
▁pressoir	-12.1609
▁métier	-12.1609
humanité	-12.1609
▁lavage	-12.1609
▁contribution	-12.1609
▁excessive	-12.1609
▁réchauff	-12.1609
▁terroris	-12.1609
▁charrett	-12.1609
▁couvée	-12.1609
▁papier	-12.1609
▁impoli	-12.1609
▁délicieux	-12.1609
▁scept	-12.1609
▁démarche	-12.1609
▁révolution	-12.1609
loca	-12.1609
▁Prophétise	-12.1609
Siyâm	-12.1609
▁aigui	-12.1609
▁observateur	-12.1609
écrouler	-12.1609
▁Niniv	-12.1609
▁contempl	-12.1609
▁superf	-12.1609
▁réparer	-12.1609
Déverse	-12.1609
▁caresser	-12.1609
▁fenêtre	-12.1609
▁épaule	-12.1609
▁kilo	-12.1609
▁croissance	-12.1609
▁soustraire	-12.1609
▁restitue	-12.1609
▁inquiet	-12.161
▁partenaire	-12.161
▁pesée	-12.161
▁infidélité	-12.161
▁piétiner	-12.161
▁raillés	-12.161
▁satisfaire	-12.161
▁prospérité	-12.161
▁soutenir	-12.161
amuser	-12.161
▁combattants	-12.161
▁résistance	-12.161
▁disqualifié	-12.161
▁injure	-12.161
▁engloutisse	-12.161
▁ornés	-12.161
▁gaspillage	-12.161
▁délibérément	-12.161
▁dominateur	-12.161
▁habillé	-12.161
▁hache	-12.161
oignit	-12.161
▁camion	-12.161
▁profession	-12.161
exprimer	-12.161
▁présage	-12.161
▁tribulation	-12.161
▁étudier	-12.161
onner	-12.161
▁confirmateur	-12.161
▁supréma	-12.161
▁épouvantés	-12.161
▁gang	-12.161
▁Hell	-12.161
▁rebellé	-12.161
▁bouclier	-12.161
▁abattre	-12.1611
hivernage	-12.1611
▁fornicateur	-12.1611
▁anneau	-12.1611
▁Gol	-12.1611
▁cailles	-12.1611
▁inex	-12.1611
▁dévasté	-12.1611
▁immolé	-12.1611
▁divulguiez	-12.1611
▁tronc	-12.1611
▁divination	-12.1611
▁voisinage	-12.1611
▁vœux	-12.1611
▁tresser	-12.1611
▁lanière	-12.1611
▁dénombrer	-12.1611
▁renforcer	-12.1611
▁reviendrons	-12.1611
▁télé	-12.1611
▁variété	-12.1611
▁dénouement	-12.1612
▁balafon	-12.1612
dûment	-12.1612
▁taquine	-12.1612
▁inévitablement	-12.1612
▁sûreté	-12.1612
écroula	-12.1612
assimil	-12.1612
conjuga	-12.1612
▁larme	-12.1612
▁compreniez	-12.1612
Remets	-12.1612
▁mêlez	-12.1612
▁acceptation	-12.1612
▁cacheté	-12.1612
▁échelle	-12.1612
▁Libérez	-12.1612
▁Envoyez	-12.1612
asseyai	-12.1613
▁méritant	-12.1613
▁recommandation	-12.1613
▁émerveillé	-12.1613
▁concorde	-12.1613
▁mirage	-12.1613
▁phon	-12.1613
événement	-12.1613
▁rattraper	-12.1613
▁dilige	-12.1613
▁traînés	-12.1613
▁éclairés	-12.1613
▁paternelles	-12.1613
▁expert	-12.1614
▁enflammé	-12.1614
▁associaient	-12.1614
▁Juli	-12.1614
▁exerça	-12.1614
▁bouillie	-12.1614
▁désiste	-12.1614
▁rangée	-12.1614
▁corrige	-12.1614
▁provient	-12.1614
▁grimp	-12.1614
▁cousin	-12.1614
Fi	-12.1615
▁illuminantes	-12.1615
▁balay	-12.1615
▁anéantisse	-12.1615
▁confondre	-12.1615
▁Appelle	-12.1615
▁fraîcheur	-12.1615
▁diviser	-12.1615
▁fornicat	-12.1615
▁illégalement	-12.1615
▁dignité	-12.1616
▁mortelle	-12.1616
▁détruisîmes	-12.1616
▁naquit	-12.1616
▁clairvoyance	-12.1616
▁essuyer	-12.1616
humilient	-12.1616
▁patron	-12.1616
assari	-12.1617
▁brutale	-12.1617
▁fraction	-12.1617
▁allégé	-12.1617
▁attribuons	-12.1618
▁séparément	-12.1618
▁divergez	-12.1618
▁comparent	-12.1618
▁relation	-12.1618
▁nourrissons	-12.1618
▁consommé	-12.1618
▁niveau	-12.1618
▁médisant	-12.1618
▁contraindre	-12.1618
▁remue	-12.1619
▁communiquer	-12.1619
▁styl	-12.1619
▁Doux	-12.1619
▁fusion	-12.1619
▁pêcher	-12.1619
occuper	-12.1619
▁suiveurs	-12.1619
▁retiens	-12.162
▁bienvenue	-12.162
▁pilier	-12.162
ibla	-12.162
▁dénigrer	-12.162
▁grecque	-12.162
▁raser	-12.162
▁infligez	-12.1621
▁exultant	-12.1621
▁avéré	-12.1621
▁modifier	-12.1622
▁catastrophe	-12.1622
▁disposez	-12.1622
▁suffisent	-12.1622
▁perfide	-12.1622
▁expression	-12.1622
▁troublez	-12.1622
▁écorch	-12.1622
▁détachement	-12.1623
orgueillissaient	-12.1623
▁flatteur	-12.1624
▁menthe	-12.1624
▁mouiller	-12.1624
▁battaient	-12.1624
▁guidiez	-12.1624
▁transporter	-12.1624
éducation	-12.1625
▁calculer	-12.1625
orge	-12.1625
normalement	-12.1625
▁Nah	-12.1625
▁apercev	-12.1625
▁mailles	-12.1625
Chercherai	-12.1625
▁sévèrement	-12.1626
▁Tert	-12.1626
▁banque	-12.1626
▁concertez	-12.1627
▁échappent	-12.1627
▁ramenant	-12.1627
arabe	-12.1627
▁cesseras	-12.1627
▁consulter	-12.1627
▁retirez	-12.1628
▁serviette	-12.1628
▁Tiens	-12.1628
ivrognerie	-12.1629
▁prétendez	-12.1629
▁réprimander	-12.1629
▁triomphant	-12.1629
▁adressez	-12.1629
▁espérez	-12.163
▁laissâmes	-12.163
▁revoir	-12.163
▁détachée	-12.163
▁contredisent	-12.163
▁mensongère	-12.163
▁découvert	-12.163
attestation	-12.163
▁tresses	-12.1631
▁excusez	-12.1631
▁Mich	-12.1631
▁infructueuse	-12.1631
▁prosternez	-12.1631
▁constitué	-12.1632
▁trompeuse	-12.1632
▁courtisan	-12.1632
▁renvoyer	-12.1633
▁rejoints	-12.1634
▁sauveur	-12.1634
▁vengerons	-12.1634
▁mai	-12.1634
▁endurez	-12.1634
▁détournèrent	-12.1635
▁divorcée	-12.1635
▁interrogation	-12.1635
▁acharné	-12.1635
▁obéissantes	-12.1636
▁raillent	-12.1637
▁utilisé	-12.1637
directement	-12.1637
▁semblant	-12.1638
▁blâmer	-12.1638
▁soulagé	-12.1638
▁quoiqu	-12.1638
▁reconnaître	-12.1638
▁germe	-12.1639
▁combattrez	-12.164
▁disputèrent	-12.164
▁cherchions	-12.164
▁vœu	-12.164
▁transgressaient	-12.1641
▁reviendraient	-12.1641
▁troubler	-12.1642
▁remettre	-12.1642
▁Eve	-12.1642
▁créateurs	-12.1642
▁fissures	-12.1642
▁remords	-12.1643
▁menacés	-12.1643
▁réunion	-12.1643
ribus	-12.1643
▁emparés	-12.1643
▁nourrissent	-12.1643
▁foudroyés	-12.1644
▁Miséricorde	-12.1644
▁tablettes	-12.1645
▁blasphémateur	-12.1645
▁décidez	-12.1645
▁diriez	-12.1645
▁mélangé	-12.1645
percevoir	-12.1646
▁plaise	-12.1646
▁casque	-12.1646
▁irré	-12.1646
▁bannir	-12.1646
▁renoncer	-12.1646
▁étranglé	-12.1647
▁vautour	-12.1647
▁soumettent	-12.1647
▁foulée	-12.1647
▁transform	-12.1647
ucée	-12.1648
éloignant	-12.1648
▁enquête	-12.1648
élevage	-12.1648
▁accru	-12.1648
▁buveur	-12.1648
▁châtierons	-12.1649
▁Nicola	-12.1649
▁chagriné	-12.1649
▁Mari	-12.165
▁examin	-12.165
▁touchée	-12.1651
▁vertu	-12.1652
Eu	-12.1654
▁murmurer	-12.1654
▁destruct	-12.1655
▁voguent	-12.1655
▁voleront	-12.1655
▁chaleureux	-12.1658
▁moissonner	-12.1658
immoler	-12.1658
▁remplaç	-12.1659
cadence	-12.1659
▁difficilement	-12.166
▁décent	-12.1661
▁corbeau	-12.1661
▁Comptes	-12.1661
▁récompenserons	-12.1661
▁négligé	-12.1662
▁régneront	-12.1662
appuie	-12.1662
allonger	-12.1662
▁idiot	-12.1662
▁reposiez	-12.1663
▁chemise	-12.1663
mult	-12.1663
▁ulcère	-12.1666
▁libertins	-12.1666
▁sourdes	-12.1667
▁ébranlées	-12.1667
▁aride	-12.1667
lons	-12.1669
▁moissonné	-12.167
▁chauss	-12.1671
▁préparez	-12.1672
épouses	-12.1672
▁propreté	-12.1672
▁comploté	-12.1673
▁proposée	-12.1673
▁diriger	-12.1673
▁reins	-12.1673
▁1	-12.1674
▁amassera	-12.1675
▁océan	-12.1677
▁animal	-12.1677
▁échéance	-12.1677
ouverture	-12.1677
▁avidité	-12.1677
▁applaudisse	-12.1678
▁ambition	-12.1678
▁Implore	-12.1678
▁innombrable	-12.1678
▁intermédiaire	-12.1678
▁éléphant	-12.1678
▁griot	-12.1678
▁crépuscule	-12.1678
▁agréablement	-12.1678
▁sorcier	-12.1678
▁intendant	-12.1679
▁détruite	-12.168
▁Saisissez	-12.168
▁révolte	-12.168
▁plaisanterie	-12.168
▁convenablement	-12.168
▁occup	-12.168
▁effrayer	-12.1681
▁égalité	-12.1681
rag	-12.1683
▁angoissé	-12.1683
▁interne	-12.1683
▁grogne	-12.1683
▁décapité	-12.1683
▁étendus	-12.1683
▁conservé	-12.1684
▁perdent	-12.1685
▁subsistera	-12.1685
▁secourent	-12.1685
▁guett	-12.1687
▁répande	-12.1687
▁ressuscita	-12.1687
▁appliquer	-12.1688
▁raisonnement	-12.1688
▁bâtiment	-12.1688
▁ouvrage	-12.1689
▁vivrez	-12.169
▁bain	-12.169
▁souris	-12.169
Sont	-12.169
▁moustique	-12.1691
▁souiller	-12.1691
oudain	-12.1691
▁envieux	-12.1692
▁Perga	-12.1692
ues	-12.1693
▁sueur	-12.1693
▁coton	-12.1696
▁proclamera	-12.1696
▁casse	-12.1696
▁rappeliez	-12.1697
▁noyer	-12.1698
▁corporelle	-12.1699
▁statues	-12.17
▁dévorent	-12.1701
▁captur	-12.1701
▁coudées	-12.1701
▁Gab	-12.1702
▁martyrs	-12.1702
▁ombrages	-12.1702
▁brindilles	-12.1702
▁précautions	-12.1702
▁associatrices	-12.1702
▁agréa	-12.1703
▁lancez	-12.1703
▁lamentations	-12.1703
▁parcourent	-12.1703
▁semeurs	-12.1704
▁orient	-12.1704
▁habillera	-12.1704
▁ravisse	-12.1704
mateurs	-12.1706
▁évent	-12.1707
urifiez	-12.1707
▁critique	-12.1708
▁informerai	-12.1709
uyez	-12.171
▁recouvrent	-12.1712
▁amassent	-12.1712
▁roulé	-12.1712
▁saluez	-12.1713
▁renions	-12.1713
▁rompent	-12.1713
Om	-12.1715
▁acceptez	-12.1715
éloignent	-12.1717
prouver	-12.1717
▁enseignez	-12.1717
▁rapporter	-12.1718
▁poli	-12.1721
habitez	-12.1721
▁délire	-12.1721
emprisonner	-12.1722
▁déraciné	-12.1722
▁inventent	-12.1723
levez	-12.1724
▁résident	-12.1725
▁contente	-12.1727
▁razzia	-12.1727
▁exempt	-12.1728
▁remercie	-12.1728
▁corde	-12.1729
▁perpétuel	-12.1729
▁ruiné	-12.1731
affranchisse	-12.1731
▁assomm	-12.1732
▁Ecri	-12.1732
▁compren	-12.1734
ddition	-12.1735
étonnes	-12.1735
▁sommet	-12.1735
▁réjouisse	-12.1738
▁inconnu	-12.174
intéress	-12.1741
▁retournez	-12.1742
▁comptez	-12.1746
▁cultivé	-12.1746
▁hôte	-12.1747
▁hérité	-12.1747
▁exploiter	-12.1749
Él	-12.1749
resses	-12.1749
▁perfectionné	-12.175
œuvres	-12.175
▁confondu	-12.175
mètre	-12.1751
▁inciter	-12.1754
▁créa	-12.1757
maïs	-12.1758
▁mêlée	-12.176
▁diminu	-12.1761
▁respectent	-12.1761
▁génisses	-12.1761
▁réunira	-12.1762
▁flèches	-12.1762
▁futilités	-12.1762
▁propriétaires	-12.1762
▁chrétiens	-12.1763
▁empêchent	-12.1763
▁installés	-12.1764
libération	-12.1766
▁côte	-12.1766
▁espion	-12.1766
▁hautains	-12.1767
▁moines	-12.1769
▁attachée	-12.1771
aphra	-12.1777
▁cul	-12.1779
▁emparer	-12.1781
attirer	-12.1781
▁apost	-12.1782
voyant	-12.1783
▁disposition	-12.1784
cuirasses	-12.1784
ag	-12.1785
▁renversées	-12.1786
▁différents	-12.1786
▁expiat	-12.1786
▁inondation	-12.1786
▁Saqar	-12.1787
▁interprète	-12.1787
▁rév	-12.1787
▁monnaie	-12.1788
▁humiliation	-12.1789
▁ignor	-12.1791
▁Ecriture	-12.1791
▁acquise	-12.1791
▁commise	-12.1792
▁souvi	-12.1792
▁vengé	-12.1792
utilité	-12.1794
▁préoccup	-12.1795
▁sourir	-12.1796
▁écume	-12.1798
▁esclavage	-12.1799
espace	-12.1799
étonnèrent	-12.1801
▁détesté	-12.1801
▁Ville	-12.1802
▁Désire	-12.1802
ustes	-12.1803
▁vieil	-12.1805
enfler	-12.1806
▁mamelle	-12.1806
▁contents	-12.1807
▁purifient	-12.1808
eillez	-12.181
▁purifiera	-12.181
▁accour	-12.1812
▁Zach	-12.1812
▁affranchi	-12.1813
▁affligent	-12.1813
▁empêchement	-12.1816
▁intelligents	-12.1816
▁tendres	-12.1816
▁pardonnâmes	-12.1818
▁comprends	-12.1819
▁teigne	-12.182
▁station	-12.1822
▁obligations	-12.1823
▁disette	-12.1824
man	-12.1826
hry	-12.1828
Avertis	-12.183
▁texte	-12.1831
▁saisies	-12.1831
nèrent	-12.1833
▁limité	-12.1836
▁bienveillant	-12.1837
▁entraîné	-12.1837
ssage	-12.1841
emporter	-12.1846
▁accepter	-12.1846
érez	-12.185
▁réc	-12.185
▁ânes	-12.1855
▁ôté	-12.1856
▁embarqu	-12.1858
▁Ap	-12.1865
▁impose	-12.1866
▁essuyé	-12.1867
▁échar	-12.1868
▁merci	-12.1869
▁aboutir	-12.187
li	-12.1872
▁transformé	-12.1873
llement	-12.1875
▁verte	-12.1878
▁adulte	-12.1879
empêcher	-12.188
▁éprouvez	-12.1882
▁Pur	-12.1889
▁pendu	-12.1892
▁vieilli	-12.1895
▁purifiée	-12.1895
▁pourrions	-12.1896
▁lévite	-12.1897
▁survient	-12.1901
▁idolâtrie	-12.1904
▁degré	-12.1904
▁glisser	-12.1906
▁Appelez	-12.1906
phos	-12.1908
▁abondants	-12.1908
enveloppe	-12.1909
▁général	-12.1911
▁produisai	-12.1912
▁violé	-12.1912
▁prom	-12.1913
▁Réveille	-12.1915
ommes	-12.1918
▁Oh	-12.1918
▁humilier	-12.1918
▁vêtir	-12.1919
▁puniss	-12.192
▁élection	-12.192
▁maltraité	-12.1923
Dan	-12.1925
▁supérieurs	-12.1926
▁touchent	-12.1928
assiér	-12.1928
▁renversé	-12.1929
▁audace	-12.193
▁orphelin	-12.1935
▁Eloigne	-12.1938
▁complets	-12.1938
▁Égyptien	-12.1939
▁fr	-12.1939
▁déçus	-12.1942
siez	-12.1943
▁Nazaréens	-12.1945
▁ouvrent	-12.1945
école	-12.1946
▁préférer	-12.1948
▁onz	-12.1951
▁bal	-12.1952
êtres	-12.1955
▁dissip	-12.1957
crimination	-12.1962
▁légion	-12.1962
▁abreuver	-12.1962
▁brûlés	-12.1964
▁pen	-12.1968
▁Gu	-12.1969
▁appui	-12.1977
▁nettoy	-12.1978
vaient	-12.1979
▁discern	-12.1981
▁usage	-12.1981
étonn	-12.199
▁fuy	-12.1992
▁inspir	-12.1993
▁excellentes	-12.1993
allumer	-12.1994
val	-12.1996
▁devancer	-12.1999
▁changés	-12.2002
▁entrerons	-12.2002
▁diminuer	-12.2003
▁éteint	-12.2005
▁offrandes	-12.2009
ivité	-12.2011
▁mourant	-12.2014
▁latin	-12.2015
▁Tenez	-12.2021
▁clairvoyan	-12.2022
▁corro	-12.2026
éra	-12.203
▁habitez	-12.2033
▁deviendra	-12.2035
▁sombre	-12.2039
▁éc	-12.2041
▁haïra	-12.2043
▁siffle	-12.2044
▁embrasé	-12.2046
▁éclair	-12.2051
▁regretter	-12.2053
▁clans	-12.2053
▁regrets	-12.2058
▁lourds	-12.2063
Informe	-12.2066
▁excuses	-12.2067
▁enterr	-12.2073
ffer	-12.2074
▁attentif	-12.2074
▁poussin	-12.2074
▁marques	-12.2085
▁cal	-12.2089
▁faillir	-12.2089
assée	-12.209
▁rap	-12.2092
▁approuver	-12.2092
▁relèvera	-12.2094
▁écout	-12.2096
▁prochaine	-12.2097
▁lapide	-12.2098
▁ballo	-12.2098
▁propag	-12.2101
▁Jetez	-12.2104
passé	-12.2111
▁calame	-12.2116
▁plait	-12.2121
▁indiquer	-12.2121
▁fiche	-12.2123
occupe	-12.2124
▁amitié	-12.2126
▁impiété	-12.2126
▁vigneron	-12.2127
▁boissons	-12.213
▁instruire	-12.213
▁excellence	-12.213
▁négliger	-12.2139
▁combattus	-12.214
▁traitement	-12.214
asser	-12.2145
▁impu	-12.2148
allai	-12.2148
arde	-12.2152
▁devoirs	-12.2153
▁foul	-12.2161
▁syn	-12.2168
évanouir	-12.2169
▁pieuses	-12.2171
ide	-12.2175
▁décidée	-12.2175
▁Levants	-12.2182
▁attribuée	-12.219
▁exagér	-12.2191
▁encour	-12.2193
co	-12.2193
saume	-12.2195
▁réservés	-12.2197
▁augment	-12.2199
étient	-12.2204
▁pâli	-12.2205
encourage	-12.2206
▁admir	-12.2215
▁rasée	-12.2219
▁étouffée	-12.222
▁dévoiler	-12.2222
▁cana	-12.2228
▁épousée	-12.223
▁faillit	-12.2231
▁pourvoir	-12.2233
▁cra	-12.2236
Abi	-12.2244
▁espoirs	-12.2247
▁effroi	-12.2247
iversité	-12.2249
ON	-12.2254
▁nommer	-12.2255
unité	-12.2257
voyons	-12.2262
▁massacr	-12.2273
▁ajouta	-12.2281
actuellement	-12.2286
▁écrié	-12.2301
gar	-12.2302
▁jug	-12.2314
▁passées	-12.2316
ture	-12.2318
▁assuré	-12.2324
amène	-12.2324
▁pourrai	-12.2324
insulter	-12.2325
ouvoir	-12.2325
▁améliore	-12.2336
▁délaisser	-12.234
ap	-12.2342
▁délaiss	-12.2342
▁casser	-12.2344
▁extra	-12.2345
mettons	-12.2353
▁violents	-12.2353
nte	-12.2361
▁profits	-12.2368
mplirai	-12.2368
abuse	-12.2368
▁cuisine	-12.2375
▁ailleurs	-12.2382
▁consumer	-12.2382
▁éloigner	-12.2387
▁claires	-12.2391
▁apparente	-12.2395
ois	-12.2397
▁Mam	-12.2402
▁poules	-12.2403
▁sanctionne	-12.2412
▁divis	-12.2414
?...	-12.2414
na	-12.2415
▁Untel	-12.2417
v	-12.2418
courir	-12.242
aveugles	-12.2421
▁ét	-12.243
affaiss	-12.2431
aw	-12.2442
▁guidon	-12.2443
amassé	-12.2445
mer	-12.2449
▁Peul	-12.2457
▁Dispe	-12.2458
fidèles	-12.2459
ours	-12.2461
ouissez	-12.2462
w	-12.2466
mbe	-12.247
▁Hélas	-12.2471
▁attrape	-12.2481
lot	-12.2483
▁Frappe	-12.2483
mez	-12.2492
iger	-12.2498
▁Abs	-12.2504
▁couch	-12.2509
▁immobile	-12.251
▁attester	-12.2516
rer	-12.2523
▁implora	-12.2529
our	-12.253
▁complots	-12.2547
▁ouvri	-12.2551
▁expire	-12.2558
▁essai	-12.2563
▁dévoilée	-12.2568
▁Acha	-12.2571
▁lave	-12.2571
▁débord	-12.2578
▁amer	-12.2583
annule	-12.2584
▁Supporte	-12.2584
▁déshonore	-12.2585
▁ap	-12.2586
▁approcher	-12.2591
gne	-12.2608
ed	-12.2613
posez	-12.2616
▁consommer	-12.2616
▁jet	-12.2624
▁nage	-12.2629
ver	-12.2632
orer	-12.2634
▁faciliter	-12.2634
tiquer	-12.2639
rôl	-12.2643
▁Prie	-12.2646
rejetant	-12.2652
▁aile	-12.2655
▁construir	-12.2661
dre	-12.2667
▁Cité	-12.2671
▁chéri	-12.2674
riorité	-12.2677
]!»	-12.2678
▁faiblir	-12.268
▁meurs	-12.2687
▁baptisa	-12.2691
▁convertisse	-12.2692
fa	-12.2693
ultime	-12.2694
▁natte	-12.2698
oudre	-12.2699
▁rapproche	-12.2707
ges	-12.271
▁sy	-12.2714
▁escar	-12.2718
▁henni	-12.273
él	-12.273
▁brill	-12.2736
▁diverg	-12.2737
uche	-12.2738
tâmes	-12.2741
oût	-12.2745
▁expuls	-12.2748
▁distingu	-12.2753
inâ	-12.2755
▁recueille	-12.2755
tour	-12.2777
Éph	-12.2778
▁prive	-12.278
attriste	-12.2783
▁ourdi	-12.2786
▁descendra	-12.2789
faitement	-12.2793
▁pal	-12.2799
▁prompte	-12.2805
▁desséch	-12.2808
▁tuiez	-12.2815
▁chauffai	-12.2819
▁Soi	-12.2832
▁impureté	-12.2838
vais	-12.2839
▁huile	-12.2841
aque	-12.285
▁modifie	-12.2866
▁déga	-12.287
▁él	-12.288
référence	-12.2882
▁allég	-12.2884
▁gravi	-12.2893
▁haïss	-12.2895
cule	-12.29
▁apportée	-12.2902
▁retournera	-12.2905
▁roche	-12.2907
▁répandrai	-12.291
▁pleuv	-12.2911
▁lèves	-12.2928
▁oubliés	-12.2946
efforçai	-12.2968
▁habitée	-12.2978
▁expliqua	-12.2981
▁poil	-12.3001
▁suffisan	-12.3014
▁Elis	-12.3014
étique	-12.3015
▁i	-12.3025
aim	-12.3025
vité	-12.3026
▁compara	-12.3036
▁Merc	-12.3044
▁devais	-12.3046
adressa	-12.3048
ade	-12.3057
suivit	-12.3061
uis	-12.3061
▁sacrifié	-12.3065
▁confond	-12.3069
▁bara	-12.3071
▁assi	-12.3071
aissant	-12.3082
dé	-12.3085
▁cess	-12.3089
▁comp	-12.3089
riote	-12.3093
annoncez	-12.3094
▁écrivai	-12.3095
▁sab	-12.3099
▁démoli	-12.3101
▁introduir	-12.3111
▁guérirai	-12.3115
antes	-12.3121
▁aspir	-12.3124
▁connaissai	-12.3125
▁sacrifie	-12.3134
▁grill	-12.314
▁commanderai	-12.3142
▁importante	-12.3144
érissez	-12.3146
▁agenouillé	-12.315
émerveilla	-12.3154
▁tige	-12.3162
▁exulte	-12.317
▁multipliera	-12.3171
étable	-12.3177
▁adressée	-12.3192
abattr	-12.3192
▁vainc	-12.3193
▁suc	-12.3195
app	-12.3204
▁compat	-12.3206
▁magnifi	-12.3209
rd	-12.3214
fais	-12.3239
▁Ann	-12.3243
▁rassur	-12.3245
▁sacs	-12.3251
▁perc	-12.3253
rends	-12.326
▁ressuscit	-12.3262
▁honorer	-12.3263
▁convuls	-12.3265
ages	-12.3268
▁répugn	-12.3275
▁allaité	-12.3282
▁charger	-12.3284
isîmes	-12.3284
▁réconcilie	-12.3286
▁chuchot	-12.3289
▁distribue	-12.329
▁justifier	-12.3291
▁remettr	-12.3297
▁mainten	-12.33
▁gl	-12.3302
▁pures	-12.3306
▁préf	-12.3308
sous	-12.3313
aison	-12.3315
ame	-12.3319
▁parcelle	-12.3324
stable	-12.3326
dent	-12.3328
ithy	-12.3331
▁contribu	-12.3332
▁trous	-12.3339
▁hérite	-12.3344
éli	-12.3377
rues	-12.3387
port	-12.3389
▁manifester	-12.3391
aines	-12.3401
▁devrai	-12.3417
▁Ab	-12.3432
▁suivron	-12.3436
mor	-12.3438
ava	-12.3443
st	-12.3449
▁subiss	-12.3452
▁vogua	-12.3454
▁impôt	-12.346
sieur	-12.3463
▁conspir	-12.3477
tiles	-12.3482
bale	-12.3488
embarqu	-12.3493
▁Eu	-12.3504
▁scell	-12.3512
▁cohabit	-12.3512
▁rejeton	-12.3521
naient	-12.3524
▁courb	-12.3529
▁natal	-12.3531
▁Ordonne	-12.3536
▁demeura	-12.3537
agissai	-12.3548
▁aigre	-12.3549
▁coût	-12.3551
abat	-12.3561
▁commette	-12.3566
▁machin	-12.3574
▁imm	-12.3576
ager	-12.3591
ho	-12.3611
▁vivrai	-12.3611
▁lançai	-12.3618
▁montres	-12.362
▁abreuv	-12.3622
▁consume	-12.3629
gle	-12.3629
▁obt	-12.363
▁enrichiss	-12.3634
endit	-12.3645
éréni	-12.3657
▁Ram	-12.3659
ntrèrent	-12.366
▁persécute	-12.367
▁discerne	-12.367
assaisonn	-12.367
evenez	-12.3674
▁révélera	-12.3676
▁justifi	-12.3683
ors	-12.3687
ourut	-12.3692
▁emb	-12.3693
ller	-12.3694
▁puissa	-12.3703
▁Qâ	-12.3705
bé	-12.3705
eci	-12.3719
ajust	-12.3722
oient	-12.3723
illons	-12.3744
interpos	-12.3748
▁dou	-12.3749
▁doive	-12.376
▁cora	-12.3761
▁adorera	-12.3771
ndis	-12.3772
tends	-12.3772
▁Po	-12.378
▁futur	-12.3787
lait	-12.3788
oppos	-12.3794
▁fortifie	-12.3798
▁vivres	-12.3804
▁souffla	-12.3806
▁suivis	-12.3806
embarqua	-12.3817
▁affermisse	-12.3819
▁trébuche	-12.3821
▁sui	-12.3821
estime	-12.3833
▁craindr	-12.384
▁désavou	-12.3841
▁lava	-12.385
▁bris	-12.3855
▁diffam	-12.3859
rédité	-12.3859
laire	-12.3863
issues	-12.3871
▁proclame	-12.3891
▁affaibli	-12.3893
▁Har	-12.3899
émence	-12.3901
▁faisa	-12.3904
écap	-12.3907
▁venai	-12.3914
▁visit	-12.3916
▁remette	-12.3916
guste	-12.3923
▁débarqu	-12.3923
▁go	-12.3924
més	-12.3933
▁ignominie	-12.3933
▁affaiblis	-12.394
adresse	-12.3941
▁réclam	-12.3951
▁déverse	-12.3951
ines	-12.3954
▁hé	-12.3959
▁accordés	-12.396
▁gouvern	-12.397
▁précédent	-12.3977
▁négoci	-12.3982
▁Pars	-12.3986
eusement	-12.3986
▁traîne	-12.3988
▁lia	-12.3997
▁commettr	-12.4
▁tua	-12.4004
▁nie	-12.401
▁dressa	-12.4031
▁ôte	-12.4031
▁diffame	-12.4034
assembla	-12.4035
▁assure	-12.4043
▁cons	-12.4046
rban	-12.4057
enjoign	-12.406
▁déchire	-12.4068
▁approuve	-12.4082
égr	-12.4083
sé	-12.4106
▁résist	-12.411
▁écri	-12.4114
▁réduira	-12.4117
▁fier	-12.413
▁oublia	-12.4132
féré	-12.4135
sons	-12.4135
▁élargi	-12.4137
entoura	-12.4154
▁fixés	-12.4155
iques	-12.4156
séd	-12.416
approchai	-12.4168
tha	-12.4169
Eli	-12.4173
▁traitai	-12.4186
vées	-12.4198
tation	-12.4209
▁redress	-12.4215
▁gliss	-12.4229
▁affirm	-12.423
ension	-12.4239
vou	-12.4239
aner	-12.4253
▁multipliai	-12.4256
urance	-12.4257
otha	-12.4278
apportais	-12.4282
▁fêtes	-12.4282
▁mentionn	-12.4298
▁méfi	-12.4302
erait	-12.4303
issent	-12.4306
empare	-12.4309
repti	-12.4311
▁obstrue	-12.4312
▁hériteron	-12.4315
tr	-12.4321
▁nourrisse	-12.4322
▁ram	-12.4328
▁provoquera	-12.4335
▁suppose	-12.435
b	-12.4351
indre	-12.4354
arrivai	-12.4359
As	-12.4382
éon	-12.4383
▁Sé	-12.4388
▁aspire	-12.4394
▁Man	-12.4401
▁opprime	-12.4402
paraissent	-12.4404
▁garanti	-12.4404
▁principe	-12.4413
christ	-12.4415
▁offens	-12.4423
ice	-12.4425
▁fri	-12.4429
dame	-12.4446
enveloppés	-12.4451
▁jettera	-12.4452
prennent	-12.4456
traînant	-12.4461
▁chargera	-12.4469
▁devance	-12.4473
vision	-12.4476
▁sépar	-12.4479
▁indic	-12.4484
▁unir	-12.4492
iment	-12.4499
ôle	-12.4509
eulement	-12.4518
▁fabrique	-12.4523
▁repren	-12.4527
▁);	-12.453
▁mécroi	-12.4544
arriver	-12.4549
ret	-12.455
position	-12.455
▁chi	-12.4557
▁achevée	-12.456
roula	-12.4563
▁triomph	-12.4574
▁vente	-12.4582
▁favoris	-12.4582
▁canne	-12.4586
▁ramass	-12.4601
▁multiplia	-12.4615
mal	-12.4623
▁déteste	-12.4627
honorera	-12.4633
▁substitue	-12.4641
Ép	-12.4651
▁vice	-12.4657
piter	-12.4684
veillent	-12.4694
▁surpass	-12.4698
▁fonde	-12.4712
▁réprimande	-12.4714
menter	-12.4714
▁essaya	-12.4717
▁pié	-12.4733
fé	-12.4744
▁transporta	-12.4745
nant	-12.4756
gné	-12.4758
▁emport	-12.476
▁créée	-12.477
votre	-12.4777
ança	-12.4781
vi	-12.4799
▁accomplisse	-12.4802
▁espérer	-12.4807
▁rég	-12.482
▁paresse	-12.4824
▁Pou	-12.4826
▁égorge	-12.4834
lèrent	-12.4843
gens	-12.4851
sab	-12.4853
▁replie	-12.4859
ontre	-12.4866
▁bénir	-12.4872
▁donneron	-12.4876
▁disparaîtr	-12.4881
▁tarder	-12.4881
spiration	-12.4888
▁gu	-12.4912
▁exhorta	-12.4913
(	-12.4923
▁paraisse	-12.493
▁trembl	-12.4937
▁écouta	-12.4945
ûn	-12.4949
once	-12.4958
roph	-12.4966
▁extérieur	-12.4967
▁ress	-12.4972
▁incit	-12.4974
donnons	-12.4989
▁confiée	-12.4992
th	-12.4996
▁souvin	-12.5003
▁dispersée	-12.5018
oûte	-12.5023
▁nia	-12.5025
▁Th	-12.5033
fi	-12.5033
ec	-12.5035
▁consacré	-12.5037
▁sardo	-12.5046
▁Sy	-12.5077
teur	-12.5083
émerveill	-12.5096
▁veillé	-12.511
▁enrichi	-12.5113
▁récidiv	-12.5122
▁pressent	-12.5122
▁incline	-12.5125
encourag	-12.5126
uer	-12.513
▁enfanté	-12.5135
▁suffis	-12.5138
▁devi	-12.5151
▁commençai	-12.5152
entraîna	-12.5153
meur	-12.5155
épha	-12.516
matur	-12.5168
endez	-12.5189
bus	-12.5216
▁obéira	-12.5219
▁échang	-12.5219
cès	-12.5226
▁cro	-12.5246
▁désirer	-12.5259
▁surprenne	-12.5262
▁épargnera	-12.5265
▁dirig	-12.5266
▁combattr	-12.527
ulez	-12.5273
▁préc	-12.5278
accroche	-12.5281
▁barr	-12.5282
évanoui	-12.5283
ouvre	-12.5284
▁sacrifi	-12.5286
rosser	-12.5287
▁cesser	-12.5296
▁sauv	-12.5298
▁Tra	-12.5299
oler	-12.53
▁circule	-12.5301
▁bra	-12.5309
▁Ya	-12.5314
▁passai	-12.5315
▁vaincron	-12.5323
trer	-12.5326
ffre	-12.5328
lace	-12.5333
▁couchée	-12.5342
▁distrai	-12.5356
usement	-12.5359
leuve	-12.5366
▁embras	-12.5367
▁gardai	-12.5367
tables	-12.5375
▁conseill	-12.5384
enfle	-12.5385
▁châti	-12.5394
oriser	-12.5402
llier	-12.5402
▁deviendr	-12.5403
▁étroit	-12.5409
▁rédui	-12.5417
notre	-12.5444
▁déshonor	-12.5458
▁lou	-12.5467
▁gestion	-12.5469
Com	-12.5469
▁autoris	-12.5477
affaisse	-12.5487
▁interdise	-12.5491
rouiller	-12.5497
femme	-12.55
▁manifesta	-12.5508
parition	-12.5512
▁hurle	-12.5515
▁Vien	-12.5519
éva	-12.5541
choni	-12.5541
tendant	-12.5549
▁intérieur	-12.5551
▁annuler	-12.5551
▁reprocha	-12.5565
ubba	-12.5576
▁acc	-12.5581
▁déscend	-12.5595
▁eff	-12.56
▁massacre	-12.5609
ouvrent	-12.5615
incite	-12.5625
éclairer	-12.5627
iner	-12.563
▁réfugie	-12.5639
▁réd	-12.5639
attendai	-12.5642
▁remonte	-12.565
immobiles	-12.565
▁gouverna	-12.5663
▁accusa	-12.5667
▁plonge	-12.5672
▁recevrai	-12.568
▁dot	-12.5685
▁vibr	-12.5687
▁épousé	-12.5688
grand	-12.5688
▁sembla	-12.5703
▁ferve	-12.5707
▁abaiss	-12.5707
▁maternel	-12.5709
cement	-12.5713
irage	-12.5714
hère	-12.5717
▁désira	-12.5719
▁semée	-12.5721
▁rasé	-12.5724
▁res	-12.5725
▁insult	-12.5728
▁séjournai	-12.5742
tière	-12.575
▁dresse	-12.5755
▁divin	-12.5756
mbre	-12.5761
▁détourn	-12.5761
▁épin	-12.5766
▁confér	-12.577
temps	-12.577
tivement	-12.5771
personne	-12.5781
Alors	-12.5782
▁flagell	-12.5788
▁noirc	-12.5792
▁égorg	-12.5792
▁convertis	-12.5794
▁fourni	-12.5799
amis	-12.5804
dez	-12.581
▁Mer	-12.5811
empreinte	-12.5819
vienne	-12.5821
▁signifi	-12.5823
▁mou	-12.5828
▁converti	-12.583
▁conjectur	-12.5834
▁étouffé	-12.5834
fils	-12.5837
émon	-12.5838
▁embrass	-12.5841
accepter	-12.5846
▁pouva	-12.5846
▁inscri	-12.5856
▁précis	-12.5862
▁accusat	-12.5866
▁Sar	-12.5866
ca	-12.5868
▁criera	-12.587
▁dévoile	-12.5875
mo	-12.5876
émerveille	-12.5879
▁milli	-12.5883
▁engage	-12.5887
▁forcer	-12.5889
▁rencontra	-12.5891
▁conclue	-12.5897
▁excite	-12.5903
union	-12.5909
▁prévoyan	-12.5913
▁surgi	-12.5915
▁concern	-12.5928
▁arrêter	-12.5933
assemble	-12.5934
▁siffl	-12.5936
▁déplac	-12.5937
ug	-12.5939
▁éco	-12.594
▁manifest	-12.5943
▁goûte	-12.595
▁cor	-12.5957
dieu	-12.5964
è	-12.5965
▁durs	-12.5969
▁exaucé	-12.5971
oyeur	-12.5971
▁excus	-12.5973
▁déchiré	-12.5984
▁sceller	-12.5989
ôtera	-12.5997
seul	-12.5998
Un	-12.6
yme	-12.6005
injustes	-12.6005
honor	-12.6011
▁press	-12.6014
pé	-12.6028
▁retrouve	-12.6038
▁laboure	-12.6039
▁Rev	-12.6041
▁marin	-12.6048
inquiét	-12.6053
▁diff	-12.6054
bât	-12.6058
▁capita	-12.6059
▁apprendr	-12.606
▁mourrai	-12.6073
pus	-12.608
▁gên	-12.6084
encontre	-12.6085
▁personn	-12.6085
croyant	-12.6096
▁somme	-12.6096
Quiconque	-12.6096
paix	-12.6098
acité	-12.6105
▁réduir	-12.611
vement	-12.6112
soeur	-12.613
âr	-12.6139
vraie	-12.6143
▁coupera	-12.6143
ousser	-12.6145
allié	-12.6148
trois	-12.615
▁Retourn	-12.6156
seulement	-12.6158
sept	-12.6159
▁émigr	-12.6163
El	-12.6166
quelque	-12.6167
▁couver	-12.6171
aimera	-12.6181
David	-12.6183
▁média	-12.6186
guidé	-12.6189
ber	-12.6191
▁aima	-12.6194
▁plaie	-12.6195
frères	-12.6196
parler	-12.6196
Ab	-12.6198
Ecoute	-12.6198
demain	-12.62
▁fig	-12.6206
idole	-12.6209
▁tena	-12.6212
▁peul	-12.6212
vêtements	-12.6214
invoquera	-12.6216
▁Connais	-12.6217
omettre	-12.6221
▁sexuel	-12.6221
injuste	-12.6222
idée	-12.6226
éclat	-12.6229
agis	-12.6231
▁Continue	-12.6232
pain	-12.6232
langue	-12.6232
▁accuse	-12.6233
aîné	-12.6234
compte	-12.6236
▁pan	-12.6236
▁em	-12.6238
▁jailli	-12.6239
▁plant	-12.6241
uiller	-12.6241
Cependant	-12.6243
volontaire	-12.6246
▁pagay	-12.6248
emmène	-12.6249
▁profess	-12.6253
▁connaissa	-12.6255
interdit	-12.6257
▁nomm	-12.6259
affronter	-12.6262
avion	-12.6266
▁rachet	-12.6266
armes	-12.6267
▁forger	-12.6267
traîner	-12.6269
punition	-12.6272
▁bienveillan	-12.6277
artisan	-12.6278
▁mang	-12.6282
placé	-12.6286
épargne	-12.6288
attention	-12.6289
sorti	-12.6294
Salomon	-12.6294
abond	-12.6296
drachme	-12.6297
atteindront	-12.6297
agriculture	-12.6298
éternité	-12.6299
ST	-12.6299
avertis	-12.63
adopt	-12.6301
installer	-12.6301
incertitude	-12.6302
ensemble	-12.6304
▁abouti	-12.6307
destination	-12.6307
éprouve	-12.6311
hor	-12.6315
▁reconnaît	-12.6316
▁œuvr	-12.6317
arracher	-12.6319
Ecriture	-12.632
affaibli	-12.632
Zacharie	-12.632
Bien	-12.6321
miracle	-12.6322
monnaie	-12.6323
humiliation	-12.6324
prédiction	-12.6324
Salut	-12.6324
interprète	-12.6324
Saqar	-12.6325
inondation	-12.6325
esclavage	-12.6326
froid	-12.6328
abreuver	-12.6329
choisis	-12.6329
ordonnance	-12.6329
autrefois	-12.6329
▁reten	-12.6329
▁Aussi	-12.633
▁dressé	-12.633
égoïste	-12.633
habit	-12.6332
émeute	-12.6332
exposé	-12.6332
apost	-12.6333
Ismaël	-12.6333
équivalent	-12.6334
pourtant	-12.6334
acheta	-12.6335
annonciateur	-12.6336
envoyâmes	-12.6336
concernant	-12.6336
hostilité	-12.6337
Accorde	-12.6337
Chacun	-12.6338
supplice	-12.6338
André	-12.6338
acquiert	-12.6338
apparence	-12.6338
écume	-12.6339
étroit	-12.634
empêchement	-12.634
instruction	-12.634
embelli	-12.6341
absence	-12.6341
temporaire	-12.6341
levé	-12.6342
Suis	-12.6342
engage	-12.6342
ajoute	-12.6345
allions	-12.6349
»...	-12.6349
absteni	-12.635
informer	-12.6351
accordera	-12.6352
Allons	-12.6354
adoraient	-12.6354
emparer	-12.6356
▁nuir	-12.6358
affranchi	-12.6359
ornements	-12.636
▁différent	-12.6363
rmis	-12.6363
ssant	-12.6366
expulser	-12.6366
imposer	-12.6367
infidèle	-12.6368
invoquent	-12.6368
▁hiver	-12.6368
▁emporte	-12.6369
auto	-12.6371
▁Cré	-12.6371
fixe	-12.6371
▁mors	-12.6372
pêche	-12.6374
feuille	-12.6375
écoutez	-12.6376
sol	-12.6378
char	-12.638
Laisse	-12.6383
achevé	-12.6384
Z	-12.6384
▁prophét	-12.6385
Entre	-12.6386
▁brûleron	-12.6387
▁cultiv	-12.6388
▁achemin	-12.6393
devait	-12.6394
ordonner	-12.6397
associent	-12.6397
abonde	-12.64
imposteurs	-12.6401
ieusement	-12.6403
apporterai	-12.6405
abandonn	-12.6407
intercesseurs	-12.6407
ttés	-12.6409
▁emprunt	-12.641
offens	-12.6411
préf	-12.6413
▁publi	-12.6415
emmena	-12.6416
interromp	-12.6416
élevés	-12.6416
aimons	-12.6416
jo	-12.6416
dommage	-12.6419
▁agréer	-12.6422
mma	-12.6422
exp	-12.6426
voit	-12.6439
▁païen	-12.644
▁marchai	-12.6441
▁mus	-12.6442
imm	-12.6442
illage	-12.6443
cope	-12.6443
dicité	-12.6443
publique	-12.6444
▁illettré	-12.6444
▁berge	-12.6445
▁vengera	-12.6446
▁embêt	-12.6446
▁étouff	-12.6446
▁éparpillée	-12.6447
▁bouleversé	-12.6448
ulaire	-12.6451
migrés	-12.6452
Ta	-12.6454
utres	-12.6456
▁ancêtre	-12.6457
résident	-12.6458
▁associatrice	-12.6458
▁précaution	-12.6458
▁brindille	-12.6458
▁martyr	-12.6458
▁ombrage	-12.6458
▁statue	-12.6461
âne	-12.6463
▁associateur	-12.6463
▁lamentation	-12.6467
Rass	-12.6467
are	-12.6468
▁chèvre	-12.6468
rappelle	-12.6469
avancer	-12.647
▁ensorcel	-12.647
▁malfaiteur	-12.6471
▁rivière	-12.6471
▁notable	-12.6472
▁sandale	-12.6472
▁Chrétien	-12.6472
▁méfait	-12.6472
▁vainqueur	-12.6473
▁mouton	-12.6473
K	-12.6475
▁occupation	-12.6476
aissent	-12.6478
▁matrice	-12.6479
▁nomade	-12.6479
▁divulgu	-12.6481
ton	-12.6482
▁expulsé	-12.6482
omb	-12.6483
▁abreuvé	-12.6484
▁foyer	-12.6485
▁décapit	-12.6489
▁coudée	-12.649
▁détail	-12.649
▁rapporta	-12.6492
auteur	-12.6492
affligent	-12.6494
▁laisserai	-12.6494
▁bénéfici	-12.6496
viendra	-12.6502
Là	-12.6502
œ	-12.6502
▁détermin	-12.6503
applique	-12.6503
érateur	-12.6504
▁talon	-12.6506
▁Arabe	-12.6506
sont	-12.6507
éteindre	-12.6508
▁disputé	-12.6509
▁lèvre	-12.6515
▁rac	-12.6516
igno	-12.6517
agirai	-12.6519
acia	-12.6522
▁indig	-12.6523
▁naît	-12.6527
xplique	-12.6527
▁relat	-12.6528
▁pénétré	-12.6528
▁châtié	-12.6529
▁Arab	-12.6529
▁moine	-12.6529
▁opprimé	-12.6529
oncle	-12.6531
oulez	-12.6532
doutez	-12.6535
▁Pré	-12.6539
Ra	-12.6541
Ésa	-12.6542
▁sonde	-12.6543
thani	-12.6543
rreur	-12.6545
▁indépenda	-12.6545
▁écum	-12.6545
écartent	-12.6548
égarera	-12.6548
▁hypocrite	-12.6553
alo	-12.6554
▁quatorz	-12.6554
▁précepte	-12.6558
▁consente	-12.6559
▁insolen	-12.656
▁boir	-12.6562
▁douz	-12.6563
uffisant	-12.6564
▁éclairant	-12.6565
▁desséché	-12.657
▁infructueu	-12.6572
▁convaincu	-12.6572
aul	-12.6573
nviron	-12.6577
appeleur	-12.6577
▁effray	-12.6579
azar	-12.6579
▁bouillonner	-12.6579
éman	-12.6581
▁final	-12.6582
▁éducat	-12.6583
▁Envoyé	-12.6583
ya	-12.6585
▁riposte	-12.6585
▁Musulman	-12.6591
offic	-12.6595
▁arrose	-12.6595
▁fraternel	-12.6596
▁Salom	-12.6598
ers	-12.6599
▁conséquen	-12.66
▁affect	-12.66
▁rougi	-12.66
▁paternel	-12.6601
▁bouch	-12.6601
▁indigent	-12.6601
çoit	-12.6602
▁impitoyable	-12.6603
▁signal	-12.6603
bite	-12.6604
rançais	-12.6604
▁déch	-12.6604
ossèdent	-12.6604
▁enferm	-12.6604
▁Invoque	-12.6605
escalier	-12.6605
inconnaissable	-12.6605
▁décisi	-12.6605
▁foulé	-12.6606
▁souvienne	-12.6606
▁dénoue	-12.6606
incorruptib	-12.6606
romesse	-12.6606
çoivent	-12.6607
▁ruisseau	-12.6607
Hi	-12.6607
▁docte	-12.6607
hibi	-12.6608
▁Hum	-12.6608
duisez	-12.6608
SU	-12.6608
▁concubin	-12.6608
œuf	-12.6608
▁Accomplis	-12.6608
exauç	-12.6609
3	-12.6609
ovins	-12.6609
Construis	-12.6609
approfondi	-12.6609
▁Débarrassez	-12.6609
▁Efforce	-12.6609
▁Examinez	-12.6609
▁Résistez	-12.6609
▁absolve	-12.6609
▁accouplé	-12.6609
▁hippopot	-12.6609
▁matérialis	-12.6609
▁perpétré	-12.6609
▁répréhensible	-12.6609
▁successive	-12.6609
▁vrombi	-12.6609
▁Ôtez	-12.6609
Expulsez	-12.6609
Ignorance	-12.6609
Illiyûn	-12.6609
Oeuvrez	-12.6609
Voyage	-12.6609
aberration	-12.6609
aiguade	-12.6609
alcool	-12.6609
appauvri	-12.6609
approprié	-12.6609
assoiffé	-12.6609
authenticité	-12.6609
effondr	-12.6609
enthousiasme	-12.6609
escalader	-12.6609
harmattan	-12.6609
humidité	-12.6609
inconvenient	-12.6609
industrie	-12.6609
oisiveté	-12.6609
opotam	-12.6609
végétaux	-12.6609
yramide	-12.6609
Éthiopie	-12.6609
▁Autrefois	-12.6609
▁Faveur	-12.6609
▁Hutamah	-12.6609
▁Immense	-12.6609
▁Pourvoyeur	-12.6609
▁Religion	-12.6609
▁SEIGNEUR	-12.6609
▁Sadaqa	-12.6609
▁Sadaqât	-12.6609
▁Sanctuaire	-12.6609
▁Sijjîn	-12.6609
▁Solayman	-12.6609
▁Thaddée	-12.6609
▁Zaqqûm	-12.6609
▁abjects	-12.6609
▁adolescen	-12.6609
▁agressif	-12.6609
▁aluminium	-12.6609
▁antilope	-12.6609
▁artifice	-12.6609
▁authentique	-12.6609
▁branchage	-12.6609
▁brouillard	-12.6609
▁bûche	-12.6609
▁cadenas	-12.6609
▁calife	-12.6609
▁calligraph	-12.6609
▁camphre	-12.6609
▁carrefour	-12.6609
▁certificat	-12.6609
▁chapitre	-12.6609
▁charrue	-12.6609
▁cigarette	-12.6609
▁circonstance	-12.6609
▁citoyenneté	-12.6609
▁conducteur	-12.6609
▁consacre	-12.6609
▁controverse	-12.6609
▁cosmopolite	-12.6609
▁couscous	-12.6609
▁culotte	-12.6609
▁dialecte	-12.6609
▁discrétion	-12.6609
▁district	-12.6609
▁débauchés	-12.6609
▁déchargé	-12.6609
▁démocratie	-12.6609
▁dénonciation	-12.6609
▁dénuement	-12.6609
▁déraisonnable	-12.6609
▁déshérité	-12.6609
▁dévoyés	-12.6609
▁embuscade	-12.6609
▁excrément	-12.6609
▁extravagan	-12.6609
▁fanfaron	-12.6609
▁favorable	-12.6609
▁fiançailles	-12.6609
▁football	-12.6609
▁frayeur	-12.6609
▁fromage	-12.6609
▁fécond	-12.6609
▁félicité	-12.6609
▁février	-12.6609
▁gentillesse	-12.6609
▁gingembre	-12.6609
▁gombo	-12.6609
▁gourmand	-12.6609
▁grenouilles	-12.6609
▁géographie	-12.6609
▁hameçon	-12.6609
▁handicap	-12.6609
▁histori	-12.6609
▁hésitation	-12.6609
▁immortel	-12.6609
▁importance	-12.6609
▁impétueux	-12.6609
▁incommod	-12.6609
▁indifférence	-12.6609
▁introduction	-12.6609
▁irresponsable	-12.6609
▁jointure	-12.6609
▁jujubiers	-12.6609
▁léopard	-12.6609
▁marginal	-12.6609
▁matériel	-12.6609
▁menstrues	-12.6609
▁monachisme	-12.6609
▁monothéiste	-12.6609
▁mouchoir	-12.6609
▁moustiquaire	-12.6609
▁moutarde	-12.6609
▁médicament	-12.6609
▁médécin	-12.6609
▁métropole	-12.6609
▁novembre	-12.6609
▁nœud	-12.6609
▁perpètrent	-12.6609
▁philosoph	-12.6609
▁pilote	-12.6609
▁polythéisme	-12.6609
▁polémique	-12.6609
▁postérieur	-12.6609
▁presdigitat	-12.6609
▁privilégié	-12.6609
▁projectile	-12.6609
▁promotion	-12.6609
▁prostitution	-12.6609
▁provocateur	-12.6609
▁prudence	-12.6609
▁prédomin	-12.6609
▁préparatifs	-12.6609
▁pupille	-12.6609
▁quenouille	-12.6609
▁raccourcir	-12.6609
▁ravagée	-12.6609
▁recommencer	-12.6609
▁refroidir	-12.6609
▁rembourser	-12.6609
▁respirer	-12.6609
▁revanche	-12.6609
▁rhétorique	-12.6609
▁régulier	-12.6609
▁résulter	-12.6609
▁sobriquet	-12.6609
▁sobriété	-12.6609
▁soigneusement	-12.6609
▁somnole	-12.6609
▁sortilège	-12.6609
▁splendeur	-12.6609
▁substance	-12.6609
▁suffoquer	-12.6609
▁suspicion	-12.6609
▁syllab	-12.6609
▁sympathi	-12.6609
▁tamtam	-12.6609
▁tolérer	-12.6609
▁tubercul	-12.6609
▁usufruit	-12.6609
▁versatilité	-12.6609
▁vestibule	-12.6609
▁véhicule	-12.6609
▁électr	-12.6609
▁épileptique	-12.6609
▁équivoque	-12.6609
▁consécutifs	-12.6609
▁coraniques	-12.6609
▁diamant	-12.6609
▁particulière	-12.6609
▁pépin	-12.6609
▁rancœur	-12.6609
▁virginité	-12.6609
Association	-12.6609
Kifl	-12.6609
aggrave	-12.6609
alphabétis	-12.6609
▁Blanc	-12.6609
▁Dispensateur	-12.6609
▁Tablette	-12.6609
▁abroge	-12.6609
▁arrondis	-12.6609
▁badigeonn	-12.6609
▁bambou	-12.6609
▁candidat	-12.6609
▁charlatan	-12.6609
▁dynam	-12.6609
▁effeuiller	-12.6609
▁escomptent	-12.6609
▁esquisse	-12.6609
▁exode	-12.6609
▁exorcis	-12.6609
▁favoritisme	-12.6609
▁frissonne	-12.6609
▁fébril	-12.6609
▁goudron	-12.6609
▁goyav	-12.6609
▁gribouill	-12.6609
▁imbécil	-12.6609
▁imprimer	-12.6609
▁incendie	-12.6609
▁ingénieu	-12.6609
▁innocence	-12.6609
▁licence	-12.6609
▁malchance	-12.6609
▁matelas	-12.6609
▁papillon	-12.6609
▁pintade	-12.6609
▁ravage	-12.6609
▁reconduire	-12.6609
▁ronfle	-12.6609
▁roublard	-12.6609
▁régulière	-12.6609
▁résoudre	-12.6609
▁sorcellerie	-12.6609
▁sphère	-12.6609
▁submerge	-12.6609
▁tergivers	-12.6609
▁tomate	-12.6609
▁torchon	-12.6609
▁vidéo	-12.6609
▁énervement	-12.6609
▁éruct	-12.6609
accouder	-12.6609
graphie	-12.6609
ologue	-12.6609
éclipse	-12.6609
étoffe	-12.6609
▁Méfie	-12.6609
▁Tryph	-12.6609
▁affreuse	-12.6609
▁ancrées	-12.6609
▁arrosé	-12.6609
▁biblio	-12.6609
▁bolide	-12.6609
▁chahut	-12.6609
▁clandestin	-12.6609
▁cuisson	-12.6609
▁dissidence	-12.6609
▁endettés	-12.6609
▁félicite	-12.6609
▁implanté	-12.6609
▁ineff	-12.6609
▁micro	-12.6609
▁patauge	-12.6609
▁potager	-12.6609
▁poésie	-12.6609
▁reprodu	-12.6609
▁réprouvé	-12.6609
▁réticen	-12.6609
▁sculpt	-12.6609
▁Djih	-12.6609
▁désagréable	-12.6609
▁garrotte	-12.6609
▁impression	-12.6609
▁lézard	-12.6609
▁mandarin	-12.6609
▁réplique	-12.6609
▁transhum	-12.6609
▁tressaill	-12.6609
▁canapé	-12.6609
▁scission	-12.6609
Tûr	-12.6609
ascension	-12.6609
magasin	-12.6609
▁Matthias	-12.6609
▁entêtement	-12.6609
▁impulsion	-12.6609
▁noeud	-12.6609
▁téléphone	-12.6609
▁assouvi	-12.6609
▁délect	-12.6609
▁faîte	-12.6609
▁négateur	-12.6609
▁ruminer	-12.6609
▁tricot	-12.6609
tative	-12.6609
▁analyse	-12.6609
▁camél	-12.6609
▁défrich	-12.6609
▁photo	-12.6609
▁purulente	-12.6609
▁réformateurs	-12.6609
▁étourdissement	-12.6609
▁évanouissement	-12.6609
automne	-12.6609
▁Phœ	-12.6609
▁cellule	-12.6609
▁concombre	-12.6609
▁marmonne	-12.6609
étillement	-12.6609
▁Apprends	-12.6609
▁brèche	-12.6609
▁compatissant	-12.6609
▁encercl	-12.6609
▁glaise	-12.6609
▁gratter	-12.6609
▁griff	-12.6609
▁parapluie	-12.6609
▁pigeon	-12.6609
▁compétition	-12.6609
▁inhum	-12.6609
▁superbe	-12.6609
▁falsifi	-12.6609
▁oeuf	-12.6609
▁tourterelle	-12.6609
▁élasti	-12.6609
▁compromis	-12.6609
▁démasque	-12.6609
aînesse	-12.6609
▁Rhod	-12.6609
▁comparaison	-12.6609
▁déprav	-12.6609
▁examen	-12.6609
▁succ	-12.6609
▁trafiqu	-12.6609
xcellent	-12.6609
▁drogue	-12.6609
▁dégât	-12.6609
▁abjure	-12.6609
▁liqueur	-12.6609
▁supprim	-12.6609
▁cuisse	-12.6609
▁héraut	-12.6609
▁vaccin	-12.6609
▁liquide	-12.6609
apprêt	-12.6609
▁tentative	-12.6609
▁truie	-12.6609
▁charognard	-12.6609
▁hâble	-12.6609
Expose	-12.6609
▁adouci	-12.6609
▁fonctionnaire	-12.6609
▁fornique	-12.6609
▁pinces	-12.6609
▁pular	-12.6609
▁Écarte	-12.6609
▁affaissé	-12.6609
▁déclamer	-12.6609
▁gratitude	-12.6609
alifa	-12.6609
▁Mandin	-12.6609
▁suggère	-12.6609
▁rumeur	-12.6609
▁cercle	-12.6609
▁aisselle	-12.6609
▁testicule	-12.6609
▁bloc	-12.6609
▁Bâtiss	-12.6609
▁harassé	-12.6609
▁injection	-12.6609
▁laideur	-12.6609
▁rosée	-12.6609
▁Guide	-12.6609
▁décourage	-12.6609
▁désintégr	-12.6609
▁injonction	-12.6609
▁piano	-12.6609
▁pudeur	-12.6609
▁salama	-12.6609
égoïsme	-12.6609
▁brusque	-12.6609
▁thème	-12.6609
▁décisive	-12.6609
▁justicier	-12.6609
Zabûr	-12.6609
▁décharger	-12.6609
▁traduction	-12.6609
▁tricher	-12.6609
▁Ramadan	-12.6609
▁planète	-12.6609
▁allège	-12.6609
▁barrage	-12.6609
peau	-12.6609
▁inconvenant	-12.6609
▁quémande	-12.6609
▁signification	-12.6609
▁bouscule	-12.6609
▁fierté	-12.6609
▁grotte	-12.6609
▁écroulé	-12.6609
▁chryso	-12.6609
▁déménage	-12.6609
▁briève	-12.6609
▁chatouille	-12.6609
▁concubinage	-12.6609
▁mulet	-12.6609
▁badin	-12.6609
▁registre	-12.6609
▁saleté	-12.6609
▁Garant	-12.6609
▁affût	-12.6609
▁renfort	-12.6609
▁happai	-12.6609
▁chimère	-12.6609
▁fripe	-12.6609
▁collaboration	-12.6609
▁perception	-12.6609
▁remarquable	-12.6609
▁carotte	-12.6609
▁renferme	-12.6609
amendent	-12.6609
▁Commandement	-12.6609
▁blanchisseur	-12.6609
▁grommel	-12.6609
▁instigateur	-12.6609
▁solidité	-12.6609
▁contamin	-12.6609
Aykah	-12.6609
▁rémuer	-12.6609
▁tortueuse	-12.661
▁bijoux	-12.661
▁idéo	-12.661
▁bazin	-12.661
▁bouger	-12.661
▁secourûmes	-12.661
▁vomissement	-12.661
▁jumeaux	-12.661
▁morale	-12.661
▁apprenti	-12.661
rourou	-12.661
▁rempart	-12.661
▁Dormez	-12.661
▁rayonnement	-12.661
▁voulûmes	-12.661
▁fausseté	-12.661
▁phrase	-12.661
▁dispensés	-12.661
▁Kissi	-12.661
▁intime	-12.661
oïsme	-12.661
▁radot	-12.661
▁bague	-12.661
▁résumer	-12.661
▁délivrance	-12.661
uffle	-12.661
▁fourreau	-12.661
▁Mysi	-12.661
▁église	-12.661
▁génie	-12.661
▁enchaine	-12.661
▁Combat	-12.661
▁entretués	-12.661
illustre	-12.661
▁grappe	-12.661
amoncelle	-12.661
▁ustensiles	-12.661
▁herm	-12.661
▁sauter	-12.661
▁glace	-12.661
▁sangsue	-12.661
▁hélic	-12.661
minence	-12.661
▁graisse	-12.661
▁treillagés	-12.661
▁paquet	-12.661
▁défilé	-12.661
accroissement	-12.661
▁hoquet	-12.661
▁surdité	-12.661
▁Pratiquez	-12.661
▁ramper	-12.6611
▁suinter	-12.6611
▁boutique	-12.6611
▁embarras	-12.6611
▁prédéterminé	-12.6611
▁volume	-12.6611
▁musc	-12.6611
▁corrompre	-12.6611
▁politique	-12.6611
▁vapeur	-12.6611
exercice	-12.6611
▁alarm	-12.6611
▁dysent	-12.6611
▁défaite	-12.6611
▁Sabéens	-12.6611
▁foot	-12.6611
▁programme	-12.6611
▁dominés	-12.6611
▁glorification	-12.6611
▁colporteur	-12.6611
▁attisé	-12.6611
▁lieutenance	-12.6611
apprécie	-12.6611
▁détermination	-12.6611
▁cuvette	-12.6611
▁discret	-12.6611
▁population	-12.6611
▁islamique	-12.6611
approprier	-12.6611
▁confidentiel	-12.6611
▁fossé	-12.6611
▁Jann	-12.6611
▁éparpillés	-12.6611
▁machination	-12.6611
▁fructifier	-12.6611
▁particulier	-12.6611
▁vénérer	-12.6611
▁hommage	-12.6611
▁dissipation	-12.6611
▁législat	-12.6611
▁glorieuse	-12.6611
▁secousse	-12.6611
▁chancelle	-12.6612
▁formule	-12.6612
ajj	-12.6612
▁hospitalier	-12.6612
▁parasite	-12.6612
échec	-12.6612
▁calmé	-12.6612
▁museau	-12.6612
aubergine	-12.6612
▁tamari	-12.6612
▁Molo	-12.6612
▁vorace	-12.6612
▁écrasés	-12.6612
▁vomir	-12.6612
▁serpe	-12.6612
▁provocation	-12.6612
▁inconnaissables	-12.6612
▁démonstrati	-12.6612
▁escaliers	-12.6612
influence	-12.6613
▁monument	-12.6613
▁Badr	-12.6613
▁conclusion	-12.6613
▁prévenus	-12.6613
▁suggéré	-12.6613
▁devrions	-12.6613
▁mugissement	-12.6613
▁leader	-12.6613
amusent	-12.6613
▁produira	-12.6613
▁vaisselle	-12.6613
hydro	-12.6613
▁pillage	-12.6613
▁Lâchez	-12.6613
▁balanço	-12.6613
▁soigner	-12.6613
▁Mange	-12.6613
▁broder	-12.6613
▁torche	-12.6613
▁sarcl	-12.6613
▁vétér	-12.6613
▁publicité	-12.6613
rouille	-12.6613
▁représentant	-12.6613
▁boîte	-12.6613
otter	-12.6614
▁réclamiez	-12.6614
▁connaitre	-12.6614
mân	-12.6614
▁insistan	-12.6614
▁uriner	-12.6614
▁développer	-12.6614
▁rideau	-12.6614
▁français	-12.6614
▁fouetter	-12.6614
▁renouveler	-12.6614
▁dérobent	-12.6614
▁grossesse	-12.6614
▁courtois	-12.6614
▁moucheron	-12.6614
▁auditeur	-12.6614
▁impitoyablement	-12.6614
▁composent	-12.6614
▁fusse	-12.6614
▁revue	-12.6615
▁dévié	-12.6615
▁transmet	-12.6615
▁Rassembl	-12.6615
▁secourrons	-12.6615
▁désespérer	-12.6615
▁vanit	-12.6615
▁paume	-12.6615
▁brigandage	-12.6615
▁compréhension	-12.6615
▁enfermer	-12.6615
▁dormions	-12.6615
▁délibération	-12.6615
▁salir	-12.6615
▁constitution	-12.6615
▁bananier	-12.6615
horte	-12.6615
▁Dalma	-12.6615
▁condiment	-12.6615
▁bondir	-12.6615
▁convaincante	-12.6616
▁mythe	-12.6616
▁fabrica	-12.6616
ontraignant	-12.6616
▁signaler	-12.6616
▁obstiné	-12.6616
atmosphère	-12.6616
▁découvre	-12.6616
▁cadet	-12.6616
indigence	-12.6616
▁index	-12.6616
▁débarquement	-12.6616
▁efforcé	-12.6616
affranchissement	-12.6616
▁malaise	-12.6616
▁moudre	-12.6616
▁jaillissant	-12.6616
▁gifler	-12.6617
▁promettait	-12.6617
remier	-12.6617
▁confluent	-12.6617
▁occidental	-12.6617
▁hyper	-12.6617
▁promenade	-12.6617
▁Toutefois	-12.6617
▁pulvérisée	-12.6617
▁croiriez	-12.6617
▁séjourn	-12.6617
▁physique	-12.6617
▁ressuscitâmes	-12.6617
iera	-12.6618
perçoit	-12.6618
▁promettez	-12.6618
▁donateurs	-12.6618
apaise	-12.6618
▁découvrir	-12.6618
▁nettoyer	-12.6618
▁spacieuse	-12.6618
▁ranim	-12.6618
▁billet	-12.6618
amolli	-12.6618
azin	-12.6619
pater	-12.6619
▁begaye	-12.6619
▁convoitions	-12.6619
interdiction	-12.6619
▁méconnaîtr	-12.6619
▁tyrannies	-12.6619
▁couture	-12.6619
▁sursaut	-12.6619
▁redresser	-12.6619
▁rusé	-12.6619
▁divulguées	-12.662
▁dédain	-12.662
▁stupide	-12.662
▁inclinés	-12.662
▁Eloi	-12.662
▁consentir	-12.662
▁corrompent	-12.662
▁railleurs	-12.662
intestin	-12.662
▁projette	-12.662
▁Sentier	-12.662
▁supposition	-12.6621
imp	-12.6621
▁trésorier	-12.6621
▁campement	-12.6621
▁désigner	-12.6621
▁gouvernement	-12.6621
▁soulever	-12.6621
▁barbe	-12.6621
▁invocat	-12.6621
▁broche	-12.6621
▁Demain	-12.6621
▁méditiez	-12.6621
▁décréter	-12.6621
▁merveilleuse	-12.6622
▁noblesse	-12.6622
▁lécher	-12.6622
uc	-12.6622
▁bandit	-12.6622
▁bloqu	-12.6622
▁houe	-12.6622
▁arroser	-12.6622
▁voudrez	-12.6622
▁séjourner	-12.6622
êtez	-12.6622
▁familia	-12.6622
▁rougir	-12.6622
embrass	-12.6623
▁classe	-12.6623
▁imiter	-12.6623
▁divague	-12.6623
▁dignit	-12.6623
indépendance	-12.6623
compense	-12.6623
▁cachette	-12.6624
culer	-12.6624
▁Rhe	-12.6624
▁transige	-12.6624
égorie	-12.6624
▁remettez	-12.6624
▁provoquons	-12.6624
▁bateaux	-12.6624
▁noix	-12.6625
iscer	-12.6625
▁guidâmes	-12.6625
▁équitablement	-12.6625
▁ascendants	-12.6626
▁provoqué	-12.6626
▁querellant	-12.6626
▁réconciliez	-12.6626
▁remerciement	-12.6626
▁timide	-12.6626
Barrage	-12.6626
▁boucherie	-12.6626
éliba	-12.6626
aravanier	-12.6626
▁Jugez	-12.6626
éduque	-12.6627
▁typ	-12.6627
▁désavouons	-12.6627
▁propager	-12.6627
▁devinette	-12.6627
▁sanglot	-12.6627
râf	-12.6627
▁médire	-12.6627
▁uniform	-12.6628
▁soudainement	-12.6628
▁bourdonne	-12.6628
phie	-12.6628
▁raisonnablement	-12.6628
enserrer	-12.6628
▁épier	-12.6628
▁appartiendront	-12.6629
éoph	-12.6629
intervenir	-12.6629
▁furieux	-12.663
hira	-12.663
inké	-12.663
▁poursuivre	-12.663
adel	-12.663
▁futiles	-12.663
ogue	-12.6631
▁étalag	-12.6631
▁Eph	-12.6631
▁ramena	-12.6631
▁coûter	-12.6631
▁dénigrement	-12.6631
▁inutilement	-12.6631
avère	-12.6631
▁dissoudr	-12.6631
▁consumée	-12.6632
▁cracha	-12.6632
▁longanime	-12.6632
▁déranger	-12.6632
▁ripostent	-12.6632
▁actif	-12.6632
rayer	-12.6632
▁dicter	-12.6632
▁corriger	-12.6632
▁police	-12.6632
▁corrompt	-12.6632
▁inhabité	-12.6632
▁gargo	-12.6632
▁ramer	-12.6632
▁patrie	-12.6632
▁colport	-12.6633
▁préférable	-12.6633
▁prestige	-12.6633
▁incon	-12.6633
▁blancheur	-12.6633
▁bouillonne	-12.6633
▁nausée	-12.6633
▁aspergé	-12.6633
▁prolongée	-12.6633
chem	-12.6633
▁insignifiante	-12.6633
▁préférez	-12.6633
▁accident	-12.6634
▁taule	-12.6634
fforçons	-12.6634
▁moto	-12.6634
▁croissant	-12.6634
▁déchirera	-12.6634
▁rafraîchir	-12.6634
▁vitesse	-12.6634
▁entreprise	-12.6634
bobine	-12.6635
▁désobéissent	-12.6635
▁semaille	-12.6635
▁creuser	-12.6635
▁vivifi	-12.6635
affilée	-12.6635
▁maman	-12.6636
▁solliciter	-12.6636
ermets	-12.6636
com	-12.6636
▁contrôl	-12.6637
▁bouchon	-12.6637
pollués	-12.6637
▁coï	-12.6637
▁descente	-12.6637
▁roux	-12.6637
attarde	-12.6637
▁parjure	-12.6638
humiliera	-12.6638
enquérir	-12.6638
▁tailleur	-12.6638
▁clo	-12.6638
▁mondial	-12.6639
▁bourre	-12.6639
▁écumer	-12.6639
▁atteignait	-12.6639
▁confident	-12.6639
▁conjoint	-12.6639
istawâ	-12.664
▁veine	-12.664
▁sacrifier	-12.664
shon	-12.664
▁croula	-12.664
▁fondre	-12.664
▁surprise	-12.6641
▁désespér	-12.6641
▁tisser	-12.6641
▁escort	-12.6642
expéri	-12.6642
▁délaissez	-12.6643
▁Repentant	-12.6643
▁redoutaient	-12.6643
moralité	-12.6643
numér	-12.6643
▁tranquillement	-12.6643
constamment	-12.6644
▁spat	-12.6644
▁spoli	-12.6644
▁détester	-12.6644
▁rentrer	-12.6644
▁déroulé	-12.6645
oral	-12.6645
▁balai	-12.6646
▁solidement	-12.6646
▁décès	-12.6646
ingratitude	-12.6646
honoraire	-12.6647
▁agréez	-12.6648
▁réjouissaient	-12.6648
▁déviation	-12.6648
▁distribuer	-12.6648
atteindriez	-12.6648
Ecartez	-12.6648
▁supposez	-12.6648
▁vantez	-12.6649
▁Retourne	-12.6649
▁approchons	-12.6649
▁rédig	-12.6649
▁renf	-12.665
▁colonie	-12.665
abstien	-12.665
▁brûlait	-12.665
▁larve	-12.6651
▁conduisez	-12.6651
ippe	-12.6651
▁disputait	-12.6651
employez	-12.6651
▁contretemps	-12.6651
▁honni	-12.6651
▁équipé	-12.6651
▁défaill	-12.6652
▁oeil	-12.6652
▁Loin	-12.6652
▁dessèche	-12.6652
UN	-12.6652
▁fabriquent	-12.6652
▁bouillonnera	-12.6653
▁négligées	-12.6653
▁écartez	-12.6655
▁léger	-12.6655
▁communique	-12.6655
▁maltraiter	-12.6655
▁considérable	-12.6655
▁Secou	-12.6655
Ecoutez	-12.6656
▁redouté	-12.6656
▁deviendraient	-12.6656
▁clign	-12.6656
▁monsieur	-12.6657
▁résonne	-12.6657
▁différ	-12.6658
▁couchant	-12.6658
▁trompait	-12.6658
▁surprendre	-12.6659
▁Fixe	-12.6659
▁précepteur	-12.6659
▁remplacé	-12.6659
▁étapes	-12.666
▁patte	-12.666
inattention	-12.666
aphrodite	-12.666
▁baisseront	-12.6661
▁gourd	-12.6661
▁répudiez	-12.6661
▁hib	-12.6661
▁indépendant	-12.6661
▁armé	-12.6661
▁renvoyez	-12.6661
▁borne	-12.6663
cain	-12.6664
▁déclarèrent	-12.6664
▁injurier	-12.6665
▁Seraient	-12.6665
▁retourneriez	-12.6665
▁ride	-12.6667
▁invoqueront	-12.6667
▁économise	-12.6667
»!...	-12.6668
▁exultent	-12.6668
▁clavi	-12.6668
▁sensuel	-12.6668
▁délaissés	-12.6668
▁cerna	-12.6668
▁hérita	-12.6669
▁matinée	-12.6669
▁méprisez	-12.6669
▁libères	-12.6669
hausser	-12.667
▁chevilles	-12.667
yth	-12.667
▁pourvoyeurs	-12.667
▁assister	-12.667
▁abeilles	-12.667
▁couchez	-12.667
▁adeptes	-12.6671
▁tambours	-12.6671
▁gracieuses	-12.6671
▁articulations	-12.6671
▁immuables	-12.6671
▁adoptifs	-12.6671
▁pressés	-12.6672
▁ennui	-12.6672
▁étincelles	-12.6673
▁réussit	-12.6673
▁Nach	-12.6674
▁troc	-12.6674
▁éclairante	-12.6675
îna	-12.6675
▁gaspilleurs	-12.6675
▁expliquer	-12.6675
▁caprices	-12.6675
▁cernent	-12.6676
▁fibres	-12.6676
▁recouvrit	-12.6677
joints	-12.6677
▁parachever	-12.6677
▁astuc	-12.6678
▁frustré	-12.6678
▁adorant	-12.6678
▁loyale	-12.6678
▁détachent	-12.6678
▁véni	-12.668
cke	-12.668
▁fumer	-12.6681
Ouest	-12.6681
▁sautill	-12.6681
▁composé	-12.6682
▁cernera	-12.6683
▁raide	-12.6683
▁consolidé	-12.6683
▁gratifié	-12.6684
▁balles	-12.6684
orateur	-12.6684
▁éternue	-12.6685
▁exhortait	-12.6685
▁presser	-12.6685
▁soucieux	-12.6686
▁tamis	-12.6686
▁recueillent	-12.6687
Nourri	-12.6688
▁ressuscitant	-12.6688
▁rite	-12.6688
▁essor	-12.6689
ouette	-12.6689
▁éjaculé	-12.669
▁crachat	-12.6691
▁fonder	-12.6691
▁aplani	-12.6691
▁prononcer	-12.6692
▁mangue	-12.6692
▁faille	-12.6692
▁volant	-12.6692
lût	-12.6692
▁tracées	-12.6693
▁démentir	-12.6693
▁sécheresse	-12.6693
▁annulé	-12.6693
▁réfugié	-12.6693
▁affranchis	-12.6694
▁Zé	-12.6694
▁burent	-12.6695
▁guérira	-12.6695
▁révolu	-12.6695
▁planter	-12.6696
importuner	-12.6696
▁fuiront	-12.6696
▁tuteur	-12.6696
vres	-12.6696
▁Persév	-12.6697
▁pressant	-12.6697
▁poign	-12.6697
▁producti	-12.6698
ourds	-12.6701
ubli	-12.6701
▁résolut	-12.6701
▁aventure	-12.6703
▁sélection	-12.6703
dama	-12.6703
▁crucifient	-12.6703
▁prouvée	-12.6703
▁consens	-12.6704
▁cite	-12.6704
▁purifiez	-12.6705
▁Claudi	-12.6705
▁former	-12.6706
av	-12.6707
Vo	-12.6709
▁revenant	-12.6709
▁menaçant	-12.671
▁cochon	-12.671
▁jus	-12.6711
éprouveront	-12.6711
▁purifiant	-12.6711
▁séparent	-12.6712
▁moissonnée	-12.6712
▁râle	-12.6712
omaine	-12.6713
▁poumon	-12.6713
▁allumées	-12.6713
▁infinie	-12.6713
▁saisissent	-12.6715
▁raisonné	-12.6715
▁tardé	-12.6715
▁reporté	-12.6716
▁brûlante	-12.6717
art	-12.6718
▁occident	-12.6719
▁inspirée	-12.672
▁altère	-12.672
▁touffu	-12.6722
▁proportion	-12.6722
▁divorcer	-12.6723
▁Garde	-12.6723
▁commercer	-12.6724
▁2	-12.6724
▁ɗ	-12.6724
▁opinion	-12.6724
▁onguent	-12.6724
▁produise	-12.6725
▁accent	-12.6726
▁infâme	-12.6727
▁agression	-12.6727
▁montiez	-12.6727
▁accumul	-12.6728
▁parliez	-12.6728
oit	-12.6728
▁distraits	-12.6729
▁bourgeonne	-12.6729
▁inculte	-12.6729
▁identique	-12.6729
▁inquiétude	-12.673
▁pleut	-12.673
▁hésiter	-12.673
▁arrogance	-12.673
rémiss	-12.673
▁Brûlez	-12.673
▁anniversaire	-12.673
▁épidémie	-12.673
▁homonyme	-12.6731
▁corpulen	-12.6731
▁abreuvoir	-12.6731
▁évangéliste	-12.6731
▁gardienne	-12.6731
▁progéniture	-12.6731
▁connait	-12.6731
▁apprends	-12.6732
▁repentaient	-12.6732
▁Afrique	-12.6732
▁câble	-12.6732
phone	-12.6732
abatte	-12.6733
▁écrivent	-12.6733
ublée	-12.6734
▁exhiber	-12.6734
▁acquérir	-12.6734
▁sauva	-12.6735
élèvent	-12.6736
▁honteuses	-12.6737
▁bouton	-12.6737
▁tordu	-12.6738
▁Rassemblez	-12.6739
▁déplacé	-12.6739
▁maigres	-12.674
altér	-12.674
objection	-12.674
▁sécuris	-12.6741
▁négation	-12.6741
ivresse	-12.6741
férence	-12.6742
▁interdire	-12.6743
▁Ecrit	-12.6743
enfouir	-12.6743
▁illuminer	-12.6744
▁immédiate	-12.6744
fus	-12.6744
▁resplendissa	-12.6745
▁chassez	-12.6745
▁Lib	-12.6746
▁mêle	-12.6747
▁pêche	-12.6748
▁imagination	-12.6748
▁tact	-12.675
tan	-12.675
alât	-12.675
brique	-12.675
▁poulet	-12.6751
▁parviendront	-12.6753
▁Remercie	-12.6754
▁fabriquer	-12.6754
acquisition	-12.6754
▁parchemin	-12.6756
▁complotèrent	-12.6757
▁porta	-12.6757
▁suivrez	-12.6757
▁persistant	-12.6757
inées	-12.6757
▁immigr	-12.6758
▁exécuter	-12.6759
▁caf	-12.676
▁étonnante	-12.676
▁mineur	-12.676
▁attribuent	-12.676
▁louent	-12.676
▁persécutent	-12.6762
▁invitation	-12.6762
▁gronde	-12.6762
▁signifier	-12.6763
▁vig	-12.6764
▁jaillirent	-12.6769
▁Hy	-12.6769
attristerai	-12.677
lire	-12.6772
▁affich	-12.6772
▁information	-12.6772
ordiale	-12.6774
▁bénéficier	-12.6774
paraîtrez	-12.6775
▁éparpillées	-12.6775
▁lançais	-12.6775
▁occupations	-12.6776
suscitent	-12.6777
▁antérieurement	-12.6777
▁convenue	-12.6777
uvre	-12.6777
▁bouleversés	-12.6778
▁groupement	-12.6778
▁racl	-12.6779
▁absorbé	-12.6779
▁Azo	-12.6779
▁précédée	-12.6781
affrontèrent	-12.6782
▁illettrés	-12.6783
kha	-12.6783
▁nomades	-12.6785
issement	-12.6785
élan	-12.6785
ffectueux	-12.6786
embre	-12.6787
attest	-12.6787
diens	-12.6788
▁dressés	-12.6788
▁recouvrir	-12.6789
▁épuis	-12.6792
▁attaquer	-12.6793
approchera	-12.6794
▁mûres	-12.6795
▁Perg	-12.6795
échi	-12.6797
▁modér	-12.6798
▁audac	-12.6798
mobile	-12.68
rago	-12.6801
oncurrence	-12.6801
▁rigo	-12.6802
▁fusils	-12.6802
robas	-12.6803
▁consulté	-12.6803
▁clairon	-12.6804
▁mutuelle	-12.6804
exterminer	-12.6806
▁amasse	-12.6806
▁thé	-12.6809
▁pénétrés	-12.6809
▁Sos	-12.681
reuve	-12.681
▁feuillet	-12.681
▁déco	-12.6811
emprunter	-12.6811
▁mesurez	-12.6812
aurore	-12.6813
rituelle	-12.6813
▁arrange	-12.6814
Nûn	-12.6815
▁chercheur	-12.6816
▁scarifi	-12.6817
▁rencontreront	-12.682
▁vilain	-12.6821
▁détourneront	-12.6821
génération	-12.6823
battent	-12.6826
▁désertés	-12.6828
▁deven	-12.6828
▁narr	-12.6829
▁écraser	-12.6829
▁avili	-12.683
▁voilés	-12.6832
▁proposé	-12.6833
▁imagin	-12.6833
▁emmènera	-12.6833
▁soucie	-12.6834
▁entreprendre	-12.6834
▁varié	-12.6839
▁éclatante	-12.6839
▁Hâ	-12.684
▁instruis	-12.6844
▁dégou	-12.6844
▁frott	-12.6844
▁claque	-12.6845
rices	-12.6847
▁démeure	-12.6847
▁descendant	-12.6848
▁prodigu	-12.6849
▁retenus	-12.685
▁guiderait	-12.685
▁col	-12.685
▁Asso	-12.685
▁trompeuses	-12.6852
▁meurtri	-12.6852
▁pir	-12.6855
▁lancer	-12.6856
▁facti	-12.6857
▁Savant	-12.6858
▁inte	-12.6858
▁planifi	-12.6861
▁agréée	-12.6862
▁dangereu	-12.6862
▁nuque	-12.6863
économie	-12.6863
▁frivole	-12.6865
▁harmonis	-12.6865
▁savai	-12.6865
▁Rama	-12.6866
▁profitent	-12.6868
▁sport	-12.6871
▁interpell	-12.6872
▁exercé	-12.6872
illant	-12.6873
▁punira	-12.6873
▁affa	-12.6874
▁surprit	-12.6874
▁ressusciterait	-12.6874
enfuyant	-12.6875
▁plier	-12.6875
▁espéra	-12.6877
émettre	-12.6877
isaient	-12.6878
▁particule	-12.6878
▁équiva	-12.6881
▁mourez	-12.6881
▁transpercer	-12.6884
▁tellement	-12.6885
▁Israélites	-12.6885
▁soutiendr	-12.6886
▁respectueuses	-12.6886
achèvement	-12.6886
▁bur	-12.6887
▁héros	-12.6889
▁Averti	-12.6889
▁prolonger	-12.6891
▁servirait	-12.6891
éni	-12.6893
AB	-12.6894
▁invites	-12.6897
▁Fi	-12.6898
▁côtes	-12.6898
▁Voi	-12.6898
obtien	-12.6901
▁prédiction	-12.6902
▁lapidés	-12.6903
▁connaissances	-12.6904
▁guiderai	-12.6906
testation	-12.6908
xture	-12.6908
▁constituer	-12.6909
vernes	-12.6909
aussitôt	-12.6912
▁dormir	-12.6912
▁goûtent	-12.6913
▁coulant	-12.6914
▁torr	-12.6916
olosse	-12.6918
suppliant	-12.6918
▁profita	-12.6922
▁demandeur	-12.6923
▁Arabes	-12.6923
▁excusé	-12.6926
▁incertitude	-12.6926
paye	-12.6928
▁agriculture	-12.6929
▁distribué	-12.693
▁attacher	-12.693
▁drachme	-12.6931
▁tress	-12.6932
▁éternité	-12.6932
▁ramassé	-12.6933
▁céd	-12.6933
▁brosse	-12.6936
▁atteindront	-12.6937
▁mentons	-12.6937
▁empir	-12.6937
patri	-12.694
▁comparée	-12.694
assassiner	-12.6941
▁thésaurisé	-12.6941
▁alb	-12.6944
▁réformé	-12.6945
▁répondi	-12.6951
▁verrouill	-12.6951
rien	-12.6951
▁pente	-12.6951
seize	-12.6952
▁chaine	-12.6953
▁naï	-12.6954
ceci	-12.6955
chiez	-12.6955
▁prendrez	-12.6958
étincelant	-12.6959
aïr	-12.6959
▁pratiquer	-12.6959
▁concours	-12.6959
phra	-12.6961
▁étalée	-12.6961
▁scrut	-12.6962
emporté	-12.6964
▁passerait	-12.6964
▁pot	-12.6966
▁reliqu	-12.697
Alexandri	-12.6973
enseignes	-12.6975
▁moqua	-12.6976
ennemis	-12.6981
▁suivante	-12.6983
▁ornements	-12.6987
humilier	-12.6989
▁traire	-12.6994
▁professe	-12.6994
erges	-12.6996
▁poètes	-12.6998
▁apprise	-12.6998
▁plaines	-12.7001
▁resplendir	-12.7002
ajou	-12.7004
▁plut	-12.7008
▁trouveraient	-12.7008
Issa	-12.7008
▁proclama	-12.7009
rône	-12.7011
▁mani	-12.7012
sî	-12.7013
▁soum	-12.7014
▁jugeront	-12.7015
évent	-12.7016
▁querelleur	-12.7018
exagér	-12.7021
aine	-12.7023
▁livrez	-12.7025
▁jeûnant	-12.7025
endance	-12.7025
▁accueil	-12.7026
insult	-12.7029
Elle	-12.7029
ocation	-12.7033
sieurs	-12.7034
orgueilleusement	-12.7034
▁reconnut	-12.7035
▁louche	-12.7036
▁géant	-12.7042
▁retrancher	-12.7042
▁chagrine	-12.7043
▁tendent	-12.7048
▁calomnié	-12.705
▁reporter	-12.7054
▁Madi	-12.7058
kou	-12.7059
allés	-12.7059
omprends	-12.706
▁attaqu	-12.7061
▁tenue	-12.7062
crit	-12.7066
bâ	-12.7067
▁nationale	-12.7068
▁fatale	-12.7077
obten	-12.7079
▁essu	-12.708
raude	-12.7081
▁dém	-12.7081
▁caractéristique	-12.7081
ompter	-12.7083
aveuglent	-12.7084
▁rappelant	-12.7087
▁repentiront	-12.7089
dèmes	-12.709
▁habiller	-12.7091
accueilli	-12.7092
▁jeudi	-12.7092
▁vant	-12.7094
▁rentré	-12.7096
▁cultures	-12.7097
▁déplaç	-12.7098
envole	-12.7099
▁pasteur	-12.71
écoutes	-12.7102
▁traversée	-12.7103
▁adju	-12.7103
ourate	-12.7104
▁tordre	-12.7107
▁inévitable	-12.7108
▁Aide	-12.7112
▁sév	-12.7114
ébranler	-12.712
▁mangerai	-12.7124
▁trav	-12.7125
blement	-12.7125
▁insurrection	-12.7126
ttention	-12.7128
uif	-12.7129
▁plaign	-12.713
▁tends	-12.713
▁rugi	-12.7131
battus	-12.7132
indulgent	-12.7132
▁immolation	-12.7133
▁entretenir	-12.7133
▁amertume	-12.7133
▁expiation	-12.7136
▁lancés	-12.7142
▁abs	-12.7145
▁destinées	-12.7147
▁ronger	-12.7153
ysop	-12.7154
ination	-12.7157
▁impé	-12.7158
interpelle	-12.7159
▁voyagent	-12.7161
quement	-12.7163
▁apportera	-12.7164
▁achever	-12.7165
▁lumin	-12.7167
▁coince	-12.7167
insouciance	-12.7168
mos	-12.7171
▁opposés	-12.7175
▁mariées	-12.7177
▁survenue	-12.7178
▁importants	-12.7179
▁étonner	-12.718
tent	-12.7181
llesse	-12.7183
▁entendons	-12.7185
▁avenir	-12.7186
nia	-12.7188
oquent	-12.7189
entreti	-12.7196
▁bér	-12.72
▁récompenser	-12.7204
nclin	-12.7205
▁ras	-12.7208
▁U	-12.7209
astre	-12.721
émigrer	-12.721
entourent	-12.7211
▁écriture	-12.7212
▁Couchants	-12.7214
▁complét	-12.7215
suite	-12.7215
viendrai	-12.7216
▁festiv	-12.7218
▁Loi	-12.7219
ébréch	-12.7219
▁distrait	-12.722
Mu	-12.722
▁nivel	-12.7221
zar	-12.7224
▁respectueu	-12.7227
▁ébranlés	-12.7227
ori	-12.723
ouviens	-12.723
inquiéter	-12.723
▁promena	-12.7232
oyez	-12.7234
inciter	-12.7236
▁découvri	-12.7252
ommencement	-12.7254
▁enfanter	-12.7254
▁concordai	-12.7257
dés	-12.7259
nement	-12.726
auté	-12.727
▁désherb	-12.727
▁délicates	-12.7275
▁pencher	-12.7276
valise	-12.7277
▁pre	-12.7278
Ap	-12.728
▁transpir	-12.7281
▁écorce	-12.7282
▁oriental	-12.7284
▁banc	-12.7287
pel	-12.7289
▁éclaire	-12.729
▁remu	-12.7292
▁attraper	-12.7293
▁âgée	-12.7294
▁individuelle	-12.7298
▁crisp	-12.7298
▁Emporte	-12.7299
▁tiendra	-12.73
▁convoité	-12.7303
▁accouche	-12.7309
▁Epa	-12.7312
▁solennels	-12.7313
▁grosses	-12.7315
▁légères	-12.7318
▁détacher	-12.7318
semblé	-12.7318
▁gravé	-12.7322
cession	-12.7322
▁mouill	-12.734
▁préservés	-12.7343
tions	-12.7345
▁hospitalité	-12.7345
▁alentour	-12.7345
▁pourris	-12.7347
▁renon	-12.7348
▁émi	-12.7349
▁déchaîne	-12.735
▁astre	-12.7354
▁accueillant	-12.7356
▁percev	-12.7357
lèvent	-12.7358
élo	-12.7364
▁saisie	-12.7367
▁opérée	-12.7371
▁palme	-12.7374
▁compl	-12.7374
ergents	-12.7375
▁soufflai	-12.7377
agog	-12.7378
▁donnerez	-12.738
oli	-12.7381
▁sal	-12.7384
▁complex	-12.7387
▁Chi	-12.7393
aws	-12.7393
enflamm	-12.7397
▁blanchie	-12.74
▁restâ	-12.7403
▁taches	-12.7404
oureux	-12.7406
volte	-12.7408
lop	-12.7416
▁agisse	-12.7416
▁encre	-12.7424
▁repentants	-12.7425
▁enfou	-12.7425
▁supposa	-12.7427
▁raccommod	-12.7427
▁parade	-12.7428
injurie	-12.7434
aimerai	-12.7435
▁invocations	-12.7441
▁enrouler	-12.7442
▁allume	-12.7445
▁nieront	-12.7447
cteur	-12.745
▁million	-12.7455
▁affronter	-12.7458
▁égales	-12.7461
scendance	-12.7464
▁empreint	-12.7464
oquerie	-12.7466
concerté	-12.7468
échange	-12.7471
sabba	-12.7473
▁démolir	-12.7474
agoni	-12.7474
▁montée	-12.7479
éforment	-12.7479
acquitt	-12.7485
Reste	-12.7487
▁sève	-12.7489
▁sourcil	-12.749
▁passager	-12.749
iquement	-12.7491
▁suffir	-12.7494
atrice	-12.7502
▁niais	-12.7504
escr	-12.7508
allée	-12.7512
▁transmise	-12.7518
▁boucher	-12.752
cas	-12.7523
▁rebâtir	-12.7525
▁débordante	-12.7526
▁rappelés	-12.7529
▁boul	-12.753
▁méchante	-12.753
▁agrées	-12.7532
▁courbée	-12.7532
▁rect	-12.7532
▁encens	-12.7533
▁impr	-12.7539
▁corrompus	-12.754
impu	-12.754
▁abondantes	-12.7543
exalter	-12.7544
▁conv	-12.7548
▁paralytiques	-12.7549
▁alternance	-12.7558
▁transe	-12.7563
idie	-12.7563
▁croiss	-12.7568
▁note	-12.7572
▁obei	-12.7581
▁tentera	-12.7585
tesse	-12.76
▁vides	-12.7606
chim	-12.7613
▁écras	-12.7613
▁poursuivirent	-12.7614
égion	-12.7622
citons	-12.7625
▁arracha	-12.7628
▁Proch	-12.7634
▁pétr	-12.7643
six	-12.7643
▁plong	-12.7643
usilla	-12.7646
▁distribua	-12.7647
grandissent	-12.7648
jouissent	-12.765
▁préservati	-12.7652
▁déploie	-12.7656
▁Mis	-12.7657
égorger	-12.7661
vriez	-12.7662
▁butte	-12.7667
termina	-12.7675
ute	-12.7679
▁soeur	-12.7687
▁reco	-12.7694
▁ronge	-12.7694
▁figer	-12.7698
▁surveiller	-12.7702
▁passons	-12.7703
▁dévi	-12.7705
▁multiple	-12.7705
▁afflig	-12.7709
▁engrais	-12.7717
gage	-12.7717
▁gai	-12.7718
évoquer	-12.7718
engager	-12.7725
▁fesse	-12.7729
▁entame	-12.7729
nante	-12.7731
▁lâche	-12.7732
inspire	-12.7735
▁compos	-12.774
▁pagne	-12.7742
ok	-12.7744
asperge	-12.775
▁habitai	-12.776
▁errer	-12.776
▁inimitié	-12.7764
zé	-12.7765
▁exp	-12.7765
▁taill	-12.7771
▁contraints	-12.7772
▁phar	-12.7779
iya	-12.7781
▁ful	-12.7788
▁tristes	-12.7792
lumineuse	-12.7802
▁Ordre	-12.7803
annulera	-12.7805
▁retranch	-12.7808
▁association	-12.7809
expose	-12.7813
▁can	-12.7813
▁Dor	-12.7817
habitera	-12.7824
▁Crain	-12.783
éfigur	-12.7832
▁bât	-12.7833
mène	-12.7833
▁sépareron	-12.7836
▁hurler	-12.7836
informe	-12.7837
▁pourriez	-12.785
aise	-12.785
▁dégoût	-12.785
anisme	-12.7852
▁enrichir	-12.7858
▁lances	-12.7861
▁Heureuse	-12.7867
▁tasse	-12.7867
org	-12.7871
ifier	-12.7874
ectar	-12.7881
▁habitude	-12.7883
lèvera	-12.7884
▁Tor	-12.7888
ouvrait	-12.7893
▁gare	-12.7895
▁tax	-12.7899
▁ramasse	-12.7902
ciés	-12.7905
prit	-12.7906
robati	-12.7912
Ach	-12.7917
sée	-12.7918
▁longe	-12.7935
▁désobéiss	-12.7939
oudront	-12.7944
▁reproches	-12.795
▁chargée	-12.7954
▁Sid	-12.7971
Am	-12.7978
semblera	-12.7979
▁infligera	-12.7982
▁jetteron	-12.7984
▁indécis	-12.7985
écéda	-12.7987
▁gémir	-12.8004
▁ménage	-12.8011
ke	-12.8014
▁batti	-12.8014
incita	-12.8016
▁élevées	-12.8018
battra	-12.8032
▁prévoya	-12.8033
▁Sais	-12.8034
▁constitue	-12.8041
▁dépouille	-12.806
▁rec	-12.8062
lâchez	-12.8067
▁affr	-12.8068
▁fourn	-12.807
▁adress	-12.807
▁inform	-12.807
recours	-12.8075
▁description	-12.8085
▁supposai	-12.8085
▁comprendr	-12.8087
▁marchés	-12.8088
▁queue	-12.8091
rtère	-12.8092
▁complaisan	-12.8093
impi	-12.8096
▁gas	-12.8101
▁fourr	-12.8102
▁blasphémai	-12.8103
▁cord	-12.8108
isse	-12.811
▁cer	-12.8112
éan	-12.8122
▁fatiguera	-12.8122
user	-12.8125
▁disput	-12.8134
auras	-12.8135
pa	-12.8136
ormément	-12.8136
▁maigre	-12.814
▁buvai	-12.8144
▁Zak	-12.8145
▁W	-12.815
▁Pren	-12.8159
barba	-12.8164
▁voya	-12.8165
vo	-12.8166
▁Répond	-12.8171
▁report	-12.8182
lume	-12.8183
vraient	-12.8184
lè	-12.8184
vier	-12.8188
▁enregistrer	-12.8199
▁fanta	-12.8204
▁ramen	-12.8204
▁Had	-12.8211
▁achev	-12.8211
▁termit	-12.8222
▁org	-12.8225
abit	-12.8227
▁immorale	-12.8227
▁Ph	-12.8227
▁contenter	-12.8229
▁not	-12.8232
▁fau	-12.8238
▁honteuse	-12.824
onge	-12.8248
▁ivre	-12.8251
▁représente	-12.8261
▁incisi	-12.8262
irrite	-12.8268
▁repoussa	-12.8271
wâ	-12.8272
▁plais	-12.8273
teurs	-12.8281
▁dévoila	-12.829
▁relui	-12.8291
érée	-12.8291
place	-12.8296
incer	-12.8297
arbres	-12.8311
▁accroître	-12.8312
▁vende	-12.8313
▁arm	-12.8314
▁jugeras	-12.8314
▁blanchir	-12.8315
▁ajouté	-12.8326
haritable	-12.8329
▁secs	-12.8342
▁rôt	-12.8342
enverra	-12.8356
▁pass	-12.8359
lym	-12.836
▁souverains	-12.8365
ico	-12.8366
▁pourrons	-12.8371
▁défendrai	-12.8374
▁vér	-12.8382
dèrent	-12.8384
▁pareilles	-12.8396
▁sexe	-12.8398
emp	-12.84
▁dirait	-12.8401
▁raf	-12.8401
▁Hu	-12.8403
▁enhardi	-12.8409
▁levai	-12.8414
inette	-12.8414
perversion	-12.8424
issure	-12.8427
sses	-12.843
grès	-12.8449
▁lis	-12.8449
pôtres	-12.8458
▁consacrée	-12.8464
▁promett	-12.8468
▁veillée	-12.8471
▁redev	-12.8478
invitent	-12.8484
▁gât	-12.8485
▁persuader	-12.8486
amarr	-12.8488
▁install	-12.849
▁sienne	-12.8491
▁réserv	-12.8492
▁lie	-12.85
abus	-12.8513
ambassadeurs	-12.8516
atoire	-12.8517
▁ficel	-12.8517
ntraidez	-12.852
▁rond	-12.8527
Europ	-12.8531
▁litt	-12.8536
dra	-12.8546
devenu	-12.8578
▁dorm	-12.858
▁dompt	-12.8585
tracte	-12.8588
▁renia	-12.8591
▁apte	-12.8599
onnaissant	-12.86
▁étonn	-12.8605
Jouis	-12.8608
▁grandi	-12.8614
▁pressenti	-12.8615
H	-12.8618
rée	-12.863
ouvrez	-12.8636
▁Pe	-12.8637
dée	-12.8639
étendra	-12.8643
éter	-12.8652
▁exerc	-12.8655
▁tempor	-12.8656
▁verron	-12.8666
tirez	-12.867
▁demandai	-12.8693
▁paissai	-12.8697
éminentes	-12.87
▁espéran	-12.8716
livrés	-12.8723
▁endroits	-12.8723
▁enivrer	-12.8726
▁repli	-12.8727
donné	-12.8731
▁allaiter	-12.874
▁buva	-12.8744
▁gonfle	-12.8747
▁fixée	-12.8753
sèche	-12.8754
po	-12.8757
▁Compt	-12.8769
▁fabriquai	-12.877
▁dissémine	-12.8771
▁délivr	-12.8775
jours	-12.8775
▁alli	-12.8789
▁sortai	-12.8796
▁tan	-12.8797
perçant	-12.8797
▁rejoign	-12.8801
lis	-12.8804
▁franche	-12.8816
▁redonn	-12.8832
irige	-12.8834
pause	-12.8835
▁bâ	-12.8844
▁lien	-12.8846
▁savoure	-12.8858
âte	-12.8865
trè	-12.8873
adorerez	-12.8881
ourdi	-12.8883
▁Lou	-12.8884
crète	-12.8889
▁plair	-12.8889
fait	-12.889
▁creuse	-12.8891
belle	-12.8894
▁semai	-12.8897
▁flagelle	-12.8899
▁suivie	-12.89
▁nid	-12.8903
▁dessin	-12.8903
▁affermir	-12.8915
agenouilla	-12.8917
▁hél	-12.8917
érence	-12.8919
tique	-12.8924
▁retir	-12.894
▁ext	-12.8951
Poi	-12.8953
Pars	-12.8955
justement	-12.8958
tuez	-12.896
▁procéd	-12.8967
dominant	-12.8968
▁rempliss	-12.8977
▁herbe	-12.8986
illes	-12.8986
▁crépi	-12.899
▁proba	-12.8994
engou	-12.8996
▁torture	-12.8998
▁scella	-12.9016
arrête	-12.9017
ébranle	-12.902
Regarde	-12.9022
▁attache	-12.9022
ordina	-12.904
▁définiti	-12.9056
ontinuerons	-12.9056
▁hal	-12.9056
▁dromadaire	-12.9061
diquer	-12.9066
appelant	-12.9071
anda	-12.9073
▁approuv	-12.9075
▁attir	-12.9075
▁aigr	-12.908
espéré	-12.9091
uit	-12.9099
▁total	-12.9104
▁diras	-12.9106
▁consum	-12.9118
▁entasse	-12.9118
▁Sc	-12.9125
▁peuplé	-12.9136
▁lettré	-12.9138
naître	-12.9139
▁située	-12.916
▁prendr	-12.9161
▁rafraîchisse	-12.9164
rosternation	-12.9165
essé	-12.9177
uve	-12.9179
ârout	-12.9182
▁peupl	-12.9185
▁appelleron	-12.9193
▁min	-12.9198
▁royal	-12.9198
▁accuser	-12.9209
▁autorise	-12.9213
▁Gâ	-12.9221
nch	-12.9237
édific	-12.9237
tente	-12.9238
mémor	-12.9238
▁chic	-12.9252
▁marine	-12.9256
tolé	-12.926
▁chanson	-12.9261
▁recouvrer	-12.9264
▁exist	-12.9271
eviendront	-12.9276
▁romaine	-12.9289
▁moul	-12.9295
▁bâteau	-12.9299
za	-12.93
oupe	-12.9307
ien	-12.9308
▁scandale	-12.931
▁montai	-12.9312
sence	-12.9316
▁institut	-12.9323
▁enjoliv	-12.9325
écrie	-12.9325
lécha	-12.9331
ttement	-12.9346
▁comporte	-12.9351
▁Mo	-12.9352
réni	-12.9353
endemain	-12.9357
éprouvera	-12.9364
▁grandissa	-12.9367
pture	-12.9368
▁rançonn	-12.9371
nk	-12.9377
aies	-12.9377
▁circul	-12.9388
Habi	-12.9407
▁crava	-12.9412
tement	-12.9417
IN	-12.9434
apparten	-12.9435
▁attends	-12.9448
▁emp	-12.9452
essée	-12.9453
▁vider	-12.9455
▁poursuivi	-12.9457
straction	-12.9467
▁consenti	-12.9481
▁Celles	-12.9484
obab	-12.949
aimes	-12.9496
▁ressembl	-12.9496
teindre	-12.9502
gi	-12.9513
▁succéda	-12.9517
▁témoignages	-12.9526
▁colon	-12.9534
ér	-12.9545
▁mesur	-12.9551
tranchés	-12.9557
eths	-12.9572
zia	-12.9572
▁redemand	-12.9588
▁épouvante	-12.9588
▁enchaîn	-12.9589
▁maint	-12.9589
▁Pers	-12.9595
▁Foul	-12.96
également	-12.9603
abatti	-12.9603
▁im	-12.961
▁app	-12.9618
nuel	-12.9622
▁endurcir	-12.9632
attaquer	-12.9636
ia	-12.9639
ontentez	-12.964
entreprendre	-12.9643
rder	-12.9649
▁muti	-12.9649
▁terres	-12.965
▁attira	-12.9656
▁accompagner	-12.9659
▁Ag	-12.9665
▁dissimuler	-12.9666
▁dormai	-12.9677
obéiss	-12.9691
alutations	-12.9699
io	-12.9703
▁Puisqu	-12.9708
▁cumi	-12.9712
▁encontre	-12.9713
sive	-12.9724
▁remonter	-12.9727
▁échappa	-12.9738
▁ter	-12.9747
pressaient	-12.9768
▁convena	-12.9768
laissée	-12.9776
iterons	-12.9776
▁perce	-12.978
onique	-12.9796
endredi	-12.9852
▁Lâ	-12.9854
▁Ouvr	-12.9855
▁attaqua	-12.9856
▁affirma	-12.9858
▁obten	-12.986
ternes	-12.9869
niser	-12.987
▁libérat	-12.9873
▁iniqu	-12.9888
ogé	-12.989
▁réclame	-12.9895
édé	-12.99
éte	-12.9914
ablissez	-12.9919
▁vac	-12.9922
raper	-12.9923
ébé	-12.9946
oureuse	-12.9947
vainement	-12.9956
ienheureux	-12.9965
▁tentat	-12.9973
▁flott	-12.9974
pt	-12.9976
tirer	-12.9977
▁soud	-12.9988
erme	-12.999
mais	-12.9991
▁barre	-12.9993
▁baign	-12.9996
▁entraîn	-13.0008
▁élargis	-13.0025
▁régneron	-13.0029
atique	-13.0031
▁Vi	-13.0033
▁entendus	-13.004
▁ressemblai	-13.0041
▁mau	-13.0061
▁désign	-13.0062
▁reprenne	-13.0064
▁perfectionne	-13.0066
▁nourrissai	-13.0071
ond	-13.0079
examine	-13.0079
▁retrouvée	-13.0097
importun	-13.0099
ranger	-13.0104
▁mettr	-13.0104
adou	-13.0109
▁abord	-13.0128
▁rugiss	-13.013
▁musi	-13.0143
▁hérit	-13.0145
▁Él	-13.0155
asper	-13.0155
▁regrett	-13.0167
▁rencontrera	-13.017
lure	-13.0182
ET	-13.0195
unicité	-13.0203
examin	-13.0204
▁Cr	-13.0205
plaît	-13.0213
précédents	-13.0215
▁glissa	-13.0222
▁peule	-13.0233
▁débarque	-13.024
▁attribués	-13.0243
▁bé	-13.0244
▁migra	-13.0245
assujettir	-13.025
▁contien	-13.0254
▁dir	-13.0262
scient	-13.0267
formeront	-13.0272
▁Appel	-13.0287
▁capri	-13.0288
▁retienne	-13.0295
▁Certain	-13.0304
suivant	-13.0306
lais	-13.0318
▁rampa	-13.0322
▁abandonne	-13.0333
éprouv	-13.034
▁senti	-13.0345
▁agent	-13.0353
▁bave	-13.0357
rince	-13.036
valent	-13.0373
▁faibl	-13.0377
▁treill	-13.0378
légué	-13.0403
▁Ob	-13.0408
▁détesta	-13.0408
▁libéra	-13.0417
émoi	-13.0419
bb	-13.0421
▁dévers	-13.0424
▁cla	-13.0428
accroch	-13.0428
ctif	-13.043
importune	-13.0431
lit	-13.0432
accro	-13.0434
énoncer	-13.0435
▁impén	-13.0438
▁gest	-13.0441
hériteron	-13.045
isie	-13.0453
▁lanc	-13.0458
▁jouissances	-13.0459
rendront	-13.046
▁versez	-13.0461
▁carré	-13.0462
ison	-13.0469
aisaient	-13.0473
▁enlèveron	-13.0476
idiez	-13.0477
▁pè	-13.0478
oup	-13.0479
▁auron	-13.0503
▁Kou	-13.0504
reront	-13.0505
ignes	-13.0507
▁diffus	-13.0514
▁procur	-13.0515
▁épic	-13.0519
▁mangeur	-13.052
ndemain	-13.0552
alti	-13.0557
▁libér	-13.0577
rogatoire	-13.0588
▁gagne	-13.061
▁Pat	-13.0626
insulta	-13.0632
▁résum	-13.0635
ffusion	-13.0636
▁Informe	-13.0639
amenés	-13.0652
▁indi	-13.0659
▁Bara	-13.066
▁dépouiller	-13.0663
Puisqu	-13.0664
▁protégeai	-13.0668
▁abaissée	-13.0676
▁démolis	-13.0679
▁Signe	-13.0711
cueil	-13.0716
▁convenables	-13.0722
▁accoura	-13.0724
▁apparaiss	-13.0727
enseignai	-13.0741
hau	-13.0767
oyauté	-13.0767
▁accroîtr	-13.0769
▁dispers	-13.0775
▁condamnée	-13.0787
▁principal	-13.0788
énis	-13.0793
vie	-13.0793
▁pla	-13.0795
▁gouverne	-13.0796
▁glob	-13.0801
▁recour	-13.0817
▁flagella	-13.0822
orienté	-13.0823
▁écou	-13.0828
▁divorc	-13.083
lise	-13.0831
anches	-13.0835
▁priai	-13.0838
nes	-13.0846
ain	-13.0847
cus	-13.0862
▁éta	-13.0865
vite	-13.0867
▁deviendron	-13.087
empêcha	-13.087
ouches	-13.0871
agonis	-13.0873
▁cat	-13.0873
aternité	-13.0877
▁plaisante	-13.0881
lène	-13.0881
▁tailler	-13.0883
▁discour	-13.0884
entourer	-13.0886
▁tassée	-13.0906
accr	-13.0907
urez	-13.0917
riger	-13.092
▁anéantie	-13.0921
go	-13.0926
▁machine	-13.0928
duire	-13.0928
▁paru	-13.0931
▁recueillir	-13.0935
▁cep	-13.0936
▁disposa	-13.0938
rate	-13.0942
▁ava	-13.0943
endrez	-13.0957
▁drap	-13.0961
oins	-13.0966
▁évid	-13.0966
▁figu	-13.0967
▁rappelles	-13.0981
▁mainte	-13.1014
épuiser	-13.1024
lera	-13.1025
▁fine	-13.1025
lumer	-13.1027
sar	-13.103
▁abreuva	-13.1031
arme	-13.1046
▁promi	-13.1074
ancher	-13.1077
âter	-13.1082
▁Hou	-13.1084
▁coûte	-13.1085
▁cann	-13.1094
oquez	-13.1095
Ad	-13.1108
▁rob	-13.111
▁Lors	-13.1124
▁baisse	-13.1124
▁enc	-13.1132
▁rétribu	-13.1139
▁souleva	-13.1142
▁prophéti	-13.1147
élance	-13.1153
▁mir	-13.1158
▁forc	-13.1162
▁bén	-13.1171
▁parlai	-13.1181
▁gaspille	-13.1191
▁coucha	-13.1194
▁réfléchisse	-13.1206
interrogea	-13.1221
trait	-13.1225
▁Tib	-13.123
▁excuser	-13.1232
▁acheta	-13.1251
▁Av	-13.1253
nquérir	-13.1253
▁exterminée	-13.1261
▁Syr	-13.1261
▁tapo	-13.1263
▁ferm	-13.1264
telle	-13.1265
▁u	-13.1268
▁répartit	-13.1272
▁obteni	-13.1279
▁méprisée	-13.1288
donc	-13.1305
assions	-13.1334
▁courbe	-13.1364
donnés	-13.1366
érant	-13.1377
▁Na	-13.1387
fumée	-13.1387
apha	-13.142
ies	-13.1421
TI	-13.1421
▁insista	-13.1424
ome	-13.1433
▁retournai	-13.1433
intentionné	-13.1437
▁batte	-13.1458
▁confesser	-13.1463
ingére	-13.1467
▁méfian	-13.1496
)»	-13.1496
▁succéd	-13.1497
▁sati	-13.15
▁tournera	-13.15
▁tais	-13.1511
▁écoul	-13.1517
▁Rebe	-13.1523
▁entour	-13.1523
▁absteni	-13.1531
▁chuchote	-13.1532
ys	-13.1545
nstamment	-13.1556
▁brisa	-13.1557
▁fleuri	-13.1563
▁légend	-13.1564
ûd	-13.1573
▁convulsa	-13.1585
suis	-13.1588
uth	-13.161
brouiller	-13.1614
▁rendai	-13.1623
rgi	-13.1626
▁Lis	-13.164
▁manquerai	-13.1641
▁épouvant	-13.1651
▁ag	-13.1655
▁enjoliva	-13.1674
irions	-13.1676
▁magnifie	-13.169
endent	-13.1692
▁coloni	-13.1693
aignez	-13.1705
▁Pu	-13.1708
▁pein	-13.1721
envelopp	-13.173
étisme	-13.1733
▁naiss	-13.1742
▁croisse	-13.1747
▁délivra	-13.1751
▁avertiss	-13.1774
battement	-13.1775
invite	-13.1776
emportement	-13.1782
▁rev	-13.1785
▁lèse	-13.179
lor	-13.1791
lée	-13.1793
▁culbute	-13.1796
assé	-13.1797
▁ad	-13.1804
▁exc	-13.1807
lah	-13.1807
habiter	-13.1815
▁suivr	-13.1826
contenteraient	-13.1827
lié	-13.1834
Ég	-13.1837
▁abstra	-13.1839
▁habile	-13.184
genouillés	-13.1857
▁boule	-13.1858
▁maitre	-13.1861
ssante	-13.1863
▁éloignée	-13.1879
▁perpétue	-13.1882
subord	-13.1884
▁ar	-13.1888
▁satisfa	-13.1899
naise	-13.1905
▁durer	-13.1912
ié	-13.1914
▁lança	-13.1922
assemblés	-13.1923
▁veuv	-13.1925
mad	-13.1927
▁conte	-13.193
▁bar	-13.1932
▁continua	-13.1936
▁captive	-13.1943
▁décim	-13.1952
épuisera	-13.1952
▁exposa	-13.1957
▁volt	-13.196
▁Hâr	-13.1967
▁convainc	-13.1968
oyant	-13.1971
ndirent	-13.1983
ét	-13.1984
▁mars	-13.1986
ques	-13.1988
pho	-13.1994
étonne	-13.2006
▁édific	-13.2007
▁sau	-13.203
▁colle	-13.2045
roi	-13.205
algré	-13.2066
▁converge	-13.2074
romadaires	-13.21
efforc	-13.2102
▁sor	-13.2111
▁surnomm	-13.2115
▁pus	-13.2122
▁souvien	-13.2127
▁justifiera	-13.213
phi	-13.2144
▁éparpill	-13.2153
▁secouer	-13.2154
▁grandir	-13.2161
▁croirai	-13.2162
pule	-13.2193
iquer	-13.2196
estion	-13.2207
▁enregistre	-13.221
nner	-13.2211
▁tén	-13.2214
imagin	-13.2215
▁fume	-13.2217
▁apportés	-13.2224
▁établiss	-13.2227
atif	-13.223
▁ent	-13.224
▁allaite	-13.2243
▁accabl	-13.226
ibérez	-13.2264
arder	-13.2272
plus	-13.2277
▁perfectionn	-13.2281
tiel	-13.2283
agenouill	-13.2288
▁fo	-13.2295
zare	-13.2303
▁définit	-13.2317
mar	-13.2318
▁correcte	-13.2319
ûre	-13.2333
chauffer	-13.2334
nge	-13.2355
onnera	-13.2359
▁brisée	-13.2373
▁soy	-13.2377
issante	-13.2378
▁effets	-13.2386
▁brilla	-13.2389
mettrez	-13.2391
tentez	-13.2399
▁réformer	-13.2401
▁Commande	-13.2409
rô	-13.2411
coureur	-13.2412
oule	-13.2414
ordonnés	-13.2416
inal	-13.2417
▁sava	-13.2417
▁enjolivée	-13.2445
hérit	-13.2453
assi	-13.2459
▁pointe	-13.246
[...]
