<unk>	0
<s>	0
</s>	0
ugol	-3.74614
er	-4.01305
r	-4.02595
e	-4.02945
▁	-4.12053
s	-4.13932
gol	-4.19694
-	-4.33846
i	-4.36994
a	-4.50576
'	-4.74746
▁s	-4.85952
'	-4.85968
o	-5.04024
re	-5.11966
t	-5.14703
u	-5.22363
al	-5.29954
l	-5.37133
é	-5.40349
n	-5.42401
,	-5.46859
▁l	-5.51183
in	-5.59008
ation	-5.64291
ment	-5.66559
ité	-5.77242
de	-5.88201
on	-5.88615
ere	-5.91764
▁d	-5.95681
ir	-6.01307
ol	-6.05739
ur	-6.06397
ii	-6.09474
nt	-6.11105
en	-6.12563
▁n	-6.13195
an	-6.22435
gal	-6.24117
eur	-6.24828
age	-6.27113
té	-6.29203
▁p	-6.3079
le	-6.30869
di	-6.3131
▁t	-6.32151
▁c	-6.32199
aare	-6.35325
ter	-6.35565
ɗo	-6.41708
▁f	-6.41853
ée	-6.42379
▁m	-6.44693
ère	-6.44815
it	-6.45189
▁a	-6.4588
me	-6.46398
ure	-6.46564
ons	-6.50819
ement	-6.54794
ce	-6.55022
te	-6.56991
il	-6.57597
wal	-6.57841
ant	-6.58033
y	-6.5876
ee	-6.6133
ez	-6.62717
ɓe	-6.64221
ie	-6.66216
ier	-6.66254
c	-6.68562
ent	-6.69471
ta	-6.69876
f	-6.70808
jo	-6.71779
▁ma	-6.72425
sse	-6.74205
m	-6.74746
aa	-6.761
ti	-6.77277
es	-6.79989
▁re	-6.81325
ire	-6.81426
ion	-6.82506
ance	-6.83193
▁h	-6.83757
is	-6.84484
que	-6.87534
ɗe	-6.8876
ri	-6.91135
ay	-6.92166
aire	-6.92249
▁co	-6.95272
h	-6.96974
oowo	-6.97095
tu	-6.97303
▁fa	-6.9933
▁b	-7.00055
ngol	-7.01629
ude	-7.02159
ke	-7.02301
ma	-7.02876
▁ca	-7.02957
▁g	-7.03763
ne	-7.0475
annde	-7.05239
un	-7.05671
▁j	-7.06375
▁ba	-7.06388
quer	-7.07835
wol	-7.08268
▁qu	-7.08877
mi	-7.11227
z	-7.12427
▁A	-7.12782
eux	-7.13968
ndi	-7.14051
el	-7.15348
tion	-7.1544
du	-7.15999
▁la	-7.17524
nde	-7.18154
▁en	-7.19092
eau	-7.19406
▁r	-7.19925
ka	-7.20971
d	-7.22752
ru	-7.24781
▁pa	-7.24959
▁so	-7.26793
▁M	-7.26866
▁sa	-7.27904
hi	-7.29616
are	-7.29726
▁L	-7.30407
ette	-7.30866
p	-7.31727
nce	-7.3245
ajo	-7.32635
se	-7.33223
▁w	-7.33872
au	-7.33914
ger	-7.33939
▁mo	-7.35658
▁dé	-7.35753
▁k	-7.35929
yaa	-7.36037
ler	-7.36556
aaku	-7.37043
ux	-7.37548
ture	-7.37779
▁ta	-7.38192
▁po	-7.38846
▁in	-7.39362
ner	-7.39574
ji	-7.40023
▁fo	-7.40229
ction	-7.40442
iller	-7.40763
eejo	-7.41538
▁bo	-7.42789
▁me	-7.42949
tte	-7.43196
ge	-7.44066
na	-7.45103
ine	-7.45457
▁su	-7.4657
endre	-7.47007
ème	-7.47044
ra	-7.4775
▁ha	-7.48416
oore	-7.48734
g	-7.49125
ai	-7.5039
▁F	-7.50709
yee	-7.50729
uɗo	-7.51324
▁N	-7.5223
▁al	-7.52545
▁hi	-7.52891
▁du	-7.53333
ser	-7.53772
yer	-7.54287
ise	-7.54928
tre	-7.55779
ndre	-7.56263
cher	-7.56281
▁pi	-7.56883
ba	-7.57193
▁wa	-7.57628
ataa	-7.58413
▁ho	-7.58694
dre	-7.58975
ni	-7.59043
ard	-7.59446
▁ka	-7.59679
ku	-7.59826
▁ko	-7.601
▁ga	-7.61309
x	-7.621
ejo	-7.62314
uuru	-7.62517
tal	-7.62549
ɗi	-7.6265
aaɗo	-7.62843
no	-7.63054
▁S	-7.63714
ul	-7.63772
aango	-7.63844
lle	-7.63854
▁di	-7.64005
onner	-7.64209
oo	-7.6477
ha	-7.64991
che	-7.65063
voir	-7.65175
ition	-7.65545
▁C	-7.6662
ence	-7.6676
ɗaa	-7.66828
est	-7.67046
▁P	-7.67327
or	-7.68282
iser	-7.69073
▁ja	-7.69344
iijo	-7.69542
elle	-7.69974
us	-7.70344
wii	-7.70998
sme	-7.71546
▁go	-7.71927
ait	-7.72851
rde	-7.73228
aaru	-7.73315
▁do	-7.73682
la	-7.74002
ya	-7.74708
oir	-7.74913
▁fi	-7.75071
rer	-7.75431
▁B	-7.7558
▁pro	-7.75787
▁ra	-7.7595
et	-7.76048
▁bon	-7.76231
▁hu	-7.76407
bo	-7.77222
go	-7.78578
orde	-7.78929
▁wi	-7.79136
▁pré	-7.79289
▁de	-7.80005
▁bi	-7.80268
▁to	-7.80274
k	-7.80308
▁vi	-7.81058
ar	-7.81611
be	-7.81972
able	-7.82936
sion	-7.8297
▁da	-7.83136
ag	-7.83594
cation	-7.84078
ve	-7.84609
▁T	-7.84675
to	-7.85065
ou	-7.85179
ata	-7.85812
ière	-7.86776
fa	-7.88232
b	-7.88346
mo	-7.88696
ver	-7.88876
ue	-7.89268
▁ri	-7.89374
pe	-7.89776
endi	-7.90374
iri	-7.90385
ngal	-7.90962
at	-7.912
sser	-7.91756
▁nd	-7.92217
▁jo	-7.92697
lol	-7.93203
▁no	-7.93296
ssion	-7.93643
▁H	-7.93778
▁O	-7.93841
si	-7.94011
▁yi	-7.94115
taa	-7.94407
ix	-7.95281
▁ɓ	-7.95377
▁mon	-7.95456
rie	-7.95569
ndu	-7.95706
▁mari	-7.95708
▁far	-7.96699
ki	-7.96745
taare	-7.97003
ooru	-7.97268
eeti	-7.98081
aali	-7.98476
da	-7.98844
▁ab	-7.9905
▁v	-7.99345
ujo	-7.99488
ama	-8.00825
ro	-8.01574
▁ar	-8.0217
gu	-8.02303
ante	-8.02847
aɓ	-8.03082
oode	-8.03445
ille	-8.03615
▁mi	-8.03653
▁cha	-8.03761
▁li	-8.04864
agal	-8.05099
▁se	-8.0569
der	-8.05833
▁as	-8.06462
▁Sa	-8.07147
▁ex	-8.0764
▁si	-8.07669
▁grand	-8.0768
▁con	-8.07772
ci	-8.0918
▁rem	-8.0923
um	-8.0925
éri	-8.09575
aawo	-8.09593
nke	-8.09888
am	-8.09964
▁won	-8.10037
as	-8.10231
▁mu	-8.11516
tude	-8.12301
iɗo	-8.12351
▁ten	-8.12547
ga	-8.12773
ule	-8.13508
▁cour	-8.13961
▁fil	-8.14808
▁D	-8.15191
ici	-8.1526
ique	-8.15528
aasi	-8.15663
ita	-8.15837
aande	-8.16183
▁te	-8.16457
▁ke	-8.16756
▁fu	-8.17329
dal	-8.1754
noo	-8.17781
▁wel	-8.1783
ɓal	-8.18009
isse	-8.18099
▁ad	-8.18608
▁Ma	-8.18647
do	-8.18722
ɗen	-8.18747
ho	-8.18779
▁Ko	-8.19385
▁tu	-8.19659
nal	-8.19663
uyee	-8.2005
▁le	-8.20439
▁G	-8.2065
▁E	-8.20914
▁ju	-8.21003
▁Ba	-8.21086
mer	-8.21123
▁woo	-8.21155
▁mal	-8.21323
eere	-8.21397
▁gar	-8.21741
▁nay	-8.21837
▁saa	-8.22579
▁nda	-8.22818
lo	-8.23181
▁ré	-8.23371
udi	-8.23513
vou	-8.23728
bou	-8.23889
pa	-8.23936
▁bu	-8.24231
ade	-8.24287
lu	-8.24407
▁car	-8.24543
tir	-8.24886
▁lo	-8.25282
▁cu	-8.25513
ondira	-8.25656
ous	-8.26298
aama	-8.26408
▁sur	-8.27761
nier	-8.27946
if	-8.28165
sque	-8.28437
▁va	-8.28549
▁entre	-8.28586
▁yar	-8.28588
aari	-8.28646
ati	-8.28857
▁J	-8.29527
oy	-8.29555
▁sub	-8.29945
▁ro	-8.29955
▁ful	-8.2996
▁gu	-8.30283
▁fe	-8.3066
ondir	-8.30923
nii	-8.31443
là	-8.31468
▁mont	-8.31484
▁he	-8.31507
gner	-8.32285
aamu	-8.32572
▁dar	-8.32717
▁Hi	-8.32841
▁bou	-8.3295
▁au	-8.33211
(	-8.33639
▁pour	-8.33779
ène	-8.33811
▁kal	-8.33972
▁tra	-8.34256
▁cons	-8.34964
ô	-8.35193
ŋ	-8.35446
▁pu	-8.3613
▁sous	-8.36212
▁ne	-8.36489
uru	-8.36507
ojo	-8.36604
▁K	-8.3714
tique	-8.37725
indir	-8.37771
teeri	-8.38395
ete	-8.38708
▁par	-8.38732
▁ku	-8.39063
venir	-8.39171
▁je	-8.39217
yanke	-8.39452
ende	-8.39684
▁mar	-8.40112
ko	-8.40117
li	-8.40222
nte	-8.40618
▁acc	-8.41049
▁bar	-8.41112
nnde	-8.4135
és	-8.41436
ɓ	-8.41853
ngo	-8.4198
▁ng	-8.42148
▁vol	-8.42511
▁ac	-8.42557
ƴ	-8.4278
▁ch	-8.42997
▁ji	-8.43058
ut	-8.43065
▁ce	-8.43211
▁pou	-8.43293
▁be	-8.43303
▁am	-8.43319
▁e	-8.43497
▁Bo	-8.43717
rugol	-8.43761
ijo	-8.43824
▁é	-8.44556
oter	-8.44604
lier	-8.45515
lan	-8.4619
▁fal	-8.46274
ch	-8.46582
nndu	-8.47416
▁pal	-8.47505
▁hir	-8.47668
▁we	-8.47704
▁an	-8.47811
▁ɓa	-8.48767
bi	-8.48814
▁ann	-8.4889
uler	-8.49019
ac	-8.4911
▁dis	-8.49212
iner	-8.49447
bon	-8.49494
ŋe	-8.50201
▁duu	-8.50558
▁plan	-8.50686
ign	-8.50835
▁part	-8.5098
hu	-8.51093
▁yo	-8.51105
▁lam	-8.51387
▁beau	-8.5148
▁pe	-8.51924
oire	-8.51946
érieur	-8.51989
euse	-8.52355
▁vo	-8.52584
▁kar	-8.52801
▁Al	-8.52904
▁camp	-8.53348
▁goo	-8.53354
v	-8.5367
mmba	-8.5418
▁bas	-8.54182
esse	-8.54207
è	-8.54541
ain	-8.54766
▁hin	-8.54879
▁bal	-8.55303
pu	-8.55341
tii	-8.55435
▁porte	-8.55448
▁mba	-8.55493
▁baa	-8.55929
too	-8.55984
â	-8.55992
mbre	-8.56263
▁port	-8.56273
▁un	-8.56278
▁sel	-8.56289
▁ya	-8.56642
ani	-8.56797
▁pleur	-8.56919
ja	-8.57025
uer	-8.57208
iire	-8.57375
▁ent	-8.57452
▁na	-8.57591
▁fur	-8.57796
▁ɓur	-8.58278
ññ	-8.59227
▁pass	-8.59384
▁R	-8.59497
▁ci	-8.59567
eeru	-8.59797
ral	-8.59808
▁ins	-8.60015
fu	-8.60054
ot	-8.60061
▁dém	-8.60079
cle	-8.60156
ɓɓ	-8.60194
▁koo	-8.60603
dere	-8.60648
aji	-8.612
▁mir	-8.61597
uche	-8.62193
ais	-8.62213
eeji	-8.62445
▁suu	-8.6248
▁mis	-8.62679
eedu	-8.63116
▁holl	-8.63446
ari	-8.63564
pp	-8.63815
nd	-8.645
ller	-8.651
w	-8.65114
▁imm	-8.65776
ton	-8.65864
▁nan	-8.65912
▁déc	-8.65944
▁wallin	-8.66554
jj	-8.66576
iter	-8.66662
▁ét	-8.67046
être	-8.6726
▁fin	-8.67354
▁ñ	-8.67603
▁jann	-8.67842
▁mas	-8.6788
ès	-8.67916
ɗa	-8.68054
né	-8.68164
▁ngu	-8.68208
▁imp	-8.68566
▁don	-8.68964
à	-8.6906
ddu	-8.6918
ission	-8.69234
cir	-8.69237
je	-8.69387
gue	-8.69457
▁Di	-8.6948
▁luu	-8.69537
ément	-8.69546
ze	-8.69601
man	-8.69607
lon	-8.69715
gie	-8.69935
▁ép	-8.69942
wa	-8.69983
fo	-8.70085
▁servi	-8.70329
▁voyage	-8.70489
oori	-8.70508
▁sal	-8.70553
ɗal	-8.70581
gramme	-8.70717
▁bur	-8.70723
▁hal	-8.70905
iss	-8.71104
lé	-8.71182
▁dix	-8.71254
▁exc	-8.71367
▁cor	-8.71413
osité	-8.7168
▁y	-8.71773
vre	-8.7181
▁trans	-8.72453
▁jow	-8.72696
arrière	-8.72782
vent	-8.72783
▁pol	-8.72808
▁wo	-8.72862
▁man	-8.72906
ori	-8.73059
▁maa	-8.73303
▁esp	-8.73332
asser	-8.73377
une	-8.74051
co	-8.74174
▁amen	-8.74225
▁puis	-8.74251
▁cou	-8.74378
▁ru	-8.74798
tol	-8.74955
▁ɗa	-8.75021
▁succ	-8.7526
▁habit	-8.75296
j	-8.76388
▁vent	-8.76445
▁hiwr	-8.7651
▁fra	-8.76782
ection	-8.77089
▁cr	-8.77275
lè	-8.77564
▁moƴƴ	-8.77785
▁toow	-8.77786
▁pen	-8.77837
▁cro	-8.77918
ɗ	-8.78012
▁chant	-8.78295
▁mot	-8.78988
gine	-8.79114
▁per	-8.79143
▁brigand	-8.79289
hoore	-8.79321
▁déchir	-8.79437
▁av	-8.79455
ré	-8.79606
anke	-8.79811
▁et	-8.80239
and	-8.80264
inte	-8.80266
▁est	-8.804
ñe	-8.80688
▁jou	-8.80798
▁vert	-8.80859
▁emp	-8.80948
ɗon	-8.81004
▁fij	-8.81137
iiru	-8.81341
baa	-8.81466
ank	-8.81503
▁mb	-8.81595
ss	-8.81813
▁can	-8.81884
lette	-8.82167
▁parti	-8.82539
ital	-8.82616
aandu	-8.82842
iti	-8.82867
wru	-8.82895
▁bé	-8.83115
▁fay	-8.83215
▁Du	-8.83261
diction	-8.83303
▁mur	-8.8341
isser	-8.83757
rent	-8.83995
tee	-8.84041
▁faw	-8.8432
▁cal	-8.8434
▁col	-8.8445
▁kaa	-8.84497
ara	-8.84514
aide	-8.84643
▁jal	-8.84701
▁épi	-8.84834
▁petit	-8.85183
▁Nd	-8.85292
sie	-8.85439
asse	-8.85915
ndir	-8.86052
ina	-8.86306
▁kay	-8.8648
su	-8.86574
cer	-8.8668
▁mor	-8.86684
gite	-8.87016
toire	-8.87041
os	-8.8715
maa	-8.87262
▁ve	-8.87751
▁enseign	-8.87792
▁bru	-8.87989
▁diw	-8.88106
mu	-8.88259
▁hor	-8.88736
▁lanc	-8.8882
erie	-8.8886
ñ	-8.88884
âche	-8.89238
so	-8.89239
▁chi	-8.89358
ɗɗo	-8.89372
▁arriv	-8.89444
ɗan	-8.89689
▁ƴ	-8.89841
▁rew	-8.90368
▁coup	-8.90606
▁but	-8.90685
▁tor	-8.90754
ale	-8.90778
▁fri	-8.90809
▁jonn	-8.90869
uf	-8.9087
ana	-8.90928
▁auto	-8.91231
he	-8.91259
▁rec	-8.9135
▁jar	-8.91694
▁inter	-8.91695
▁pens	-8.91697
iste	-8.91867
▁Te	-8.92122
frère	-8.92156
otoo	-8.92176
ex	-8.92329
unoo	-8.92374
aime	-8.92483
ca	-8.92542
ète	-8.92595
▁ph	-8.9265
accord	-8.92768
▁ndaar	-8.92793
fier	-8.93206
▁mant	-8.93211
ame	-8.93219
bé	-8.93338
▁sil	-8.93892
▁honn	-8.9393
▁tap	-8.93944
▁ŋ	-8.93963
ite	-8.93987
▁yaw	-8.93987
nu	-8.94454
tan	-8.94614
▁taƴ	-8.94949
▁tr	-8.95121
dou	-8.95224
2	-8.95305
Almam	-8.95305
▁Ousmane	-8.95305
▁nourri	-8.95323
▁findin	-8.95334
op	-8.95339
tif	-8.95371
▁haala	-8.95466
▁Ha	-8.95735
▁qui	-8.95745
▁ley	-8.95833
▁feew	-8.95849
▁pottin	-8.95972
▁mawn	-8.96022
▁mbel	-8.96095
▁ɓo	-8.96107
▁demi	-8.96127
nan	-8.9622
▁avant	-8.96227
▁war	-8.96348
▁ɗow	-8.96396
▁bien	-8.96432
dan	-8.96504
▁droit	-8.966
▁haa	-8.96698
▁dannd	-8.96761
▁point	-8.96797
▁accu	-8.96855
tt	-8.96886
eewu	-8.96908
▁kur	-8.96917
▁belle	-8.9693
ad	-8.9711
uscule	-8.97232
▁huu	-8.97281
▁appr	-8.9729
install	-8.97391
net	-8.9744
▁fer	-8.97563
nda	-8.97614
▁brou	-8.9784
ɓi	-8.97936
▁diid	-8.97968
▁tapp	-8.97994
▁Ɗ	-8.98023
▁fel	-8.9804
▁cul	-8.98063
alal	-8.98091
▁dew	-8.98107
▁haal	-8.98202
gooto	-8.98216
▁lu	-8.98394
mbur	-8.98442
▁parent	-8.98526
▁jamaa	-8.98586
▁taa	-8.98608
▁Qu	-8.98935
▁gri	-8.98953
omme	-8.99099
▁dés	-8.99162
kii	-8.99204
idi	-8.99228
▁ben	-8.99321
▁goro	-8.99376
▁sou	-8.99404
▁Ch	-8.9944
▁pay	-8.99452
awal	-8.99536
▁comment	-8.99603
▁wonu	-8.99665
▁pr	-8.99701
▁Pa	-8.99721
koo	-8.99756
ini	-8.99817
▁hino	-8.99829
ore	-9.00059
▁hom	-9.0012
▁ronk	-9.00121
per	-9.00123
▁ƴaw	-9.00478
▁sens	-9.0061
nique	-9.00696
▁kon	-9.01211
▁aani	-9.0122
port	-9.01306
▁taw	-9.01426
teur	-9.01438
▁fou	-9.01692
▁waɗ	-9.01737
▁hipp	-9.01745
ɓu	-9.01883
▁guid	-9.01982
▁wull	-9.02166
▁haw	-9.02174
termin	-9.02228
çon	-9.02299
▁doo	-9.02314
▁mét	-9.02333
▁contra	-9.02372
▁ño	-9.02386
▁gr	-9.02473
aille	-9.02483
aana	-9.02488
▁gard	-9.02636
ɓɓit	-9.02699
sa	-9.02805
▁somme	-9.02812
dence	-9.02921
lève	-9.03027
appelle	-9.0306
▁ñoo	-9.03166
▁balla	-9.03227
▁ap	-9.03258
ster	-9.03323
mmbu	-9.03368
ind	-9.0369
▁diwn	-9.03764
▁mala	-9.03866
rier	-9.03908
oda	-9.0394
▁para	-9.04007
▁nang	-9.04055
▁eff	-9.04083
enir	-9.04165
▁bay	-9.04248
▁haut	-9.0457
quet	-9.04627
▁seed	-9.04701
▁non	-9.04795
tere	-9.04811
naa	-9.04816
▁firi	-9.04922
aï	-9.05706
▁lutt	-9.05777
▁hen	-9.05821
▁dunnd	-9.05885
▁tay	-9.05907
▁éta	-9.05918
▁sorti	-9.06019
▁naati	-9.06029
▁U	-9.06071
vi	-9.06157
▁men	-9.06269
▁pas	-9.06289
▁lim	-9.06332
▁command	-9.06408
aison	-9.06425
ettre	-9.06579
▁kaf	-9.06656
▁turn	-9.06657
▁fit	-9.06697
aadu	-9.06851
▁daa	-9.06866
wo	-9.06872
ansi	-9.06907
cc	-9.07189
éti	-9.07279
sieur	-9.07304
▁dunc	-9.07365
tention	-9.07418
▁sera	-9.076
▁faala	-9.07603
uuri	-9.07944
bu	-9.08362
▁conc	-9.08384
▁tourn	-9.0842
aru	-9.08504
▁nage	-9.08566
▁wiir	-9.08575
mal	-9.0865
aise	-9.08717
ns	-9.0875
xer	-9.08872
▁junn	-9.08924
teau	-9.08967
▁cat	-9.09251
▁gas	-9.09347
▁kam	-9.09381
▁br	-9.094
▁ala	-9.09712
ête	-9.09727
▁dévo	-9.09801
▁bak	-9.09854
diyan	-9.09859
▁réveille	-9.10005
alism	-9.10112
▁ge	-9.10219
aandi	-9.10309
nna	-9.10312
▁boo	-9.10512
▁wiiw	-9.10565
uma	-9.10696
▁sem	-9.10706
▁feet	-9.10713
▁ñaam	-9.10772
▁ɓokk	-9.1097
ug	-9.11094
aku	-9.11392
▁mbo	-9.11835
oc	-9.12027
cie	-9.12164
yri	-9.12306
▁abandonn	-9.12512
▁rapport	-9.12521
▁racont	-9.12623
▁Ar	-9.12629
▁tur	-9.1273
▁Ne	-9.12743
▁kor	-9.12878
qu	-9.13182
▁jibin	-9.13208
nir	-9.13274
▁winnd	-9.13317
▁jokk	-9.1343
ojji	-9.13495
▁attrap	-9.13503
▁emmb	-9.13574
▁kan	-9.13652
▁him	-9.13716
▁wu	-9.1382
▁égal	-9.13959
▁gayn	-9.14103
aka	-9.14104
int	-9.14139
▁oubli	-9.14249
ér	-9.14297
▁recul	-9.14398
ivre	-9.14463
ace	-9.14542
▁confi	-9.14662
▁bii	-9.14791
▁lann	-9.14879
▁yan	-9.14883
▁trait	-9.14907
oru	-9.15138
▁ag	-9.15167
▁élev	-9.15169
▁dépl	-9.15281
hier	-9.15394
oral	-9.15418
▁yaha	-9.15436
▁gor	-9.15459
uwer	-9.15511
isson	-9.15574
▁Mo	-9.15592
ami	-9.16005
▁mini	-9.16549
▁tir	-9.16574
ouver	-9.16631
appu	-9.16701
▁darn	-9.16716
cien	-9.1693
utu	-9.16932
▁fen	-9.17033
▁gab	-9.17156
▁sang	-9.1725
▁ki	-9.17365
▁dou	-9.17417
gir	-9.17664
▁écri	-9.17795
▁kuu	-9.17857
▁banndi	-9.17894
owru	-9.17898
▁Ka	-9.17901
olo	-9.18093
▁hoɗ	-9.18228
▁wal	-9.18304
aade	-9.18402
eji	-9.18428
▁hay	-9.18547
iila	-9.18601
▁yalt	-9.18602
▁mett	-9.18698
▁fus	-9.18781
▁sepp	-9.18931
▁fourr	-9.18949
éc	-9.19192
▁faa	-9.19504
▁sol	-9.19666
▁moƴƴin	-9.19835
▁déf	-9.19864
▁ñal	-9.20082
▁hett	-9.20141
▁Le	-9.20185
eend	-9.2021
▁ñi	-9.20292
▁tombe	-9.20495
aje	-9.20558
▁faam	-9.20853
▁souffle	-9.20964
▁enf	-9.20967
▁cl	-9.20992
▁henn	-9.21017
ont	-9.2115
▁ari	-9.21176
▁assi	-9.21203
▁cru	-9.21227
▁fr	-9.21266
▁fl	-9.21291
▁ant	-9.21331
beere	-9.21465
▁salu	-9.21519
▁juul	-9.21628
▁maw	-9.21654
uste	-9.21862
▁écart	-9.21907
aw	-9.22142
▁hy	-9.22205
duire	-9.22259
▁mouill	-9.22278
ître	-9.22405
rger	-9.22713
▁bid	-9.22821
▁Su	-9.22868
tule	-9.22951
▁rat	-9.23016
▁ɓann	-9.23118
ala	-9.23162
▁gra	-9.23259
▁ron	-9.23343
▁sennd	-9.2342
▁mart	-9.23523
▁ren	-9.23646
ƴe	-9.23697
▁kell	-9.2373
ncer	-9.23787
▁lan	-9.23844
▁itt	-9.23895
entir	-9.23968
▁fir	-9.24001
▁ferme	-9.24157
dent	-9.24215
▁lé	-9.24372
kiti	-9.24434
▁dur	-9.2453
aux	-9.24552
unde	-9.24565
laa	-9.24752
bre	-9.24788
▁Ɓ	-9.25062
▁cherch	-9.25123
▁dép	-9.25194
▁sinc	-9.25407
▁kala	-9.25449
ande	-9.25547
▁Ce	-9.25592
▁moo	-9.25631
raa	-9.25684
▁fond	-9.25759
ɓa	-9.25812
nngu	-9.25995
C	-9.26032
▁o	-9.26142
tin	-9.26278
cun	-9.26317
étude	-9.26322
▁pri	-9.2633
▁foul	-9.26343
appa	-9.26382
▁V	-9.26403
▁art	-9.26513
▁q	-9.26617
▁hér	-9.26629
▁jog	-9.26668
iifu	-9.26716
vier	-9.26733
▁joue	-9.26773
hé	-9.26833
après	-9.26849
▁indig	-9.26866
▁coo	-9.26879
▁z	-9.26891
▁hoy	-9.26936
wre	-9.26976
▁koy	-9.27028
▁firt	-9.27064
▁fum	-9.27071
▁wee	-9.27085
▁Ali	-9.27122
▁ye	-9.27142
▁gi	-9.27241
▁sut	-9.27333
aura	-9.27396
▁law	-9.27549
▁dor	-9.27561
▁phon	-9.27577
hui	-9.27682
rô	-9.27708
▁wall	-9.27714
ɗun	-9.27909
aagu	-9.2795
▁ɓeyd	-9.28119
agir	-9.28153
▁génér	-9.28168
▁tour	-9.28183
▁fell	-9.28253
pular	-9.28281
eeli	-9.28297
▁)	-9.28639
▁.	-9.28639
▁Z	-9.28639
▁exagér	-9.28639
▁menstruation	-9.28639
▁recommand	-9.28639
▁Usmaani	-9.28639
▁recouvr	-9.28639
▁concubin	-9.28639
hunnduko	-9.2864
▁hecci	-9.2864
▁feññin	-9.28641
▁pêche	-9.28641
▁implor	-9.28641
▁mbatula	-9.28642
▁celui	-9.28642
▁récolte	-9.28644
abord	-9.28647
▁trouble	-9.28648
▁beyt	-9.2865
dépendance	-9.28653
▁taquine	-9.28664
▁mainten	-9.28668
▁mbarba	-9.2867
▁yeeso	-9.28671
▁ɓonnd	-9.28674
▁redresse	-9.28674
▁fabrique	-9.28675
▁agressi	-9.28676
▁dow	-9.28681
▁pauvre	-9.28686
▁combat	-9.28688
▁mooɓ	-9.28689
chaîne	-9.28692
▁suc	-9.28695
▁rejet	-9.28697
koroo	-9.28698
▁aaden	-9.28699
▁foof	-9.28722
▁sicc	-9.28731
▁janfa	-9.28744
▁sariya	-9.28752
▁seeɗa	-9.28756
▁mesure	-9.2876
▁souci	-9.28769
▁neene	-9.28772
▁hump	-9.28776
▁ɓiƴ	-9.28784
▁Porto	-9.28803
▁fourmi	-9.28809
▁paykun	-9.28814
▁sar	-9.2882
▁dispar	-9.28821
▁dirtin	-9.28854
▁baaba	-9.28856
▁exige	-9.28863
▁ɗiɗo	-9.28864
▁commun	-9.28886
▁occup	-9.28895
froid	-9.28914
▁poign	-9.28924
▁Kaari	-9.28952
▁feɗɗ	-9.28967
▁clair	-9.2898
▁milli	-9.2899
▁visite	-9.29001
▁awdi	-9.29029
ndol	-9.29067
▁thé	-9.29078
▁gannd	-9.2911
▁ndikk	-9.29134
▁étudi	-9.29144
▁guéri	-9.29149
▁désir	-9.29214
▁différent	-9.29217
▁haldi	-9.29228
▁anndu	-9.2923
▁gé	-9.29255
▁Pro	-9.2926
▁woy	-9.29278
▁déclar	-9.29284
▁dogu	-9.29288
▁peut	-9.29302
▁1	-9.29302
▁ɓuran	-9.29325
▁yiltit	-9.29325
▁dakm	-9.29326
▁éléphant	-9.2933
▁champ	-9.29353
▁musi	-9.29356
▁ngay	-9.2936
▁asamaa	-9.29364
▁hajju	-9.29377
tuelle	-9.29401
▁yoɓ	-9.29429
▁couver	-9.29447
▁fuy	-9.29453
▁télé	-9.29522
▁jogor	-9.29534
▁santi	-9.29534
▁divin	-9.29556
angle	-9.29574
▁naat	-9.29598
yth	-9.29604
▁Da	-9.29656
▁balance	-9.29711
▁chose	-9.29713
▁wemmb	-9.29754
toi	-9.29758
▁lég	-9.2979
▁yoll	-9.29806
▁mê	-9.29844
▁ayb	-9.29855
ume	-9.29874
ɗin	-9.29877
▁créé	-9.29947
▁sukk	-9.29948
▁impos	-9.29949
dé	-9.29952
▁sourd	-9.29965
▁tugg	-9.30161
adi	-9.30174
▁popula	-9.3018
▁rev	-9.30185
dommage	-9.30186
▁amour	-9.30217
▁syn	-9.30298
▁travaille	-9.30306
▁wuu	-9.3035
▁daande	-9.30381
▁écriv	-9.30399
▁hérit	-9.304
teyaa	-9.30433
▁damn	-9.30447
▁Afri	-9.30466
▁déplac	-9.30488
▁ɗun	-9.30503
▁anti	-9.30508
▁es	-9.30554
▁barkin	-9.30562
▁im	-9.30584
▁dogin	-9.30615
▁héro	-9.30645
main	-9.307
▁diver	-9.30701
▁front	-9.30731
▁autoris	-9.30743
▁kart	-9.30749
▁nom	-9.30772
engage	-9.30827
▁jusqu	-9.30836
▁jannde	-9.30841
▁not	-9.30866
ançai	-9.30882
▁sappo	-9.3089
ader	-9.30978
lal	-9.3099
▁béni	-9.31004
près	-9.31032
▁héré	-9.3111
▁caw	-9.31149
naange	-9.31194
▁change	-9.31202
▁boy	-9.31204
▁arrêt	-9.31244
▁vari	-9.31251
▁abs	-9.31254
▁alli	-9.31308
▁jalb	-9.31317
▁nokku	-9.31353
▁station	-9.31368
▁contre	-9.31384
▁décor	-9.31431
▁enfant	-9.31432
kere	-9.31518
▁déba	-9.31553
▁bula	-9.31582
▁bord	-9.31597
midi	-9.31627
▁inn	-9.31629
ole	-9.31648
▁kecc	-9.31654
iwal	-9.31656
▁solid	-9.31673
▁ɓuɓintin	-9.31689
▁pelle	-9.31717
▁après	-9.3183
app	-9.31833
▁new	-9.31843
▁Me	-9.31905
ode	-9.3192
▁tiiɗ	-9.31932
ien	-9.3198
▁arm	-9.32094
▁weey	-9.32148
spect	-9.3215
▁gim	-9.32198
▁rouge	-9.32206
▁hakkil	-9.32242
▁deux	-9.32255
▁bouc	-9.32272
▁déscend	-9.32357
âme	-9.32382
▁lux	-9.32403
po	-9.32429
▁Be	-9.3245
▁wujj	-9.32497
▁Yo	-9.32511
▁alka	-9.32536
▁oon	-9.32557
▁wur	-9.32687
mb	-9.32743
▁ton	-9.32788
cycl	-9.3289
▁feuille	-9.32936
waa	-9.32994
▁dey	-9.33003
▁tef	-9.33062
ption	-9.33106
▁faamin	-9.33131
▁ñam	-9.33132
cré	-9.3333
▁elt	-9.33381
▁vie	-9.33478
▁manque	-9.33524
▁péri	-9.33539
▁appare	-9.33604
▁mili	-9.33637
▁ɓii	-9.33657
▁daaka	-9.33676
fére	-9.33721
▁fiim	-9.33744
igu	-9.33897
▁rang	-9.3392
▁endur	-9.33926
lla	-9.33928
▁juge	-9.33953
yru	-9.33966
▁kolon	-9.33978
▁ɗoo	-9.34051
▁rés	-9.34064
▁muus	-9.34076
▁coloni	-9.34106
▁ndol	-9.34155
onndu	-9.34169
son	-9.34198
▁En	-9.34245
▁dee	-9.34251
▁plu	-9.34348
▁nj	-9.34401
▁Maa	-9.34517
▁répu	-9.34521
▁hiɗ	-9.34571
▁kas	-9.34611
▁joo	-9.34625
▁sett	-9.34688
▁autre	-9.34708
▁condui	-9.34709
▁chev	-9.34758
ngel	-9.34798
▁figu	-9.34841
▁aran	-9.34847
▁van	-9.34866
ill	-9.34874
eede	-9.34954
▁njan	-9.34991
▁enfl	-9.3502
▁laɓ	-9.35042
▁ver	-9.35047
▁lay	-9.35051
▁fitt	-9.35121
▁ɓiɗ	-9.3517
▁on	-9.35214
égation	-9.35262
▁Sé	-9.35281
▁ndu	-9.35294
▁hoore	-9.35382
▁La	-9.35485
▁defte	-9.35503
inké	-9.35575
▁chef	-9.35597
▁bammb	-9.3578
▁arb	-9.3585
▁incom	-9.35905
▁aff	-9.36064
▁fii	-9.36075
▁remor	-9.36097
▁sow	-9.36135
▁miil	-9.36204
▁exp	-9.36361
▁yejjit	-9.36397
▁tal	-9.36407
▁min	-9.36469
semble	-9.36477
▁dense	-9.36515
▁mouille	-9.36548
▁caaw	-9.36599
▁branche	-9.36611
▁caga	-9.36698
▁dañ	-9.36701
▁cee	-9.36772
okke	-9.36785
▁ekkit	-9.3679
▁là	-9.36843
▁mass	-9.3693
uddi	-9.36935
▁arti	-9.37008
▁filla	-9.37155
iyy	-9.37211
▁jaw	-9.37272
▁Sor	-9.37389
▁bug	-9.37393
▁peul	-9.37407
▁mou	-9.37501
▁ƴam	-9.37535
▁juuli	-9.37579
ache	-9.376
yon	-9.37621
▁racl	-9.37627
▁hakkee	-9.37754
▁mut	-9.37842
▁banta	-9.37947
ulde	-9.3796
▁goll	-9.37986
▁fes	-9.38079
▁koɗo	-9.38092
kkal	-9.38106
▁jippi	-9.38106
▁médi	-9.38213
▁def	-9.38246
uudu	-9.38274
▁ɓooy	-9.38293
daa	-9.38315
ddi	-9.38389
▁sé	-9.38394
écut	-9.38427
ute	-9.38427
inal	-9.38497
▁dirai	-9.38507
rosser	-9.38516
mbo	-9.38553
▁report	-9.38568
▁maj	-9.38675
taama	-9.38676
▁yiɗ	-9.38728
▁Ɓa	-9.38776
▁ngaa	-9.38823
▁nun	-9.38842
▁carre	-9.38861
▁voy	-9.38897
▁couvre	-9.39142
▁ɓant	-9.39176
▁tré	-9.39223
▁sept	-9.39286
▁salue	-9.39288
llal	-9.39313
eesi	-9.39382
intention	-9.39387
▁hayn	-9.39478
▁pottit	-9.39486
▁regard	-9.39555
▁kaak	-9.39556
▁kun	-9.39557
▁bunn	-9.39675
▁Re	-9.39749
▁ɗen	-9.39859
▁itta	-9.39968
▁anndi	-9.40013
▁wul	-9.40019
hun	-9.40048
▁yani	-9.40337
carte	-9.40422
leur	-9.40468
fotti	-9.40504
ng	-9.40643
▁transport	-9.40881
▁ƴee	-9.40917
▁kol	-9.40979
▁hayk	-9.40985
ban	-9.41011
▁respect	-9.41092
▁brûl	-9.41235
▁tord	-9.41277
▁tourment	-9.41337
▁casse	-9.41339
▁sint	-9.41373
▁takk	-9.41427
▁miijo	-9.41441
bin	-9.41456
▁quin	-9.41518
ora	-9.41548
▁hul	-9.41649
kun	-9.41695
▁enseigne	-9.4177
▁tô	-9.41788
oɗe	-9.41842
▁demand	-9.41898
▁coupe	-9.41911
▁vas	-9.41934
▁ayn	-9.4198
▁reven	-9.42015
▁bus	-9.42043
▁mbayl	-9.42049
▁ni	-9.42106
appeler	-9.4213
▁pén	-9.42182
▁fuɗɗi	-9.42191
pi	-9.42254
▁buu	-9.42272
▁ser	-9.42369
▁tache	-9.4241
ê	-9.42503
lir	-9.42512
▁plat	-9.42536
tron	-9.42555
▁yilt	-9.42623
▁courb	-9.42689
▁pooɗ	-9.428
▁mort	-9.42928
▁hulɓin	-9.42975
▁nee	-9.43015
élev	-9.43035
▁bel	-9.43055
▁corr	-9.43117
njo	-9.43176
▁épouse	-9.43217
▁nge	-9.43227
▁har	-9.43349
gré	-9.43368
▁alla	-9.43427
▁eng	-9.4356
▁souffr	-9.43628
▁ndim	-9.43748
▁aroo	-9.44084
▁poo	-9.44101
njam	-9.44117
▁nu	-9.44154
itu	-9.44164
▁see	-9.44192
▁kom	-9.44356
▁post	-9.44374
▁cop	-9.44407
min	-9.44589
stance	-9.44615
mba	-9.44642
▁dent	-9.44738
▁interdi	-9.4475
▁pompe	-9.44781
▁machin	-9.4481
▁loy	-9.4496
ile	-9.44984
▁voi	-9.45182
appe	-9.45216
aramoko	-9.45222
gistre	-9.45262
▁term	-9.45416
▁ŋoo	-9.45449
▁compr	-9.45468
▁tilf	-9.45669
▁seul	-9.457
▁Mama	-9.45772
▁rus	-9.45804
emp	-9.45915
▁hab	-9.46048
ager	-9.46099
▁certaine	-9.46109
▁accept	-9.46117
▁ɗuuɗ	-9.46145
▁egg	-9.46192
▁iw	-9.46354
▁half	-9.46424
▁yuɓɓ	-9.46434
▁connaiss	-9.46542
maan	-9.46688
pagne	-9.46748
▁ɗal	-9.46784
▁laam	-9.46796
▁kel	-9.46807
out	-9.46829
otter	-9.4693
endant	-9.46933
▁alm	-9.47092
▁ñaamo	-9.47139
▁kul	-9.47486
▁conven	-9.47554
▁val	-9.4761
▁bag	-9.47622
▁yalti	-9.47696
nga	-9.47813
▁cap	-9.47855
▁dara	-9.47913
▁noddit	-9.47958
▁Tu	-9.48053
▁duul	-9.48111
goro	-9.48133
pre	-9.48173
▁cant	-9.48196
cule	-9.48263
lip	-9.48273
▁vou	-9.48283
▁bete	-9.48393
▁marche	-9.48411
▁Fe	-9.48454
rir	-9.4846
onomi	-9.48466
▁Faa	-9.48507
théis	-9.48568
ten	-9.48571
ois	-9.48717
maru	-9.4882
tribu	-9.48859
▁natt	-9.48865
ument	-9.48907
▁laami	-9.48942
▁af	-9.48942
▁signe	-9.48952
ggal	-9.48972
▁hol	-9.48991
▁suppu	-9.49065
▁Cha	-9.49193
hal	-9.49288
ïs	-9.49418
▁ferm	-9.49545
▁piir	-9.49584
habitu	-9.49646
▁Mon	-9.49692
▁manngo	-9.49777
▁fam	-9.4984
été	-9.49868
▁jey	-9.49881
mbal	-9.50021
▁moƴƴi	-9.5012
▁fotta	-9.50239
▁bolo	-9.50266
nee	-9.50341
mp	-9.50384
▁jogi	-9.50456
▁fuu	-9.50512
▁neɗɗ	-9.50635
itii	-9.50699
▁jaɓ	-9.50865
ça	-9.50939
san	-9.50962
▁ti	-9.51009
▁couch	-9.51117
laire	-9.51161
iru	-9.51193
▁éloign	-9.51303
▁baar	-9.51352
▁naad	-9.51511
▁few	-9.51539
▁sab	-9.51544
▁kara	-9.51573
unir	-9.51587
aut	-9.51622
▁magi	-9.51626
▁éloigne	-9.51628
▁nenn	-9.51648
▁saw	-9.5168
liwal	-9.51702
▁cache	-9.51805
▁conf	-9.51845
▁noot	-9.51852
use	-9.51862
orii	-9.51923
▁tri	-9.52085
▁De	-9.52131
▁kin	-9.52245
id	-9.52355
▁lanni	-9.5242
▁fini	-9.52543
▁waaw	-9.52623
aider	-9.52642
écarter	-9.52642
dude	-9.52901
▁ɓe	-9.5308
aine	-9.53147
▁jet	-9.53162
▁ommb	-9.53222
▁éti	-9.53256
tter	-9.53332
▁caf	-9.53398
▁pos	-9.5343
▁cur	-9.53437
▁gaaru	-9.53575
▁son	-9.53609
▁form	-9.53753
▁Un	-9.53859
▁ñii	-9.53909
▁Aw	-9.53944
▁raci	-9.53947
▁batt	-9.5397
▁daal	-9.53972
ret	-9.54075
▁fubb	-9.54284
▁enc	-9.54328
▁pap	-9.54535
ige	-9.54629
ose	-9.54677
lait	-9.54702
ice	-9.54711
ey	-9.5472
iiri	-9.54792
▁bala	-9.54861
▁gaa	-9.54861
oowal	-9.5492
▁laa	-9.54928
mma	-9.55139
▁ɓorn	-9.55281
▁hont	-9.55335
unnde	-9.55401
▁noddita	-9.55405
▁waa	-9.55438
ppi	-9.55525
▁parc	-9.55589
oïs	-9.5559
ph	-9.55792
habit	-9.5605
ñaa	-9.56167
▁éb	-9.56199
▁ɗuuɗa	-9.56208
▁ndart	-9.56217
aabu	-9.56313
euf	-9.56363
▁souri	-9.56364
aata	-9.56376
owal	-9.56388
itorg	-9.56477
ubb	-9.5649
uusu	-9.56492
▁conten	-9.56527
ane	-9.56539
▁ɓor	-9.56558
ngii	-9.56596
▁alb	-9.56656
▁tamp	-9.56659
ɗɗe	-9.56833
▁foi	-9.56917
▁machine	-9.5692
▁mé	-9.56969
uve	-9.57035
ooti	-9.57199
▁poti	-9.57237
darii	-9.57307
amer	-9.57396
▁sim	-9.57442
▁pot	-9.57453
mme	-9.57454
▁tribu	-9.57567
▁jan	-9.5758
▁tourne	-9.57631
▁dî	-9.57749
▁trace	-9.5781
▁circon	-9.5783
▁cam	-9.57949
▁les	-9.57966
▁mars	-9.57994
▁saab	-9.58169
feere	-9.58183
▁fota	-9.58191
▁tan	-9.58253
▁gil	-9.58299
arrêt	-9.58316
▁loot	-9.58337
▁lign	-9.5843
ago	-9.58516
▁faalaa	-9.58564
tern	-9.58618
okar	-9.58652
▁firti	-9.58673
▁ɗuyt	-9.58709
▁disp	-9.58739
▁rid	-9.58941
▁rassembl	-9.59006
hém	-9.59056
▁gouvern	-9.59158
▁awƴ	-9.59163
▁kos	-9.59223
▁foro	-9.5926
▁pee	-9.59291
ccu	-9.59322
▁faibl	-9.59339
▁defu	-9.59388
▁renvers	-9.59442
ens	-9.59476
▁rug	-9.59599
âte	-9.59647
▁altern	-9.59742
▁ram	-9.5981
ig	-9.59855
▁ɗo	-9.59859
▁peu	-9.59954
▁comp	-9.59959
▁embêt	-9.60037
▁fall	-9.60222
▁tig	-9.60225
immi	-9.60227
uce	-9.60251
▁yewt	-9.60379
▁décr	-9.60498
▁fut	-9.60514
▁chasse	-9.60586
▁her	-9.6075
etee	-9.60823
tière	-9.60847
▁I	-9.60932
▁balan	-9.60951
▁vibr	-9.60978
iyon	-9.61018
▁ob	-9.61172
▁bonne	-9.61176
logi	-9.61279
▁font	-9.6133
▁lannda	-9.61379
bb	-9.61453
ila	-9.61506
▁lee	-9.61664
mir	-9.61732
mar	-9.61754
uté	-9.61874
▁hewt	-9.61895
▁fonndo	-9.61935
assembl	-9.61952
taali	-9.61952
▁taƴu	-9.62247
▁fé	-9.62466
hadi	-9.62482
▁cent	-9.62778
▁Jo	-9.62815
▁Do	-9.6284
▁râ	-9.62987
▁regarde	-9.63002
owo	-9.63018
én	-9.63114
ide	-9.63244
▁fagg	-9.63358
▁jarr	-9.63376
▁termin	-9.63441
tout	-9.63505
▁pic	-9.63564
▁ndaaru	-9.63567
raaku	-9.63955
▁cause	-9.64008
▁ndo	-9.64209
▁place	-9.64242
mé	-9.64428
▁diff	-9.64449
▁noddu	-9.64518
▁cla	-9.64582
▁bol	-9.64594
▁ña	-9.6462
▁coll	-9.64645
▁ek	-9.64865
▁entr	-9.6487
pos	-9.64924
▁drap	-9.64925
▁nde	-9.64937
▁fan	-9.64987
oƴ	-9.65023
▁lis	-9.65077
▁pouss	-9.65104
▁com	-9.65204
cal	-9.65304
▁trac	-9.65394
▁waru	-9.65418
▁somm	-9.65452
allon	-9.65475
bas	-9.65491
▁jur	-9.65526
hè	-9.65547
▁bri	-9.65618
▁fâche	-9.65701
▁ɓu	-9.65729
éduc	-9.65734
ive	-9.65739
▁nangu	-9.65818
▁ƴa	-9.66103
▁É	-9.66105
fil	-9.66171
iya	-9.66173
▁épin	-9.66307
▁aw	-9.6636
oncer	-9.66429
let	-9.66502
▁kank	-9.66672
▁haalu	-9.66761
▁sac	-9.66775
▁cata	-9.6683
▁souffre	-9.6688
▁hib	-9.66951
▁pat	-9.6697
▁udd	-9.67024
▁em	-9.67054
ran	-9.6708
▁four	-9.67241
liba	-9.67459
celle	-9.67584
rist	-9.67669
▁wer	-9.67685
▁sort	-9.67735
og	-9.67776
▁san	-9.67788
▁mah	-9.67813
masii	-9.67898
ct	-9.67975
▁commence	-9.68028
▁contr	-9.68029
▁agit	-9.6805
▁écol	-9.68109
▁huɓ	-9.68168
▁piy	-9.68181
nké	-9.68406
▁bouill	-9.68477
▁maand	-9.68519
eñer	-9.68553
▁acci	-9.68629
▁Sou	-9.6863
ôt	-9.6866
▁hun	-9.68719
▁dépasse	-9.68881
▁emb	-9.68905
ras	-9.68935
lesse	-9.68986
rê	-9.68989
ula	-9.68997
bus	-9.69143
rai	-9.69234
▁continu	-9.69297
▁tremble	-9.69316
gile	-9.69401
▁pagay	-9.69473
jour	-9.696
▁fecc	-9.69618
tisse	-9.69647
édi	-9.69669
oudr	-9.69687
mité	-9.69718
ɗɗ	-9.69764
▁bammba	-9.69807
nnge	-9.69812
ppitu	-9.69896
▁charge	-9.69965
nge	-9.7008
oɓe	-9.70154
fiya	-9.70156
isive	-9.70179
▁See	-9.70215
▁épou	-9.70228
ño	-9.7032
▁parle	-9.70363
nant	-9.70368
▁moto	-9.70369
▁Go	-9.70421
rès	-9.70433
▁maab	-9.70457
▁ewn	-9.70529
llir	-9.70576
▁Wo	-9.70666
bba	-9.70748
▁Bi	-9.70758
▁gl	-9.7076
▁faɗɗ	-9.708
▁henni	-9.70974
▁réussi	-9.70998
▁ado	-9.71053
▁compren	-9.71142
egga	-9.71191
aƴƴ	-9.71237
ropo	-9.71303
blique	-9.71347
▁kaw	-9.71361
▁laama	-9.71464
▁woot	-9.7155
▁i	-9.71646
▁découp	-9.71685
▁jant	-9.71708
▁malin	-9.71758
mbol	-9.71773
▁mat	-9.71813
nndi	-9.71828
▁faand	-9.71921
▁ext	-9.71927
ste	-9.71984
▁hoo	-9.72073
▁tes	-9.7208
▁ɗe	-9.72194
pper	-9.72218
coup	-9.72446
▁mè	-9.72523
▁jokki	-9.72615
▁Ann	-9.72695
mpre	-9.72785
ât	-9.72952
▁ɓil	-9.72978
▁compl	-9.73085
▁ɓiɗa	-9.73205
▁duŋ	-9.73232
▁huuw	-9.73261
▁tou	-9.73281
▁failli	-9.73289
illeur	-9.7332
▁pays	-9.73519
aba	-9.73532
▁serv	-9.73656
▁câ	-9.73673
▁heɓ	-9.73687
▁ñe	-9.73697
épar	-9.73774
chon	-9.73847
zé	-9.73934
▁waɗa	-9.7395
▁wujju	-9.74096
oblige	-9.74229
E	-9.74287
ungal	-9.74292
▁bor	-9.74342
engou	-9.74459
imité	-9.74479
▁feeñ	-9.74502
▁seek	-9.74509
alphab	-9.74576
▁lab	-9.74688
temp	-9.74705
giiru	-9.74769
▁pleu	-9.74822
▁mouche	-9.74852
affa	-9.7488
conveni	-9.74893
▁th	-9.74949
▁dan	-9.75087
▁No	-9.75163
mboodo	-9.753
préfe	-9.75385
iv	-9.75407
▁bro	-9.75418
▁huɗ	-9.75482
égoïs	-9.75523
éclair	-9.75536
esclav	-9.75542
inclin	-9.75586
▁sok	-9.75665
enfant	-9.75692
Afri	-9.75777
▁joga	-9.75793
accro	-9.75851
leydi	-9.75857
grand	-9.75859
junngo	-9.75907
four	-9.7591
don	-9.7594
N	-9.75957
mpan	-9.75962
▁colle	-9.7598
O	-9.76056
▁envoy	-9.76081
▁né	-9.76089
seeti	-9.76228
▁cade	-9.76231
allume	-9.76231
S	-9.7624
droit	-9.76248
oubli	-9.76262
▁accro	-9.76278
▁aspir	-9.76328
éloigne	-9.76406
forme	-9.76449
ñanne	-9.76453
annonce	-9.7651
aaka	-9.76535
▁cré	-9.76657
gne	-9.76688
▁saint	-9.76739
ature	-9.76765
aimer	-9.76843
▁sunn	-9.76919
siyon	-9.76935
▁forge	-9.76959
▁bout	-9.7698
habille	-9.76982
▁yoo	-9.7701
▁ɗaɓɓ	-9.77024
écri	-9.77085
kuru	-9.77162
ttu	-9.77301
illage	-9.77308
poti	-9.77418
cope	-9.7758
attend	-9.77602
▁indi	-9.77635
▁dict	-9.77671
graphie	-9.77673
dde	-9.777
▁mijit	-9.77765
▁wat	-9.77785
▁Q	-9.77786
gresse	-9.77826
ève	-9.77848
▁cri	-9.77906
ange	-9.78008
▁eɓɓu	-9.78049
▁arro	-9.78067
▁souffl	-9.78071
aître	-9.78113
▁secou	-9.78154
▁taal	-9.78155
oto	-9.7835
▁ɓuɓin	-9.78358
▁yee	-9.78441
▁vêt	-9.78454
osi	-9.78468
▁trou	-9.78481
firi	-9.78483
uil	-9.78509
▁jamm	-9.7861
ɗɗu	-9.78621
ɗiɗaɓ	-9.78631
▁bammonee	-9.78638
▁hippopot	-9.78638
‘	-9.78639
▁Hawsa	-9.78639
▁administrat	-9.78639
▁adolescen	-9.78639
▁atmosph	-9.78639
▁citoyen	-9.78639
▁considér	-9.78639
▁couscous	-9.78639
▁désherb	-9.78639
▁généalogi	-9.78639
▁intelligen	-9.78639
▁manndariini	-9.78639
▁mannjallajii	-9.78639
▁négoci	-9.78639
▁presdigitat	-9.78639
▁représent	-9.78639
▁syllab	-9.78639
▁tergivers	-9.78639
▁zurriya	-9.78639
!	-9.78639
5	-9.78639
:	-9.78639
>	-9.78639
?	-9.78639
appauvri	-9.78639
enthousiasme	-9.78639
innombrable	-9.78639
romosom	-9.78639
Égypt	-9.78639
Ê	-9.78639
ù	-9.78639
œu	-9.78639
▁Muhammad	-9.78639
▁albarka	-9.78639
▁ambassade	-9.78639
▁antilope	-9.78639
▁charlatan	-9.78639
▁collaborat	-9.78639
▁condamn	-9.78639
▁fructifi	-9.78639
▁fébril	-9.78639
▁handicap	-9.78639
▁humammbinne	-9.78639
▁imbécil	-9.78639
▁ingrédient	-9.78639
▁jihaadi	-9.78639
▁lézard	-9.78639
▁mensonge	-9.78639
▁musulman	-9.78639
▁rakât	-9.78639
▁rencontre	-9.78639
▁réprimande	-9.78639
▁secrétaire	-9.78639
▁suuperefe	-9.78639
▁taariixayanke	-9.78639
▁vrombi	-9.78639
▁wolodaabe	-9.78639
▁assassin	-9.78639
▁célébr	-9.78639
▁domestique	-9.78639
▁enveloppe	-9.78639
▁faasiq	-9.78639
▁joɗɗin	-9.78639
▁médécin	-9.78639
▁noogay	-9.78639
▁pallardi	-9.78639
▁princip	-9.78639
▁quémande	-9.78639
▁scarifi	-9.78639
▁wootinɗin	-9.78639
▁éruct	-9.78639
fraîch	-9.78639
▁Afirik	-9.78639
▁analyse	-9.78639
▁badigeonn	-9.78639
▁bakkaatu	-9.78639
▁catastrop	-9.78639
▁ciikuli	-9.78639
▁dialecte	-9.78639
▁découvri	-9.78639
▁dénigre	-9.78639
▁développe	-9.78639
▁gourmand	-9.78639
▁hottollo	-9.78639
▁inquiét	-9.78639
▁malchance	-9.78639
▁nettoy	-9.78639
▁néglige	-9.78639
▁objet	-9.78639
▁problème	-9.78639
▁pélérin	-9.78639
▁roublard	-9.78639
▁sympathi	-9.78639
▁talifon	-9.78639
▁épreuve	-9.78639
▁érudit	-9.78639
▁Allaahu	-9.78639
▁calligraph	-9.78639
▁kanndidaa	-9.78639
▁multiplie	-9.78639
▁nécess	-9.78639
▁stupid	-9.78639
▁tamtam	-9.78639
▁Hébreu	-9.78639
▁Keebu	-9.78639
▁camarade	-9.78639
▁candidat	-9.78639
▁divorce	-9.78639
▁électr	-9.78639
▁avocat	-9.78639
▁wiɗto	-9.78639
<	-9.78639
Islam	-9.78639
▁ancêtre	-9.78639
▁liquide	-9.78639
▁brindille	-9.78639
▁delegasiyon	-9.78639
▁gubalee	-9.78639
▁instigat	-9.78639
▁kiikiiɗe	-9.78639
▁montagne	-9.78639
▁équivalen	-9.78639
▁Waabilii	-9.7864
▁festiv	-9.7864
▁révolution	-9.7864
▁sélection	-9.7864
▁transhum	-9.7864
▁wennj	-9.7864
▁articulation	-9.7864
▁chatouille	-9.7864
▁incroyan	-9.7864
▁vaccin	-9.7864
▁waaloto	-9.7864
▁émigr	-9.7864
évanoui	-9.7864
▁dégoût	-9.7864
▁familia	-9.7864
▁ingénieu	-9.7864
▁kalabante	-9.7864
▁équi	-9.7864
▁baharu	-9.7864
▁maarasi	-9.7864
▁trafiqu	-9.7864
▁hospitali	-9.7864
▁imprimer	-9.7864
▁province	-9.7864
▁Ibra	-9.7864
▁ingrat	-9.7864
▁tubercul	-9.7864
▁ŋiñ	-9.7864
▁dégât	-9.7864
▁baymaanaa	-9.7864
▁goyaabe	-9.7864
▁gribouill	-9.7864
▁welsinda	-9.7864
▁sursaut	-9.7864
▁vidéo	-9.7864
▁bourdonne	-9.7864
▁déshonn	-9.7864
▁inspire	-9.7864
▁wakkil	-9.78641
▁louange	-9.78641
▁étourd	-9.78641
▁charpent	-9.78641
▁culbute	-9.78641
▁noeud	-9.78641
▁responsab	-9.78641
▁établi	-9.78641
▁cippir	-9.78641
▁infirm	-9.78641
▁ƴibbe	-9.78641
▁satisfa	-9.78641
aabudda	-9.78641
▁pépin	-9.78641
▁détrui	-9.78641
▁parasite	-9.78641
▁souhait	-9.78641
▁testicule	-9.78641
▁fromage	-9.78641
▁murmure	-9.78641
▁dugula	-9.78641
▁lislaamiyanke	-9.78641
▁micro	-9.78642
▁ajami	-9.78642
▁baharank	-9.78642
▁Timmbo	-9.78642
▁contamin	-9.78642
vacances	-9.78642
▁biblio	-9.78642
▁diminu	-9.78642
▁grommel	-9.78642
▁sollicit	-9.78642
▁geegere	-9.78642
▁souverain	-9.78642
▁épouvante	-9.78643
▁flagelle	-9.78643
▁yonndin	-9.78643
assalaamu	-9.78643
▁blâme	-9.78643
▁démangeaison	-9.78643
▁foññe	-9.78643
▁inutile	-9.78643
▁Muusa	-9.78643
▁idiot	-9.78643
▁contact	-9.78643
▁tetano	-9.78643
▁perefe	-9.78644
▁réplique	-9.78644
orgueil	-9.78644
▁augment	-9.78644
▁terroris	-9.78644
▁circula	-9.78644
▁défrich	-9.78644
▁emprunt	-9.78644
▁preuve	-9.78644
▁caract	-9.78644
▁own	-9.78644
▁repousse	-9.78644
Adamawa	-9.78645
▁Guinée	-9.78645
▁prompt	-9.78645
▁prêche	-9.78645
▁fensit	-9.78645
phone	-9.78645
▁affût	-9.78645
▁calomnie	-9.78645
▁ɓiɓɓe	-9.78645
▁bolondaa	-9.78645
▁femelle	-9.78645
▁gilngii	-9.78645
▁weeɓit	-9.78645
▁prostern	-9.78646
▁préoccup	-9.78646
Europ	-9.78646
▁buɓɓa	-9.78646
▁cloche	-9.78646
▁rapid	-9.78646
▁Fuuta	-9.78646
▁paraly	-9.78646
▁memmin	-9.78646
▁regret	-9.78647
▁encourag	-9.78647
▁ɓataake	-9.78647
▁gaspill	-9.78647
▁institut	-9.78647
▁persévér	-9.78647
▁bavard	-9.78648
▁défense	-9.78648
▁fokkit	-9.78648
▁innetee	-9.78648
▁bambou	-9.78648
▁ñagara	-9.78648
▁enchaine	-9.78648
▁apprenti	-9.78648
▁prostitu	-9.78649
▁ronfle	-9.78649
▁assujet	-9.78649
▁dépouill	-9.78649
▁réconcili	-9.78649
affaibli	-9.7865
▁parfum	-9.7865
▁yiitid	-9.7865
▁farliiɗ	-9.7865
▁engrais	-9.7865
▁prescription	-9.7865
▁téléphone	-9.7865
▁holsere	-9.78651
▁siffle	-9.78651
▁chanson	-9.78651
▁dynam	-9.78651
▁posséd	-9.78652
▁toilette	-9.78652
▁ferñit	-9.78652
▁vingt	-9.78652
alphabétis	-9.78652
▁ammbasa	-9.78653
▁châti	-9.78653
▁fiancé	-9.78653
▁difficile	-9.78653
▁sandale	-9.78653
▁blanchisse	-9.78654
▁possib	-9.78654
▁banaana	-9.78654
▁charognard	-9.78654
▁jilɓ	-9.78654
▁Isma	-9.78654
▁prestig	-9.78654
▁exempl	-9.78654
▁teddungal	-9.78654
▁complète	-9.78655
▁environ	-9.78655
▁vétér	-9.78655
▁yalage	-9.78655
▁gentil	-9.78656
▁Yim	-9.78656
▁inhum	-9.78656
▁azan	-9.78656
▁cowtii	-9.78656
▁préserv	-9.78656
▁élection	-9.78657
▁cohér	-9.78657
▁soutien	-9.78657
▁haasid	-9.78658
▁Blanc	-9.78658
▁bannju	-9.78658
▁calcul	-9.78658
▁ignoran	-9.78659
▁eɓɓindir	-9.78659
▁huutor	-9.78659
▁jeeɗiɗaɓ	-9.78659
▁signifi	-9.7866
munne	-9.7866
▁invocation	-9.7866
▁yedd	-9.7866
▁sarcl	-9.7866
▁siwtaa	-9.7866
▁lamentation	-9.78661
▁génie	-9.78661
▁hirnaange	-9.78661
▁incendie	-9.78662
▁baabiraa	-9.78662
▁hasb	-9.78662
▁ɓeyngu	-9.78662
▁soupçon	-9.78662
▁spoli	-9.78663
▁descend	-9.78663
▁rattrap	-9.78663
▁ƴulɓe	-9.78663
▁flatte	-9.78664
▁Fouta	-9.78664
▁transforme	-9.78664
▁jardin	-9.78664
▁réfug	-9.78664
▁planifi	-9.78665
▁céréale	-9.78665
▁ñaaƴ	-9.78665
▁cosmo	-9.78666
▁infidèle	-9.78666
▁mondial	-9.78666
▁rédig	-9.78666
▁matérialis	-9.78667
▁jaagor	-9.78667
▁ɗeɗɗ	-9.78667
▁maltraite	-9.78668
▁marchand	-9.78668
▁soustra	-9.78668
▁dénoue	-9.78668
▁gifle	-9.78668
▁Jaloo	-9.78669
▁boîte	-9.78669
▁critique	-9.78669
▁kasiya	-9.78669
▁formule	-9.7867
▁enquête	-9.7867
▁nouveau	-9.78671
▁crimin	-9.78672
▁jolk	-9.78672
▁scrut	-9.78672
▁naafiqiijo	-9.78672
▁nims	-9.78672
▁pratiqu	-9.78673
▁traverse	-9.78673
▁awaamu	-9.78673
▁sourcil	-9.78673
▁variété	-9.78673
▁Djih	-9.78674
▁univers	-9.78675
▁pervers	-9.78675
▁réforme	-9.78675
▁faveur	-9.78675
▁recherche	-9.78676
▁rêve	-9.78676
▁ɓeeɓ	-9.78676
▁timid	-9.78676
▁hellifaa	-9.78677
▁moyen	-9.78677
▁sukkunde	-9.78677
▁nyaam	-9.78677
▁franchi	-9.78678
▁jonmb	-9.78678
▁ƴeeŋ	-9.78679
▁boofo	-9.7868
▁remercie	-9.7868
▁réjoui	-9.78681
▁immoral	-9.78681
▁jaaraama	-9.78681
▁kewe	-9.78682
▁richesse	-9.78682
▁lettré	-9.78683
▁injection	-9.78683
▁particule	-9.78683
récipi	-9.78684
▁labour	-9.78684
▁njula	-9.78684
▁réserve	-9.78685
▁larve	-9.78685
▁ŋaaɓ	-9.78685
▁inform	-9.78685
▁makko	-9.78685
▁révél	-9.78685
fonctionn	-9.78686
▁Julde	-9.78687
▁constitu	-9.78687
▁martyr	-9.78687
▁complex	-9.78687
▁stéril	-9.78687
iséricord	-9.78688
▁révolt	-9.78689
▁keefe	-9.78689
▁début	-9.78689
▁suppos	-9.7869
▁coggu	-9.78691
▁Mandin	-9.78691
▁condiment	-9.78692
▁gémiss	-9.78692
▁Kissi	-9.78693
▁kasaara	-9.78693
▁réveillons	-9.78693
▁tolér	-9.78693
▁ŋabb	-9.78694
▁mandarin	-9.78694
▁converge	-9.78695
▁égorge	-9.78696
▁ancien	-9.78697
▁tempor	-9.78697
▁pétr	-9.78697
▁écume	-9.78697
▁consolid	-9.78697
▁hélic	-9.78699
▁coï	-9.78699
▁instant	-9.787
▁prison	-9.787
▁propriét	-9.787
▁corrige	-9.78701
▁dérange	-9.78701
▁respir	-9.78701
▁rivière	-9.78703
▁ɗenngal	-9.78703
▁vocab	-9.78704
▁branchage	-9.78705
▁index	-9.78705
▁porc	-9.78707
▁enjoin	-9.78707
▁liƴƴ	-9.78708
▁sanamu	-9.78708
▁abreuv	-9.78709
▁debbo	-9.7871
▁contribu	-9.7871
▁hâble	-9.7871
▁constru	-9.78711
▁eggunde	-9.78711
▁interprét	-9.78712
▁propag	-9.78712
▁wommb	-9.78713
▁détach	-9.78713
▁haako	-9.78714
▁couteau	-9.78714
▁tricot	-9.78714
▁wallifa	-9.78715
▁désign	-9.78716
▁ñawnd	-9.78716
▁explo	-9.78717
▁menace	-9.7872
▁ndernde	-9.78721
▁déménage	-9.78721
▁tekke	-9.78721
▁saakit	-9.78722
▁jokkondir	-9.78722
▁mûr	-9.78723
▁moitié	-9.78723
▁boobo	-9.78723
▁sauv	-9.78723
▁ganngu	-9.78723
▁retomb	-9.78723
▁verrou	-9.78724
▁ɗiɗi	-9.78724
▁procré	-9.78724
▁baagi	-9.78724
▁devinette	-9.78724
▁transpir	-9.78724
▁apparaît	-9.78724
▁message	-9.78724
▁discrimin	-9.78725
▁essor	-9.78726
▁ɓaƴƴ	-9.78726
▁poumon	-9.78728
▁aliment	-9.78729
▁troupe	-9.78729
▁mbobo	-9.78729
▁énonc	-9.78731
▁leader	-9.78731
▁conserve	-9.78732
▁wellita	-9.78732
▁jeenay	-9.78732
▁halɓ	-9.78732
▁duwaa	-9.78733
▁fedde	-9.78733
▁ceinture	-9.78733
▁associ	-9.78737
▁fourbe	-9.78737
▁Kula	-9.78738
▁serinda	-9.78739
▁saanga	-9.78739
▁arrange	-9.78739
▁hedda	-9.7874
▁carotte	-9.78741
écroul	-9.78743
▁broche	-9.78744
▁lugg	-9.78744
▁goyav	-9.78745
▁aujourd	-9.78745
▁ñoƴƴ	-9.78745
▁Seydi	-9.78748
▁fleuve	-9.78748
▁niais	-9.78748
▁buroy	-9.78748
▁destin	-9.78749
▁division	-9.7875
▁photo	-9.7875
▁tricher	-9.78751
▁présent	-9.78753
▁surnom	-9.78754
▁leggal	-9.78754
▁demeure	-9.78754
▁hôte	-9.78754
ingére	-9.78755
▁kippu	-9.78755
▁supérieur	-9.78756
▁promena	-9.78756
▁provision	-9.78756
▁prochain	-9.78756
▁distance	-9.78757
▁balafon	-9.78758
▁triste	-9.78758
▁Foul	-9.78759
▁peupl	-9.78759
▁ennui	-9.78759
▁boroos	-9.78762
▁profess	-9.78762
▁aïe	-9.78762
▁vénér	-9.78763
▁intens	-9.78763
▁gerto	-9.78764
▁expli	-9.78765
▁remplace	-9.78765
▁confére	-9.78765
buubu	-9.78766
▁poursui	-9.78766
▁gronde	-9.78766
▁obligation	-9.78766
▁fibre	-9.78767
▁wurñ	-9.78769
▁cakku	-9.78769
▁repét	-9.7877
▁village	-9.7877
▁plaisir	-9.7877
▁goût	-9.78773
▁bassin	-9.78774
▁belor	-9.78774
▁abeille	-9.78777
▁crachat	-9.78777
▁ɓaŋ	-9.78777
hoɗa	-9.78778
▁herbe	-9.78778
▁wutt	-9.78778
▁creuse	-9.78782
▁bawɗ	-9.78783
▁souvenir	-9.78784
chauffe	-9.78785
▁cupid	-9.78785
▁jumelle	-9.78785
▁gibi	-9.78786
▁expos	-9.78787
▁jiwo	-9.78787
▁programme	-9.78788
▁hoquet	-9.78791
▁bât	-9.78791
▁hésitation	-9.78792
▁expert	-9.78792
▁depans	-9.78793
▁délégation	-9.78794
jarank	-9.78794
▁reconqu	-9.78795
▁voisin	-9.78796
▁jaaba	-9.78797
▁jiiɓ	-9.78797
▁béné	-9.78799
▁dépose	-9.788
▁sécher	-9.788
▁bonfo	-9.788
▁classe	-9.78802
▁loow	-9.78802
▁bimmbi	-9.78803
▁yotta	-9.78803
uritani	-9.78803
▁tataɓ	-9.78803
▁maɓɓe	-9.78804
▁tuundi	-9.78804
▁heef	-9.78805
▁allez	-9.78805
▁invoqu	-9.78806
dans	-9.78807
▁déverse	-9.78807
intégr	-9.78808
▁chacun	-9.78811
▁uniform	-9.78812
▁noble	-9.78812
▁compos	-9.78813
▁salutation	-9.78813
▁jiñ	-9.78814
▁saasu	-9.78816
▁bawl	-9.78817
▁wasiy	-9.78817
▁banque	-9.78818
▁grogne	-9.78819
▁refus	-9.78819
▁ɗigg	-9.78821
▁sabondira	-9.78822
▁mbulla	-9.78822
▁réssu	-9.78822
▁konnaa	-9.78824
▁Dew	-9.78824
▁fissure	-9.78829
▁griff	-9.78829
▁corpulen	-9.78833
▁courtisan	-9.78834
▁légum	-9.78834
▁poomu	-9.78838
numér	-9.78841
▁moft	-9.78842
▁saaƴ	-9.78845
▁couchez	-9.78846
obtien	-9.78848
▁poliisi	-9.7885
▁cukko	-9.7885
▁seena	-9.78852
▁falj	-9.78853
▁abbere	-9.78853
▁humili	-9.78855
▁fripe	-9.78857
▁jooɗii	-9.78859
▁firsi	-9.78862
▁sooƴ	-9.78863
▁anima	-9.78864
▁région	-9.78868
▁sonnj	-9.7887
▁armée	-9.7887
▁proph	-9.78872
▁kurk	-9.78872
▁dédai	-9.78878
▁duɗal	-9.78882
▁ñamaku	-9.78883
▁dessin	-9.78884
▁imagin	-9.78884
▁croyant	-9.78887
▁soƴƴa	-9.78889
▁salama	-9.7889
▁fusil	-9.78892
▁asko	-9.78894
▁averti	-9.78897
inkaaj	-9.789
▁jukk	-9.78902
▁accouch	-9.78903
▁moƴƴude	-9.78904
▁alɓa	-9.78904
▁vêtement	-9.78905
▁ɓaawo	-9.78906
▁dépense	-9.78908
▁chemise	-9.78909
▁Suka	-9.78909
▁laaɓal	-9.78909
▁birin	-9.78909
▁wort	-9.78911
▁wowru	-9.78913
▁ɓakk	-9.78914
▁haɓɓ	-9.78914
▁yiltutu	-9.78914
▁forni	-9.78917
▁ñuɗ	-9.78917
▁campagn	-9.78918
▁ɓantaare	-9.78918
▁répét	-9.78919
assimil	-9.78922
▁commerce	-9.78923
▁prêt	-9.78925
▁épargne	-9.78929
▁halk	-9.7893
û	-9.78932
▁sagesse	-9.78932
▁dunk	-9.78933
▁hypocrite	-9.78933
▁Peul	-9.78936
▁rappeler	-9.78937
▁ñeeñ	-9.78937
▁Addan	-9.7894
▁Aarabu	-9.78944
▁déclam	-9.78944
▁luw	-9.78944
▁ɗarl	-9.78944
▁peigne	-9.78945
▁longue	-9.78947
▁besoin	-9.78947
▁retrou	-9.78948
siidaa	-9.78953
▁jiga	-9.78954
▁derf	-9.78962
▁jawdi	-9.78962
▁broder	-9.78963
▁décéd	-9.78966
▁clou	-9.78967
▁essay	-9.78968
▁ressembl	-9.78969
▁entière	-9.7897
▁sinaa	-9.78974
▁ƴuug	-9.78977
▁eɓɓan	-9.78979
▁bandit	-9.7898
▁échange	-9.78981
▁gang	-9.78983
▁ñeñ	-9.78984
▁abatt	-9.78985
▁démeure	-9.78985
▁Gâ	-9.78986
▁ñapp	-9.78987
▁duɗɗ	-9.78987
▁jeetat	-9.78993
▁Bunng	-9.78998
nommé	-9.79
▁soppu	-9.79001
▁chauss	-9.79004
▁videwo	-9.79004
▁gâte	-9.79006
▁typ	-9.79006
▁caltu	-9.79006
▁dowdo	-9.79008
▁ɓuuɓ	-9.79009
▁paresse	-9.79013
▁témoign	-9.79017
▁instrument	-9.79018
▁poly	-9.79021
▁courro	-9.79023
▁balanço	-9.79023
▁chameau	-9.79033
▁wahay	-9.79037
▁moko	-9.79038
▁humain	-9.79041
▁ooñ	-9.79041
▁raaɓ	-9.79043
Israa	-9.79044
▁tabit	-9.79047
fluence	-9.79048
▁jeego	-9.79055
rapule	-9.79057
▁bovin	-9.79061
▁denɗ	-9.79062
▁arc	-9.79066
▁naï	-9.79068
▁hoccu	-9.79078
▁bagage	-9.79079
rtificat	-9.7908
▁rappelle	-9.7908
▁konko	-9.79093
▁percept	-9.79095
▁argu	-9.79095
▁relui	-9.79106
artisan	-9.79109
▁essai	-9.7911
▁Créat	-9.79117
▁okkor	-9.7912
▁tammba	-9.79122
▁riw	-9.79124
▁kaydi	-9.79128
▁sikkita	-9.7913
fe	-9.79138
▁coton	-9.79147
▁vomiss	-9.79148
▁pied	-9.79153
▁perfid	-9.79154
▁miijita	-9.79155
▁aigre	-9.79159
▁louche	-9.7916
ystè	-9.79166
▁Alfa	-9.7917
▁labaa	-9.79172
▁jeudi	-9.79173
▁battin	-9.79176
▁peeñ	-9.79176
▁tailleur	-9.79176
▁assomm	-9.79177
▁naiss	-9.79181
▁eɓɓ	-9.79183
▁désor	-9.79184
▁trahi	-9.79185
▁poulet	-9.79191
▁aawas	-9.79192
▁jeyal	-9.792
▁oeuf	-9.792
▁super	-9.79209
▁divag	-9.7921
▁ŋerm	-9.79212
▁ñemmb	-9.79214
▁cinqu	-9.79217
▁péché	-9.79218
▁fardeau	-9.7922
▁dernier	-9.79221
▁gomɗ	-9.79224
▁manière	-9.79228
▁quart	-9.7923
▁foot	-9.7923
▁dabb	-9.79245
▁fondation	-9.79247
impôt	-9.79248
▁sarti	-9.79249
▁trois	-9.79261
▁glouton	-9.79261
▁ngadd	-9.79264
▁danger	-9.79266
▁départ	-9.79267
▁eut	-9.79268
▁rim	-9.79269
▁rufu	-9.79278
▁talen	-9.79279
▁suppli	-9.7928
▁herm	-9.79284
▁cerno	-9.79286
▁Koni	-9.79291
▁hyper	-9.79292
▁begaye	-9.79294
vant	-9.79295
▁esqui	-9.79296
▁utilisé	-9.79296
▁anndaa	-9.793
▁fiif	-9.79306
▁invent	-9.79309
▁gay	-9.79311
▁avi	-9.79311
▁aîn	-9.79314
▁tabou	-9.79329
▁épée	-9.79331
import	-9.79335
▁uum	-9.79339
▁salli	-9.7934
▁gens	-9.79343
▁méchan	-9.79352
▁unifi	-9.79352
▁nafa	-9.79355
▁Hannde	-9.79357
▁année	-9.7936
▁capable	-9.79372
▁piè	-9.79374
▁premier	-9.79376
▁ramen	-9.79387
▁jinng	-9.79389
▁fanaa	-9.7939
▁siif	-9.79395
▁marmonne	-9.79409
menuis	-9.7941
▁charrett	-9.79416
▁idol	-9.79418
▁avance	-9.79418
▁yaaj	-9.7942
▁bloqu	-9.7942
▁idéo	-9.79421
▁iid	-9.79425
▁moisson	-9.79426
▁strat	-9.7943
▁finndi	-9.79432
▁heɓu	-9.79438
▁lakke	-9.79439
▁lieu	-9.79448
▁gig	-9.79449
▁ɓogg	-9.79452
▁pikk	-9.79455
▁ñaaki	-9.79455
▁hebi	-9.7946
mobilis	-9.79462
▁islami	-9.79463
▁larme	-9.79475
▁dormi	-9.79482
▁happu	-9.79483
▁instru	-9.79486
▁récit	-9.79489
▁donkin	-9.7949
▁façon	-9.79494
musu	-9.79496
jecti	-9.795
▁wirn	-9.79502
▁dissé	-9.79502
▁anna	-9.7951
▁portion	-9.79512
▁vache	-9.79516
▁lummb	-9.79517
▁migr	-9.79528
entraide	-9.79529
▁chaine	-9.79532
▁babou	-9.79534
▁bleu	-9.79539
▁sukun	-9.7954
▁finnde	-9.79547
▁tippud	-9.79554
▁mbile	-9.79558
▁maƴ	-9.7956
▁natal	-9.79561
▁jaati	-9.79571
▁nature	-9.79574
▁pompi	-9.79581
▁bappit	-9.79586
▁mélange	-9.79593
▁anniy	-9.79606
▁mijito	-9.79608
▁éternue	-9.79618
▁projet	-9.7962
▁évent	-9.79629
▁Ram	-9.79635
▁feccere	-9.79637
▁oc	-9.79639
▁signal	-9.7965
▁libér	-9.79656
▁jommba	-9.79657
▁ƴant	-9.79666
▁desal	-9.79667
▁Quelle	-9.79667
▁décision	-9.79681
▁démon	-9.79688
▁bunɗ	-9.79698
▁aiguill	-9.79717
irai	-9.79718
▁justic	-9.79719
▁tamis	-9.7972
▁noddin	-9.79722
▁devoir	-9.7973
▁espér	-9.79741
▁Oto	-9.79742
▁maayi	-9.79755
▁danki	-9.79755
▁ñakk	-9.79757
▁haɗ	-9.79759
▁tambour	-9.79759
▁affli	-9.79768
▁obei	-9.79769
▁ngoo	-9.7977
▁tintid	-9.79771
▁arrach	-9.79772
ddan	-9.79785
▁boyd	-9.79788
▁yim	-9.79788
▁jeûne	-9.79789
▁majj	-9.79792
▁appli	-9.79798
onne	-9.79801
▁nawni	-9.79805
▁oeil	-9.7981
▁aveu	-9.79833
▁jaka	-9.79835
▁illumin	-9.79835
▁applaudi	-9.7984
▁empêche	-9.79842
▁agricult	-9.79846
▁authenti	-9.79848
▁violent	-9.79848
▁tranche	-9.79856
▁kulle	-9.79857
▁ɓen	-9.79858
▁tafsi	-9.7986
▁proclam	-9.7986
▁insulte	-9.79865
▁Faransi	-9.79869
▁embar	-9.79869
▁lampu	-9.79882
▁hiima	-9.79891
▁vendre	-9.79893
▁goree	-9.79902
▁savant	-9.79903
▁fruit	-9.79916
▁tufu	-9.79918
mmbata	-9.7992
▁élevé	-9.79921
▁douz	-9.79937
▁killi	-9.79944
▁Untel	-9.79945
▁bijou	-9.79947
toto	-9.79953
▁njof	-9.79961
▁fleur	-9.79961
▁chambre	-9.79967
▁élasti	-9.79984
▁honor	-9.79985
▁conform	-9.79985
▁daba	-9.7999
▁leƴƴi	-9.79992
▁propre	-9.80008
▁chéri	-9.80012
▁soigne	-9.80017
nsi	-9.80018
iilu	-9.80037
▁nav	-9.8004
▁Alma	-9.80052
▁yul	-9.80056
▁fonngo	-9.80058
▁pardon	-9.80059
▁vien	-9.80061
▁kutub	-9.80065
▁marque	-9.80073
▁allondir	-9.80077
▁impoli	-9.80082
▁parole	-9.80084
▁argent	-9.80088
▁poussin	-9.80096
▁bepp	-9.80102
achève	-9.80104
▁id	-9.80107
▁absol	-9.80107
▁goong	-9.80107
▁Mari	-9.80109
▁étalag	-9.80111
▁sûre	-9.80115
▁maître	-9.80133
▁exerc	-9.80141
▁existe	-9.80145
ulɓe	-9.80146
▁bless	-9.80148
▁pluie	-9.8015
aaji	-9.80161
▁duuma	-9.8017
▁règle	-9.80177
▁janan	-9.80184
▁femme	-9.80185
ènè	-9.80186
▁désob	-9.8019
▁anngis	-9.80202
▁mayon	-9.80204
▁yiltito	-9.80236
▁sifa	-9.80236
mmb	-9.80239
▁diam	-9.80241
▁tibi	-9.80245
▁faale	-9.80249
▁enndu	-9.80255
wi	-9.80256
▁lamɗo	-9.8026
▁Sib	-9.80263
▁enfonc	-9.80268
▁affaire	-9.80283
▁venu	-9.80295
▁kaaru	-9.80298
denndaan	-9.80304
▁laañ	-9.80306
▁estime	-9.80313
▁kiita	-9.80317
▁honɗu	-9.80326
▁urine	-9.80365
▁sañ	-9.80368
▁badin	-9.80389
asliij	-9.80392
▁chien	-9.80395
▁éner	-9.80407
▁écho	-9.80408
▁hittin	-9.80409
▁saccu	-9.8041
▁ɗart	-9.8041
▁maudi	-9.80414
▁escal	-9.8042
▁trépas	-9.80423
enfui	-9.80425
autre	-9.80444
▁poula	-9.80459
▁selli	-9.80462
▁razzia	-9.80464
ɓawre	-9.80487
▁fof	-9.80489
▁enterre	-9.805
▁siè	-9.80504
▁jenn	-9.80509
▁jom	-9.80511
▁favorit	-9.80515
▁yeñ	-9.80519
▁arsik	-9.80534
▁puyɗ	-9.80539
▁Ang	-9.80541
▁dogataa	-9.80543
▁hanki	-9.80553
▁ñogg	-9.80561
▁sagari	-9.80573
▁jiib	-9.80578
▁karan	-9.80595
▁deƴƴ	-9.80601
▁réuni	-9.80607
▁venge	-9.8061
▁sport	-9.80614
▁teddee	-9.80618
iyaa	-9.80619
▁taaf	-9.80632
▁gob	-9.80633
▁général	-9.80635
nze	-9.80639
▁objecti	-9.80641
▁gourd	-9.80646
ocrati	-9.80653
▁mbajj	-9.80654
▁bok	-9.80655
▁interrog	-9.8066
▁montr	-9.80667
▁lunnda	-9.80669
▁laana	-9.80676
▁torture	-9.80679
▁tiinde	-9.80681
fi	-9.80683
▁force	-9.80684
▁jagg	-9.80702
▁économise	-9.80705
▁veuv	-9.80714
woo	-9.80719
▁vice	-9.80719
▁goy	-9.80726
▁merle	-9.80734
▁reten	-9.80734
▁hito	-9.80737
▁mérit	-9.80744
▁soci	-9.80746
▁croi	-9.80747
▁tisser	-9.8075
▁fasaa	-9.80756
▁baɓɓit	-9.80778
▁metta	-9.80782
▁nanndo	-9.80783
▁leeɓ	-9.80787
▁plaine	-9.80787
▁résum	-9.80803
▁gaw	-9.80816
▁masse	-9.80832
▁perdur	-9.80844
▁renseig	-9.80858
▁apport	-9.80862
▁singe	-9.80871
▁sahi	-9.80879
▁beɗo	-9.80895
▁histori	-9.80917
▁yeɗaa	-9.80922
▁ndar	-9.80925
▁sautill	-9.80931
▁libre	-9.80948
▁janngo	-9.80954
▁lettre	-9.81003
▁danko	-9.81005
▁partage	-9.81006
▁aspirin	-9.81006
▁luusi	-9.81054
▁harmonis	-9.81059
▁â	-9.81065
▁maitre	-9.81066
▁faandi	-9.81073
▁rougi	-9.81078
▁yaaw	-9.81082
▁banan	-9.81083
▁guerr	-9.81085
▁fanta	-9.81091
irdu	-9.81103
▁liɓi	-9.81106
▁enfoui	-9.81128
▁sauter	-9.81129
▁fâché	-9.81136
▁mille	-9.81138
▁prise	-9.81154
itti	-9.81162
▁wattit	-9.81169
▁nete	-9.81192
splend	-9.81193
▁ɓoyl	-9.8121
▁ul	-9.8123
maani	-9.81234
▁timm	-9.81243
▁Il	-9.81245
▁yanng	-9.81252
fuña	-9.81254
▁kaso	-9.81275
▁mamel	-9.8128
▁menth	-9.81287
▁attein	-9.81292
▁hoɗɗ	-9.81294
▁raɓɓ	-9.81294
▁biti	-9.81304
▁komp	-9.81304
▁dégou	-9.81314
abbi	-9.81328
▁sainte	-9.81332
▁lamm	-9.81338
▁fouet	-9.81341
▁rebell	-9.81343
▁délire	-9.81344
▁vain	-9.81352
▁keri	-9.81393
▁doole	-9.81394
▁paso	-9.8141
ôl	-9.81412
obscur	-9.81412
▁apar	-9.81416
▁frapp	-9.81437
▁coince	-9.8145
▁éternel	-9.81451
▁étrangle	-9.81458
▁curi	-9.81472
▁bonnit	-9.81475
▁hid	-9.81486
▁chance	-9.81503
▁maaro	-9.81528
▁volum	-9.81535
▁éc	-9.8154
▁woɗɗ	-9.81549
▁boɗe	-9.81557
▁juu	-9.81558
▁introdu	-9.81575
▁crach	-9.81587
▁discu	-9.81589
ente	-9.81593
▁sunna	-9.81608
▁wiiru	-9.81613
wiya	-9.81614
▁atta	-9.8162
▁Comm	-9.81637
▁bourg	-9.81653
▁hiita	-9.81662
▁kono	-9.81664
▁allume	-9.81679
▁naɓ	-9.81692
▁noone	-9.81697
▁suppit	-9.81719
▁exam	-9.81729
wiy	-9.81747
▁dewal	-9.81747
▁des	-9.8175
▁cellu	-9.81763
▁laga	-9.81794
▁depp	-9.81798
▁inclin	-9.81804
gorko	-9.81828
▁esclav	-9.81834
▁tabal	-9.81844
▁Qui	-9.8185
▁nga	-9.81854
joncti	-9.81863
▁égoïs	-9.81868
▁mendi	-9.81909
▁entasse	-9.81921
▁ara	-9.81927
▁dool	-9.81933
▁wayn	-9.81933
▁fopp	-9.81938
▁yaaf	-9.8195
Inter	-9.81963
enseigne	-9.81981
enferme	-9.81992
▁aube	-9.81992
ompre	-9.82012
▁buub	-9.82029
▁approche	-9.82035
▁éclair	-9.8204
▁cow	-9.82045
▁baafa	-9.82061
▁bugo	-9.82086
▁vaisse	-9.82087
▁hunnd	-9.82087
▁jull	-9.82094
▁Ken	-9.82129
▁Hita	-9.82134
▁ɗaɓɓira	-9.82141
▁éclat	-9.82147
▁quoi	-9.8215
▁Pull	-9.82152
▁ñolu	-9.82169
▁forgeron	-9.8217
▁fewnd	-9.82177
empêt	-9.82194
fice	-9.82206
▁limite	-9.8222
▁âg	-9.82225
▁rob	-9.82244
eebur	-9.82271
▁pourri	-9.82276
▁aami	-9.82281
▁miɗo	-9.82293
▁kilo	-9.82329
▁kataa	-9.82335
▁compar	-9.82342
▁perf	-9.82349
kol	-9.82363
▁mboodo	-9.82364
▁kaliif	-9.82388
route	-9.82397
▁Vi	-9.82399
▁ɗaat	-9.82411
▁claque	-9.82414
ƴƴ	-9.82423
▁bote	-9.82439
▁foti	-9.82488
▁tombé	-9.82494
▁leydi	-9.82502
▁série	-9.8252
▁tresse	-9.8252
▁jatt	-9.82527
▁futur	-9.82529
▁satt	-9.82548
▁Son	-9.82562
▁minist	-9.82563
▁kooti	-9.82563
▁semmb	-9.82575
▁acqu	-9.8258
▁accueill	-9.82594
▁moɗ	-9.82599
▁public	-9.826
eu	-9.82626
▁marchai	-9.8264
▁kiloo	-9.82642
▁jibini	-9.82653
▁waw	-9.82669
yu	-9.82669
▁hoos	-9.82679
▁conclure	-9.82682
▁mois	-9.8269
▁interne	-9.82712
▁finee	-9.82712
▁baata	-9.82712
▁mbaa	-9.82719
▁masti	-9.82753
hin	-9.82766
▁hommb	-9.82776
▁tata	-9.82783
▁pouv	-9.82795
▁capital	-9.82808
▁sache	-9.82812
▁protect	-9.8282
▁table	-9.82868
▁binnga	-9.82874
▁sila	-9.82903
▁sè	-9.82904
▁matin	-9.82949
▁waawata	-9.82958
▁ndin	-9.82979
fond	-9.82985
▁An	-9.83011
▁patient	-9.83019
▁sada	-9.83035
▁rayt	-9.83057
uite	-9.83079
▁colon	-9.83083
▁faamu	-9.83103
▁fatti	-9.83105
▁biskit	-9.83107
ria	-9.83117
▁réali	-9.83117
▁permet	-9.83118
▁disc	-9.83122
▁foll	-9.83126
▁huuɓu	-9.83129
od	-9.83131
▁muñ	-9.83149
uwaar	-9.83157
▁vaut	-9.83164
▁paga	-9.83172
▁janngan	-9.8318
▁aadan	-9.83221
▁bague	-9.83234
▁surviv	-9.83269
▁tamar	-9.83282
▁ɓoom	-9.83289
▁tell	-9.83333
▁Une	-9.8334
▁took	-9.83345
▁pooma	-9.83346
wro	-9.83359
▁hiiɗ	-9.83362
▁mono	-9.83395
▁tooñ	-9.83422
ye	-9.8343
▁bruit	-9.8344
yram	-9.83445
▁Gay	-9.83454
▁perle	-9.83464
▁iil	-9.83475
▁hurle	-9.83479
▁seɗ	-9.83482
▁entra	-9.83485
▁cerve	-9.83486
▁koyɗ	-9.83508
▁polic	-9.83519
▁sigi	-9.83538
▁doy	-9.83541
semence	-9.83557
▁kuura	-9.83574
▁calme	-9.83587
ummbo	-9.8362
▁hawtit	-9.83625
▁maama	-9.8363
▁repas	-9.83631
▁moucher	-9.83652
▁côt	-9.83661
▁immol	-9.83681
▁miliy	-9.83691
▁dad	-9.83713
av	-9.83725
▁Mis	-9.83756
▁tousse	-9.83782
▁gond	-9.83795
▁amant	-9.83796
▁patri	-9.83799
▁att	-9.83811
▁litt	-9.83814
▁fakk	-9.83823
▁sif	-9.83826
▁saut	-9.83838
▁chaum	-9.83855
▁baylo	-9.8386
▁crépi	-9.83871
▁abri	-9.83879
ango	-9.8389
▁bouch	-9.83895
▁buun	-9.83898
▁colo	-9.83925
▁ɓoos	-9.83928
▁raay	-9.83937
her	-9.83973
itié	-9.83979
▁pont	-9.84003
conqu	-9.84023
▁compagnon	-9.84036
ak	-9.84037
▁suka	-9.84048
▁ɗaɓɓit	-9.84059
▁refer	-9.84067
kk	-9.8407
▁kati	-9.8407
arrog	-9.84081
▁appelé	-9.84082
▁ɓitti	-9.84085
▁ñiiri	-9.8411
▁bec	-9.84134
▁moment	-9.84163
▁noir	-9.84169
gorge	-9.84193
rice	-9.84205
▁ñaw	-9.84214
▁berge	-9.84245
▁homme	-9.84264
▁Toor	-9.84264
▁Leggi	-9.84293
▁long	-9.84353
▁injur	-9.84423
▁yont	-9.84428
▁ŋanaa	-9.84434
▁Hum	-9.84451
▁Gu	-9.84454
kurtu	-9.84459
▁yamira	-9.84464
▁bra	-9.84491
mplisse	-9.84503
▁vivre	-9.84512
▁secouri	-9.84519
▁mors	-9.84533
▁gare	-9.8455
ble	-9.84552
▁mbod	-9.84556
▁helt	-9.84559
▁laco	-9.84571
▁plaisanter	-9.84584
▁kunna	-9.84587
▁nomade	-9.84587
▁déte	-9.84597
▁tint	-9.84607
▁lekk	-9.84609
▁ɗ	-9.84614
unna	-9.84619
▁lune	-9.84656
▁nive	-9.84671
▁lasli	-9.84673
bouteill	-9.84689
▁texte	-9.84738
▁hibb	-9.84743
▁hott	-9.84743
▁pian	-9.84759
tta	-9.84776
▁butte	-9.84783
▁convoit	-9.84797
▁effra	-9.84802
▁Pou	-9.84814
▁évit	-9.84819
▁adulte	-9.84834
▁envoyé	-9.84842
▁mousse	-9.8485
▁mangue	-9.84861
▁caprice	-9.84871
▁personne	-9.84874
▁nden	-9.84883
▁tax	-9.84894
▁langue	-9.84895
▁hersa	-9.8494
▁flot	-9.84962
abu	-9.84965
▁contes	-9.84981
▁komo	-9.84987
▁conqu	-9.84989
▁quelque	-9.85012
▁ngaw	-9.8502
▁jooɗ	-9.85021
lit	-9.85021
▁nationale	-9.85025
▁yunng	-9.8503
▁lawl	-9.85033
▁ƴuu	-9.8507
▁yoor	-9.85074
résiden	-9.85091
▁aval	-9.85108
▁muy	-9.8512
▁bête	-9.85124
▁ngart	-9.85141
▁bille	-9.85144
oogir	-9.85178
▁fouille	-9.85204
▁poule	-9.85206
▁kabii	-9.8521
▁cherche	-9.85236
▁yaadu	-9.85237
ivern	-9.85248
▁awl	-9.85248
▁peste	-9.85257
▁jumeau	-9.85271
favoris	-9.85277
▁habille	-9.85279
▁jour	-9.85282
▁ndure	-9.85287
▁fowt	-9.85306
▁kontu	-9.85332
▁puu	-9.85335
▁ɓi	-9.85347
▁fow	-9.85404
▁suffo	-9.85472
▁peƴƴ	-9.8549
▁immer	-9.85499
▁siir	-9.85507
▁bagg	-9.85531
▁hitaa	-9.85571
aphr	-9.85585
joldu	-9.85609
▁ador	-9.85611
▁molle	-9.85613
▁fod	-9.85623
ubbu	-9.85631
▁rawn	-9.85641
▁répon	-9.85648
▁miij	-9.8565
▁barr	-9.85684
▁rô	-9.85716
▁Bew	-9.85725
eaux	-9.85742
iyanke	-9.85744
▁narr	-9.85746
▁six	-9.85747
▁Si	-9.85765
▁niim	-9.85771
▁bonn	-9.85773
ammad	-9.8579
▁lui	-9.85804
▁bif	-9.85805
wwal	-9.85827
▁fett	-9.85836
▁soum	-9.85858
▁éto	-9.85887
▁ami	-9.85897
▁dawr	-9.85935
▁Sii	-9.85967
▁inc	-9.85969
▁souli	-9.85977
▁promo	-9.85996
▁rém	-9.86009
orloo	-9.86038
▁wirt	-9.86054
▁ɗuma	-9.86059
▁rogn	-9.86095
▁Wu	-9.86104
▁wifa	-9.86105
▁ɗayɗ	-9.86114
▁jul	-9.86131
▁winnde	-9.86164
▁jeen	-9.86187
▁couronne	-9.86219
▁weela	-9.86235
▁faillit	-9.8636
▁jaun	-9.86369
lekkol	-9.86371
▁moustique	-9.86383
▁oto	-9.86394
▁toute	-9.86442
▁touche	-9.86465
▁fiɗi	-9.86477
▁découpe	-9.86526
nnjii	-9.86535
umini	-9.86541
pard	-9.86547
▁ŋati	-9.8655
▁mbee	-9.86582
▁anndit	-9.86594
ffer	-9.86619
▁harm	-9.86638
▁Ju	-9.8664
ffronter	-9.86668
▁fedi	-9.86675
▁provocat	-9.86676
▁tête	-9.86678
▁ŋu	-9.86717
▁buuto	-9.86717
▁maison	-9.86738
mie	-9.86739
ass	-9.86755
▁mag	-9.86792
▁Alla	-9.86808
▁maladi	-9.86853
▁réussit	-9.86903
▁Tou	-9.86915
▁Fewn	-9.86941
▁dane	-9.86954
▁bens	-9.86961
▁étonne	-9.86966
▁vite	-9.8697
▁fatigue	-9.8698
rique	-9.86996
▁donné	-9.87074
▁uf	-9.87134
▁il	-9.87223
▁int	-9.87225
▁Par	-9.87227
approche	-9.87263
▁gite	-9.87329
▁nomme	-9.8735
▁tinndi	-9.87363
▁fixe	-9.87373
▁noya	-9.87378
▁bew	-9.87395
▁peera	-9.87429
▁kawt	-9.87449
▁lorr	-9.87477
▁pet	-9.8748
tondira	-9.87502
▁awm	-9.8752
unndu	-9.87523
bara	-9.87531
▁ɓill	-9.87563
avon	-9.87635
▁réfl	-9.87671
▁retourner	-9.87682
▁fusu	-9.87686
▁kaan	-9.877
▁cong	-9.87701
▁barme	-9.87709
▁yaari	-9.87735
▁mbaal	-9.87755
▁affront	-9.87769
▁jikk	-9.87824
▁janng	-9.87834
▁frère	-9.87861
▁dro	-9.87865
▁dire	-9.87882
▁étude	-9.87897
▁ramp	-9.87918
▁buru	-9.87921
▁dév	-9.87936
coiff	-9.87984
▁haac	-9.87993
▁ɗin	-9.88003
▁fesse	-9.88048
▁soup	-9.88053
▁njuu	-9.88055
▁ngel	-9.88069
▁say	-9.88072
▁Boo	-9.88081
qq	-9.88083
▁dogi	-9.88088
▁statu	-9.88109
▁folt	-9.88121
struct	-9.88122
▁jaɓɓ	-9.88152
▁Tout	-9.88164
▁coran	-9.88186
hib	-9.88201
▁meere	-9.8823
▁viol	-9.88284
▁soob	-9.88307
▁Con	-9.88311
▁pente	-9.88327
▁être	-9.88365
▁casser	-9.88387
▁hey	-9.88389
▁décim	-9.88424
ic	-9.88424
▁uuy	-9.88452
▁mentir	-9.88467
▁Baab	-9.8849
▁wayni	-9.88565
mac	-9.88617
▁dissi	-9.88636
kke	-9.88667
▁brosse	-9.88692
▁mowl	-9.88701
▁fool	-9.88737
▁daas	-9.8876
▁fon	-9.88771
▁peine	-9.88774
▁cuur	-9.88804
▁cra	-9.8881
▁trembl	-9.88894
▁immin	-9.88927
▁crava	-9.88995
▁sobri	-9.89022
lure	-9.89031
▁hoɗu	-9.89079
loir	-9.89136
▁politi	-9.89159
▁Madi	-9.89181
▁yawt	-9.89182
▁faaɗ	-9.89185
aɗira	-9.89202
tè	-9.89217
▁tromp	-9.8925
ebbin	-9.89273
▁ɗonɗaa	-9.89277
▁ewna	-9.89284
▁journ	-9.894
▁tige	-9.89402
▁nguy	-9.8941
▁patte	-9.89421
▁ɓokkit	-9.89435
▁darj	-9.89458
▁accroî	-9.89539
▁fodd	-9.89569
▁fewnit	-9.89588
▁régne	-9.89604
▁heɗ	-9.89656
▁rot	-9.89659
▁wifi	-9.8966
uumi	-9.89721
ins	-9.89797
▁nawl	-9.89812
▁ɗaw	-9.8982
anada	-9.89838
dii	-9.8988
▁appu	-9.89886
étend	-9.89921
▁kump	-9.89929
▁Au	-9.89985
pet	-9.90008
▁bande	-9.90024
▁yurmi	-9.9003
▁tén	-9.90034
▁rentr	-9.90088
▁pince	-9.9012
dhè	-9.90173
▁beel	-9.90187
▁gaucher	-9.90208
▁verb	-9.90243
haali	-9.90303
▁fijin	-9.90345
yn	-9.90358
amm	-9.90368
▁fiɓ	-9.90376
pè	-9.90383
▁film	-9.90392
▁boni	-9.90428
▁dépass	-9.90434
wɗ	-9.90437
▁voler	-9.90468
▁pottito	-9.905
▁duŋa	-9.90506
servi	-9.90507
▁kapit	-9.90507
▁kans	-9.90515
▁maap	-9.9052
▁Won	-9.90535
estim	-9.90565
▁Joo	-9.90705
▁grosse	-9.90719
▁feere	-9.90755
▁tuum	-9.90776
▁hirs	-9.90779
▁salmin	-9.90792
▁côte	-9.90796
▁ƴakki	-9.9086
tti	-9.90864
▁allon	-9.90887
▁fiju	-9.90922
▁roche	-9.90993
▁huit	-9.90997
▁jonnit	-9.91023
▁faute	-9.91049
▁muc	-9.91083
▁eɓɓindaa	-9.91092
▁coque	-9.91097
▁inimit	-9.91132
▁entrepr	-9.91137
affaiss	-9.91167
▁almana	-9.91216
▁commenc	-9.91222
▁Ben	-9.91275
▁walli	-9.91288
▁bâti	-9.91292
▁étroite	-9.91314
mporte	-9.91339
▁heew	-9.91358
▁toɗɗ	-9.91369
▁yuw	-9.91372
▁faami	-9.91403
▁tuu	-9.91416
▁que	-9.9148
daaru	-9.91502
Ɓale	-9.91543
▁jort	-9.91559
▁ittir	-9.91626
▁élé	-9.91635
ll	-9.9173
▁pér	-9.91753
▁futt	-9.91759
agu	-9.91831
▁hou	-9.9184
▁pus	-9.91847
▁imma	-9.9185
▁emme	-9.91851
▁avid	-9.91906
iini	-9.91985
▁turb	-9.91991
▁devin	-9.92002
kki	-9.92037
epte	-9.92041
▁sonk	-9.92089
argouill	-9.92193
▁docte	-9.92198
▁naa	-9.92255
nɗin	-9.92276
rdi	-9.923
eri	-9.92348
ub	-9.92373
▁ñaaw	-9.92402
quin	-9.92413
taire	-9.92456
▁tromper	-9.92475
▁fuut	-9.92485
lécha	-9.9258
▁ndii	-9.92601
▁coud	-9.92612
▁interce	-9.92627
▁cas	-9.92655
emport	-9.92703
avez	-9.92727
▁Ell	-9.92749
aksi	-9.92785
▁moi	-9.92791
▁ɓurnaa	-9.92794
▁conseil	-9.92795
▁dimmb	-9.92818
▁too	-9.92826
abi	-9.92862
▁Ou	-9.92862
▁hayl	-9.93022
▁sui	-9.93046
▁yenn	-9.93106
enouille	-9.93135
▁suɓ	-9.93136
▁ache	-9.93137
▁moque	-9.93159
▁huuru	-9.93198
emma	-9.93201
▁yarn	-9.9325
▁ass	-9.93315
▁formaa	-9.9339
▁cuk	-9.93431
▁Y	-9.93502
▁buus	-9.93514
iiji	-9.93534
▁luɓ	-9.93553
nduru	-9.93595
jaawo	-9.93599
▁mber	-9.93602
▁yahi	-9.93813
njaare	-9.93815
▁asc	-9.93843
▁kaas	-9.93852
▁montre	-9.9391
acca	-9.93911
▁file	-9.93935
cère	-9.93953
▁ɓuɓɓini	-9.93966
▁vers	-9.9399
▁hattir	-9.94029
ed	-9.94066
▁cikk	-9.94086
▁piyi	-9.94113
annda	-9.94142
▁thè	-9.9418
akal	-9.94182
tech	-9.94288
▁jam	-9.94327
▁sagg	-9.94339
▁buy	-9.94345
▁task	-9.9435
▁tué	-9.9439
▁répa	-9.94391
sex	-9.94496
ord	-9.94497
▁tati	-9.94574
eter	-9.94605
▁marm	-9.94626
▁sci	-9.94668
▁hur	-9.94674
nflamm	-9.9469
▁bukk	-9.94693
▁faɗ	-9.94709
▁vé	-9.94753
▁ter	-9.94778
▁rum	-9.9478
▁mani	-9.94796
▁xa	-9.94798
nnduru	-9.94826
▁comb	-9.94838
▁portra	-9.94892
▁hulɓini	-9.94904
▁Sal	-9.94913
▁soufflet	-9.94939
▁wonn	-9.94987
assit	-9.95004
▁ethn	-9.95006
▁sond	-9.95014
▁imit	-9.95044
▁jalo	-9.95148
stitu	-9.95169
▁susp	-9.95182
▁dees	-9.95186
▁ɗi	-9.95217
▁ƴe	-9.95297
▁jipp	-9.95306
▁ɗon	-9.95323
▁char	-9.9533
▁appela	-9.9535
▁dément	-9.95423
▁uni	-9.95484
uɓe	-9.95549
▁déj	-9.95553
▁tiime	-9.95562
êm	-9.95563
▁prov	-9.95575
ali	-9.95665
▁kaafa	-9.95775
▁déli	-9.95783
les	-9.95792
▁kib	-9.95823
▁yet	-9.95836
▁moquer	-9.95857
▁geɓ	-9.95906
▁daɗ	-9.9598
▁jawl	-9.95988
▁termit	-9.96126
▁suiv	-9.96142
▁charg	-9.9624
enc	-9.96313
▁adda	-9.96323
▁fonnd	-9.96354
▁cod	-9.96444
▁préfe	-9.96624
▁boite	-9.96651
▁hoor	-9.96687
▁sappa	-9.96846
▁ay	-9.96866
▁alma	-9.96888
▁perc	-9.96896
▁macc	-9.96935
▁kool	-9.96942
▁bela	-9.96954
maw	-9.9698
▁Cor	-9.97044
▁battan	-9.97055
▁copie	-9.97104
▁prier	-9.97126
▁cale	-9.97159
ygi	-9.97163
▁bunng	-9.97166
▁affect	-9.97179
▁lib	-9.97223
mment	-9.97354
ort	-9.97409
▁appel	-9.97452
▁aam	-9.97493
▁vide	-9.9751
▁taama	-9.97517
riz	-9.97523
inette	-9.97539
▁Golle	-9.97599
▁Mba	-9.97633
▁ɓol	-9.97687
visage	-9.97707
aanu	-9.97718
▁terre	-9.97776
▁ammbu	-9.97826
▁beere	-9.97849
nqué	-9.97877
▁doute	-9.9798
▁plac	-9.98022
▁nos	-9.98035
▁dull	-9.98068
▁koll	-9.98069
ppe	-9.98113
▁hetto	-9.98127
▁surpr	-9.98132
▁fewj	-9.98199
▁faati	-9.98205
▁aér	-9.98259
enta	-9.98289
▁lonta	-9.98302
nng	-9.98341
▁wonir	-9.98393
▁révis	-9.98433
sigar	-9.98602
dém	-9.98617
▁jalu	-9.98696
▁lunn	-9.9871
tonner	-9.98738
▁chap	-9.98757
eigne	-9.98783
▁hewti	-9.98799
▁consta	-9.98884
arrête	-9.98888
▁bonu	-9.98989
▁kankiran	-9.9899
▁marg	-9.99114
▁heure	-9.99172
▁brill	-9.99221
▁ardin	-9.99276
mémo	-9.9929
otaako	-9.99308
▁rac	-9.99351
▁mark	-9.99387
vern	-9.99391
▁boucher	-9.99531
▁pamp	-9.99553
▁fun	-9.99727
▁accit	-9.99746
▁donka	-9.99762
pucc	-9.99773
fondre	-9.99786
gle	-9.99795
eƴƴ	-9.99811
scri	-9.99866
▁nawn	-9.99906
▁pucc	-9.99937
▁dirigea	-9.99939
up	-9.99972
▁aata	-9.99997
rmante	-10.0004
▁kee	-10.0006
▁gii	-10.001
▁Nde	-10.001
▁surgi	-10.0022
▁tee	-10.0023
▁facilit	-10.0024
▁Goo	-10.0028
▁devr	-10.0031
▁foule	-10.0033
▁demmb	-10.0035
▁ardun	-10.0035
ew	-10.0036
▁toit	-10.0036
▁fewt	-10.0037
▁ard	-10.0039
▁mbar	-10.0055
▁kaal	-10.0055
▁gel	-10.0056
ailleur	-10.0063
Dane	-10.0069
▁crai	-10.0075
▁caak	-10.0077
araa	-10.0082
▁tradui	-10.0083
▁nor	-10.0085
▁tort	-10.009
▁lannd	-10.009
ommbit	-10.0091
uu	-10.0094
▁hare	-10.0097
▁grill	-10.0108
ordonn	-10.0109
▁murt	-10.0111
▁saisi	-10.0113
▁raccom	-10.0132
▁ɓeydaa	-10.0132
▁filli	-10.0133
▁Ger	-10.0135
▁hé	-10.0141
▁ɓaar	-10.0144
ducteur	-10.016
▁Baas	-10.0161
ûte	-10.0161
ménage	-10.0167
▁binnd	-10.0174
rotte	-10.0175
▁noo	-10.0175
oles	-10.0178
▁tiss	-10.0182
▁neema	-10.0184
gagner	-10.0185
▁sangl	-10.0192
▁bili	-10.0199
▁surv	-10.0211
erci	-10.0213
▁wure	-10.0219
▁hon	-10.022
▁éga	-10.0224
arde	-10.0227
▁bouilli	-10.0233
cca	-10.0233
▁alk	-10.0236
▁gon	-10.0236
▁défi	-10.024
▁ada	-10.0244
▁faible	-10.0248
haine	-10.025
wee	-10.0252
▁okk	-10.0254
▁weln	-10.0255
▁leet	-10.026
▁awƴi	-10.0273
ray	-10.0275
▁gennd	-10.0293
alle	-10.0296
▁quatr	-10.0296
ssage	-10.0297
▁teeme	-10.0303
▁ouvri	-10.0305
▁traduct	-10.0312
▁retourn	-10.0314
▁meurtr	-10.0317
▁aa	-10.0319
jad	-10.0325
avoure	-10.0326
ûre	-10.0331
ott	-10.0332
▁comprend	-10.0332
dha	-10.0345
ç	-10.0348
▁bobin	-10.0349
spoor	-10.0349
▁Cel	-10.0354
em	-10.0354
▁addi	-10.0354
▁waɗɗ	-10.0355
ist	-10.036
kaaku	-10.0362
▁ber	-10.0363
▁haale	-10.0366
▁mbat	-10.0371
▁fuɗ	-10.0378
▁presse	-10.0384
▁hoyte	-10.0392
▁golli	-10.0396
▁ñil	-10.0398
▁daraa	-10.0406
▁déci	-10.0409
cre	-10.0411
▁danndi	-10.0412
▁ɓoor	-10.0414
▁seer	-10.042
▁semi	-10.042
▁Am	-10.0421
▁jala	-10.0427
▁liɓ	-10.0431
▁Nee	-10.0431
▁dill	-10.0432
stre	-10.0437
▁doi	-10.0441
▁ficel	-10.0442
▁écou	-10.0446
▁op	-10.0451
▁résu	-10.0458
▁traite	-10.0459
ado	-10.0462
▁waas	-10.0464
ottoo	-10.0464
▁mbu	-10.0473
▁bad	-10.0475
circonci	-10.0475
okk	-10.048
▁résid	-10.0481
▁cuiss	-10.0489
▁faɗɗe	-10.0491
▁grave	-10.0496
▁causer	-10.0496
▁maigre	-10.0497
▁concert	-10.0506
▁Li	-10.0532
ammba	-10.055
▁Ng	-10.0552
▁maay	-10.0556
▁test	-10.056
emmbe	-10.0564
▁sun	-10.0565
nom	-10.0566
▁commis	-10.0569
orko	-10.0578
▁jonbindire	-10.058
▁ndi	-10.0585
▁ƴo	-10.0585
▁pru	-10.0586
▁ɗoft	-10.0591
awtindir	-10.0594
anaa	-10.0596
▁sage	-10.0599
▁ñaa	-10.0606
rge	-10.0607
opper	-10.0609
gi	-10.0621
▁soir	-10.0624
▁ɗimmita	-10.0636
▁soin	-10.0641
anger	-10.0642
▁fait	-10.0652
cours	-10.0659
phè	-10.066
▁fecce	-10.0664
oofe	-10.0666
▁hakk	-10.0668
▁pud	-10.0668
▁wii	-10.0669
▁aimer	-10.0669
seau	-10.0672
▁waɗi	-10.0672
aani	-10.0674
▁bara	-10.0686
▁nannd	-10.0687
▁fonta	-10.0691
▁yiil	-10.0696
▁hutt	-10.07
▁rég	-10.0714
llaa	-10.0714
kti	-10.0721
▁kir	-10.0725
▁bannd	-10.0731
▁Tun	-10.0737
étai	-10.074
itor	-10.0743
▁échar	-10.076
illon	-10.076
▁dél	-10.0764
▁misk	-10.0764
▁Baa	-10.0768
▁plai	-10.077
▁tena	-10.0771
▁yewte	-10.0775
▁ensorcel	-10.0783
▁dispo	-10.0788
▁muul	-10.079
▁petite	-10.0791
▁rect	-10.0795
tiwe	-10.0798
ordina	-10.0801
▁nombr	-10.0801
▁religi	-10.0803
bine	-10.0806
▁ban	-10.082
▁jeunes	-10.082
▁différe	-10.0825
▁fré	-10.0829
▁atte	-10.0843
iray	-10.0845
▁extr	-10.0848
ordi	-10.0853
turu	-10.0854
fourche	-10.0863
itre	-10.0865
▁conte	-10.087
aadi	-10.0872
▁parade	-10.0885
▁minu	-10.0898
▁gir	-10.0901
▁éch	-10.0902
▁watt	-10.0902
tag	-10.0905
▁hollit	-10.0906
▁gos	-10.0914
▁yah	-10.0916
ouleve	-10.0928
▁woɗ	-10.0931
▁tem	-10.0931
▁taille	-10.0936
isi	-10.0941
▁serpe	-10.0946
ju	-10.0951
▁duus	-10.0955
ouette	-10.0957
▁reconnai	-10.096
▁prono	-10.0971
ollir	-10.0971
géni	-10.0978
usu	-10.098
▁moƴƴint	-10.0983
alel	-10.0984
lâche	-10.0986
oɗin	-10.0988
▁yaaru	-10.0996
▁conce	-10.1001
▁groupe	-10.1001
ousse	-10.101
añan	-10.1012
▁écl	-10.1014
▁fuɗɗ	-10.1016
th	-10.1017
▁ɗuwa	-10.1018
▁sec	-10.1023
▁kek	-10.1024
▁mol	-10.1024
▁recule	-10.1028
▁plant	-10.1038
ewii	-10.104
▁dress	-10.1043
▁ngen	-10.1044
▁hiil	-10.1051
▁compte	-10.1051
aduna	-10.1053
nk	-10.1065
▁attrape	-10.1065
▁juut	-10.1068
iman	-10.1069
▁épa	-10.1074
▁aut	-10.1078
▁kaat	-10.1079
roba	-10.1086
▁fott	-10.1086
▁aala	-10.1089
moni	-10.109
▁perdre	-10.1094
perat	-10.1096
▁pik	-10.1103
▁ndaaro	-10.1107
▁loue	-10.111
mon	-10.1111
▁hoyn	-10.1116
▁hari	-10.1121
elet	-10.1124
▁woni	-10.1132
▁remue	-10.1133
▁ég	-10.1136
▁wallita	-10.1136
▁sum	-10.1139
▁tuug	-10.114
▁diss	-10.1143
ombre	-10.1144
▁sta	-10.1144
▁fiche	-10.1146
ndan	-10.1147
▁waliyaa	-10.1151
▁consu	-10.1162
▁voile	-10.1164
▁mul	-10.1169
▁seeki	-10.1174
oule	-10.1175
▁raconte	-10.1182
▁capp	-10.1186
icul	-10.1198
rigue	-10.121
▁rapporte	-10.1213
▁st	-10.1213
▁partie	-10.1216
alon	-10.1219
ncelle	-10.1224
grin	-10.1224
▁cours	-10.1225
ukun	-10.1233
▁fubba	-10.1236
▁cukku	-10.1242
▁sikka	-10.1244
▁proc	-10.1254
▁mour	-10.1256
▁verg	-10.1268
yna	-10.1272
▁coutur	-10.1277
▁gasi	-10.1279
▁ukk	-10.1282
arñit	-10.1291
atal	-10.1296
oora	-10.1297
ièv	-10.1299
▁prend	-10.1299
▁rima	-10.1304
▁oublie	-10.1307
omp	-10.1327
▁fuɗɗa	-10.1328
ira	-10.1332
▁wayl	-10.1334
▁repro	-10.1341
▁fille	-10.1341
▁abandonne	-10.1342
▁card	-10.135
céd	-10.1352
▁paɗa	-10.1359
bun	-10.1365
▁soud	-10.1383
▁winnda	-10.1386
chev	-10.1389
▁abond	-10.139
▁haan	-10.1392
otoond	-10.1408
néant	-10.1428
fal	-10.1437
▁sold	-10.1439
▁reen	-10.1446
▁ɓorno	-10.1447
écéd	-10.145
▁jee	-10.1458
▁nguu	-10.146
usé	-10.146
▁paasu	-10.147
lace	-10.1472
▁ees	-10.1482
▁écorce	-10.1485
anki	-10.1497
▁vér	-10.1512
▁caden	-10.1512
▁résist	-10.1514
▁partir	-10.1527
iver	-10.1534
▁leur	-10.1545
station	-10.1549
▁tentati	-10.1553
▁toraa	-10.1558
▁quitte	-10.1561
van	-10.1564
▁pomm	-10.1564
biroo	-10.1566
▁roy	-10.1568
▁taak	-10.1585
▁dj	-10.159
▁cer	-10.1593
▁trouve	-10.1594
oler	-10.1607
▁homo	-10.1611
▁cik	-10.1612
kop	-10.1612
aaki	-10.1619
▁fadd	-10.1622
▁faggi	-10.1622
ino	-10.1636
▁monnd	-10.1636
▁rein	-10.1636
▁Pu	-10.1636
▁arugol	-10.1638
frein	-10.1639
▁fayi	-10.1641
▁fro	-10.1644
uroo	-10.1645
▁pâ	-10.1646
▁cuisine	-10.1651
globe	-10.1653
▁rugi	-10.1653
▁vant	-10.1656
▁ayr	-10.1658
▁réclame	-10.1664
ammbe	-10.1664
▁hatta	-10.1665
▁observe	-10.1665
▁méprise	-10.1665
▁prépare	-10.1669
▁lonto	-10.1677
▁démar	-10.1678
▁duku	-10.1679
▁cin	-10.168
▁devan	-10.1682
▁supporte	-10.1686
▁cil	-10.1697
tation	-10.1699
zon	-10.1702
▁laisse	-10.1708
rit	-10.1711
▁récompense	-10.1712
aɗo	-10.1722
▁yeru	-10.1727
gidi	-10.1729
▁woote	-10.173
attan	-10.1734
▁fayt	-10.1737
▁suffi	-10.174
ayku	-10.1741
▁njo	-10.1744
▁récompens	-10.1745
▁sy	-10.1749
▁waaji	-10.176
mper	-10.1764
▁support	-10.1772
oƴƴ	-10.1773
▁importan	-10.1783
▁mépris	-10.1789
▁observ	-10.179
▁réclam	-10.1791
▁dem	-10.1804
▁bris	-10.1806
▁cuisin	-10.1808
▁udda	-10.181
▁Maam	-10.1812
▁prépar	-10.1812
▁empi	-10.1817
▁bouillon	-10.1827
▁ɓas	-10.1829
kka	-10.1831
▁accorde	-10.1842
îme	-10.1843
▁immit	-10.1843
▁pop	-10.1848
▁ngal	-10.1857
untu	-10.1862
▁dogud	-10.1863
▁revend	-10.1869
ssie	-10.1879
▁vis	-10.1888
inda	-10.1892
▁jokku	-10.1893
▁lasi	-10.1898
atoire	-10.1902
▁agil	-10.1904
▁dala	-10.191
▁annonc	-10.1914
▁merc	-10.1916
ult	-10.1919
im	-10.1938
▁poc	-10.1939
cep	-10.194
ano	-10.1944
▁envie	-10.195
râc	-10.1962
▁loo	-10.1969
élici	-10.1977
▁hoytu	-10.1984
▁annonce	-10.1984
▁meete	-10.1989
bee	-10.1995
ranke	-10.1997
▁mai	-10.1997
illo	-10.2023
sii	-10.2026
▁wiiwa	-10.2028
▁ɓuutu	-10.2032
oŋr	-10.2035
▁tafa	-10.2037
▁retourne	-10.2038
▁ref	-10.2039
▁coda	-10.2045
▁ɓurɗ	-10.205
lii	-10.2051
oro	-10.2051
▁rewr	-10.2056
kal	-10.2073
pille	-10.2085
nndoo	-10.2085
ƴi	-10.2087
lou	-10.2091
ɗɗii	-10.2093
ibbu	-10.2093
▁rédui	-10.2105
▁diis	-10.211
▁gee	-10.2113
ié	-10.2123
▁waan	-10.213
naie	-10.2131
kku	-10.214
adan	-10.2143
▁jippo	-10.2147
orɗi	-10.2148
▁danse	-10.2153
▁abondan	-10.2156
▁lè	-10.216
▁athé	-10.2166
▁assistan	-10.2167
bl	-10.2167
▁wart	-10.2172
▁avo	-10.2179
▁ɓuut	-10.2183
adis	-10.2192
▁scie	-10.2195
▁serr	-10.2197
▁erre	-10.221
ɓɓe	-10.2219
▁faltaa	-10.2228
▁glob	-10.223
▁aali	-10.2235
soowo	-10.2238
kiri	-10.2238
▁waawi	-10.2244
sité	-10.2259
▁nann	-10.2281
▁quitt	-10.2301
▁trouv	-10.2304
wl	-10.2305
▁rest	-10.2313
rêt	-10.2324
▁abso	-10.2327
▁fah	-10.2333
▁adieu	-10.2335
▁marin	-10.235
aliba	-10.2352
▁jaaw	-10.2353
rdu	-10.2369
▁Annd	-10.2369
ét	-10.2376
rine	-10.2377
▁comme	-10.2377
▁mer	-10.2388
ooɗo	-10.2394
▁piét	-10.2413
▁Mam	-10.244
jju	-10.2441
▁taf	-10.2452
▁terr	-10.2453
égr	-10.2459
nndik	-10.246
acoch	-10.2461
▁tro	-10.2467
▁hiis	-10.247
fixe	-10.2478
arme	-10.2486
▁ɗuw	-10.2488
▁pan	-10.2489
▁boul	-10.249
▁voit	-10.2498
▁régu	-10.2511
▁rejo	-10.2513
▁group	-10.2513
▁pense	-10.252
▁waliy	-10.2523
▁batte	-10.2526
ayko	-10.2527
▁ɓurni	-10.2528
▁cert	-10.2529
puru	-10.2529
▁conv	-10.2537
▁cult	-10.2538
▁extrai	-10.2546
oquer	-10.255
▁diiw	-10.2552
▁Man	-10.2557
iinde	-10.2562
▁douce	-10.2567
▁ail	-10.2572
▁yuɓɓi	-10.2574
▁gaar	-10.2574
▁résista	-10.2584
▁dog	-10.2586
▁suus	-10.2593
uɗɗ	-10.2598
▁ballo	-10.2603
▁connaisse	-10.2604
▁absen	-10.2605
▁march	-10.261
▁import	-10.2613
▁ont	-10.2617
▁cuir	-10.2622
hol	-10.2644
▁gui	-10.2651
nguli	-10.2653
▁véri	-10.2656
▁lak	-10.2656
▁main	-10.2657
▁mord	-10.2659
lors	-10.2659
▁kole	-10.2665
▁perdr	-10.2668
▁encl	-10.2679
cide	-10.268
▁affi	-10.268
▁certain	-10.2682
ouche	-10.2686
▁mâ	-10.2689
▁Ee	-10.269
▁sikk	-10.2694
▁saaf	-10.2694
lanaa	-10.2696
▁grat	-10.27
▁Se	-10.2704
unndul	-10.2713
▁bave	-10.2722
▁accord	-10.2722
▁scin	-10.2726
▁aud	-10.2735
▁motto	-10.2737
▁teen	-10.2738
▁tilfa	-10.2739
oût	-10.274
ouissan	-10.274
▁religieu	-10.2743
nora	-10.2755
▁édu	-10.276
▁centr	-10.2762
illis	-10.2762
ayer	-10.2763
llis	-10.2764
▁dii	-10.277
▁cho	-10.2784
▁déchire	-10.2788
ris	-10.2788
▁nombre	-10.2807
uvre	-10.2807
sorceller	-10.2811
manche	-10.2814
▁Mes	-10.2815
▁wad	-10.2824
▁brigande	-10.2826
▁vole	-10.2828
▁cuu	-10.283
table	-10.2837
gg	-10.2838
▁rama	-10.2845
▁rédu	-10.2846
udrai	-10.2849
aisse	-10.285
▁ava	-10.2851
▁laak	-10.2856
▁terra	-10.2861
larg	-10.2862
▁piro	-10.2875
accu	-10.2876
ible	-10.2893
▁fant	-10.2899
▁reste	-10.291
▁dah	-10.2911
▁cokk	-10.2924
ood	-10.2924
▁reveille	-10.2925
▁jeune	-10.2925
▁fuir	-10.2928
nn	-10.2932
▁out	-10.2936
▁debe	-10.2939
▁watta	-10.2942
▁pottita	-10.2942
eñ	-10.2943
igiyaa	-10.2943
▁ɗimmit	-10.2944
▁faay	-10.2946
▁muulu	-10.2947
▁seule	-10.2953
▁abb	-10.2953
eedi	-10.2955
▁vote	-10.2965
iété	-10.297
▁faat	-10.2982
▁miija	-10.3
▁pomp	-10.3002
▁écorc	-10.3006
ah	-10.301
▁ɗofta	-10.3012
▁jonbindir	-10.3015
▁Ɓe	-10.3017
▁sinca	-10.3027
lais	-10.3042
▁eki	-10.3044
▁joor	-10.3047
▁jaan	-10.3052
dition	-10.307
▁chass	-10.3075
▁waylu	-10.3078
▁écarte	-10.3084
▁yiila	-10.3096
▁bil	-10.3098
eŋ	-10.3098
▁tul	-10.3104
▁immi	-10.3106
éduque	-10.3106
iiƴ	-10.3107
unngu	-10.3109
▁rebou	-10.3112
▁henta	-10.3115
▁ride	-10.3117
▁cess	-10.3118
▁semai	-10.3125
▁mau	-10.3125
▁maigr	-10.3128
▁déma	-10.3138
tudi	-10.3143
▁pilo	-10.3149
▁civ	-10.3156
hausse	-10.3159
heur	-10.316
ñore	-10.316
▁fot	-10.3166
▁ɓir	-10.3174
▁dressa	-10.3177
▁mang	-10.3187
dho	-10.319
yɗo	-10.3191
aakan	-10.3202
eillé	-10.3209
▁tele	-10.3214
▁Fa	-10.3217
▁mette	-10.3219
▁cont	-10.3222
tor	-10.3228
▁arrive	-10.3228
▁ñannd	-10.3244
épu	-10.3252
▁add	-10.3254
▁tool	-10.3271
▁ros	-10.3271
▁liit	-10.328
▁trei	-10.3282
▁hollita	-10.3292
▁dans	-10.3307
yngu	-10.3316
tes	-10.3326
▁Mi	-10.3329
▁incis	-10.3333
▁gest	-10.3352
▁extra	-10.3363
ttes	-10.3365
▁tiw	-10.3369
▁ouvr	-10.3371
ap	-10.3374
eero	-10.3377
ison	-10.3378
▁épo	-10.3387
▁barre	-10.3391
▁ess	-10.3391
▁rép	-10.3399
É	-10.3402
▁meurtri	-10.3403
q	-10.3406
▁jop	-10.342
evant	-10.3425
ligne	-10.3431
nnji	-10.3442
arden	-10.3459
ippu	-10.346
▁annde	-10.3461
▁rési	-10.3479
▁rela	-10.348
avan	-10.3482
▁teem	-10.3495
doy	-10.3504
iji	-10.3507
▁ker	-10.3509
▁plante	-10.351
fulawa	-10.3514
rme	-10.3514
lume	-10.3515
aum	-10.3517
▁matur	-10.3526
▁rond	-10.3536
▁acco	-10.354
parler	-10.3542
▁lame	-10.3546
▁piqu	-10.3557
▁Dia	-10.3561
ism	-10.3575
▁ménag	-10.3582
atii	-10.3592
▁jang	-10.3613
▁tasse	-10.362
▁mange	-10.3628
▁ɓale	-10.3628
gere	-10.3639
▁ndee	-10.3643
▁selle	-10.3645
meere	-10.3646
telle	-10.365
appr	-10.3652
▁Ya	-10.3659
▁assist	-10.3661
maaji	-10.3684
▁bat	-10.3686
wje	-10.3694
▁maayu	-10.3696
▁courbe	-10.3712
onto	-10.3714
▁prédic	-10.3717
▁senti	-10.3726
bol	-10.3728
▁Ja	-10.3732
▁réf	-10.3737
▁nawna	-10.3741
oɓa	-10.3742
▁demande	-10.3758
gara	-10.376
▁ɓunn	-10.3763
pital	-10.3763
▁reprodu	-10.3765
▁rose	-10.3776
▁ŋo	-10.3778
▁facil	-10.378
▁brûle	-10.3785
▁All	-10.3792
nci	-10.3793
poor	-10.3799
▁eti	-10.3805
▁passe	-10.3807
▁Haa	-10.3812
▁immita	-10.3812
▁jaɓi	-10.3815
▁dart	-10.3825
▁dirige	-10.3836
baana	-10.3837
duru	-10.3853
▁respecte	-10.3855
▁tente	-10.3856
▁rent	-10.3865
▁biro	-10.3877
▁tourmente	-10.3879
▁loll	-10.3881
▁transporte	-10.3884
▁papa	-10.3889
talgi	-10.3901
▁Naa	-10.392
ndoo	-10.3924
▁coutu	-10.3924
▁waraa	-10.3926
abou	-10.3928
▁conn	-10.3928
▁couche	-10.3934
▁jaɓaa	-10.3934
iranhun	-10.394
▁enɗ	-10.3947
▁sais	-10.3947
▁laiss	-10.395
▁jinnaa	-10.395
▁esco	-10.3962
▁compri	-10.3969
anda	-10.3969
ŋur	-10.397
▁haute	-10.3977
▁hara	-10.4013
▁seeku	-10.4013
ple	-10.402
▁hori	-10.4027
jal	-10.4029
rgh	-10.403
iber	-10.4039
▁mee	-10.404
▁pousse	-10.4044
▁tonne	-10.4062
▁dévot	-10.4069
sar	-10.407
▁hawr	-10.4087
▁yaa	-10.4106
▁pleure	-10.4109
men	-10.4112
▁cof	-10.4112
▁concer	-10.4128
▁cass	-10.4129
hors	-10.413
giyaa	-10.4135
▁mbayla	-10.4136
▁baga	-10.4138
usse	-10.4141
▁rad	-10.4143
▁cis	-10.4144
jam	-10.4144
alaa	-10.4151
▁sert	-10.4153
▁incisi	-10.416
▁dannda	-10.4162
limité	-10.4165
anii	-10.4172
oŋo	-10.4174
Ét	-10.4219
wdi	-10.4219
accour	-10.422
ɓol	-10.4229
▁hiwro	-10.4229
iwre	-10.4235
▁entret	-10.4236
mais	-10.4243
rouill	-10.4247
vision	-10.4247
fit	-10.4258
verse	-10.426
▁arda	-10.426
énom	-10.4271
▁boss	-10.4274
nnd	-10.4284
evoir	-10.4284
▁nani	-10.4291
vage	-10.4291
▁étai	-10.4292
tino	-10.4297
▁fatu	-10.4306
adou	-10.4317
ab	-10.433
tati	-10.4332
▁lii	-10.4335
▁Quan	-10.4346
▁takku	-10.4347
▁chape	-10.435
ɓita	-10.4355
ron	-10.4364
▁jaa	-10.4369
mple	-10.4384
▁kaar	-10.4389
▁préf	-10.4393
▁gai	-10.4394
▁esc	-10.4397
▁kami	-10.4407
issure	-10.4407
iè	-10.4408
▁wif	-10.442
▁feccu	-10.4425
▁at	-10.4434
elen	-10.4441
▁Sara	-10.4447
rée	-10.445
arriva	-10.4454
▁holle	-10.4468
▁waad	-10.4472
▁vil	-10.4476
effor	-10.4485
▁falta	-10.449
eydi	-10.4501
▁horm	-10.4501
eru	-10.4502
▁plus	-10.4516
▁tiim	-10.4516
▁sig	-10.4518
▁effro	-10.454
▁passi	-10.4545
licite	-10.4545
euil	-10.4548
▁yahu	-10.4549
▁produi	-10.4556
▁penn	-10.4572
imé	-10.4579
ɗondir	-10.4587
▁hayku	-10.459
▁Dir	-10.4592
▁feete	-10.4592
▁distri	-10.4595
ɓott	-10.4597
▁bâ	-10.4598
▁eth	-10.4605
▁pers	-10.461
▁pile	-10.4613
cteur	-10.4619
rand	-10.4624
▁serp	-10.4635
▁incapa	-10.4664
▁Hu	-10.4672
▁faanda	-10.4685
muru	-10.4688
▁jinna	-10.47
ura	-10.4703
gii	-10.4708
▁ɓooyu	-10.4713
▁cami	-10.4714
▁amu	-10.4721
▁janta	-10.4725
velo	-10.4727
▁kaaf	-10.4743
▁ɓuɓɓin	-10.475
▁sowu	-10.4754
vo	-10.4763
▁péche	-10.4768
▁cach	-10.4771
elo	-10.4772
adj	-10.478
▁ɓalee	-10.4781
▁ayna	-10.4798
▁dir	-10.4819
otte	-10.482
itoo	-10.4839
enndiraa	-10.4848
▁ɓuro	-10.4852
▁autoc	-10.4853
uk	-10.4856
▁ŋa	-10.4875
ddii	-10.4881
▁consen	-10.4882
▁gagn	-10.4882
▁lutte	-10.4891
our	-10.4896
▁yana	-10.4897
▁yilto	-10.4915
▁yel	-10.4918
annga	-10.4932
▁ress	-10.4936
▁grav	-10.4952
▁ɓantu	-10.4959
rd	-10.4969
trait	-10.4976
▁bann	-10.4978
▁hatti	-10.4979
avant	-10.4985
▁ast	-10.4988
urre	-10.4991
ains	-10.4993
▁cola	-10.5
ñal	-10.5002
norme	-10.5002
ujj	-10.5003
▁mood	-10.5016
▁progr	-10.5018
▁ñaawoo	-10.502
▁ekkita	-10.502
ulfu	-10.5024
Éte	-10.5025
▁awr	-10.503
▁donk	-10.5036
▁baal	-10.5037
▁indige	-10.5051
▁fula	-10.5053
aŋ	-10.5053
▁eggu	-10.5062
bdo	-10.5062
▁soi	-10.5062
▁pha	-10.507
enser	-10.5072
arriver	-10.5072
▁caa	-10.5075
▁ascen	-10.5075
▁sembl	-10.5077
▁seede	-10.5077
kora	-10.508
▁walla	-10.5086
▁laaw	-10.5093
▁tedd	-10.5097
▁laf	-10.5099
▁Moo	-10.5101
▁éco	-10.5125
harma	-10.5126
eeɗ	-10.5133
ndou	-10.5137
▁cerg	-10.5142
perce	-10.5142
▁Ndu	-10.5143
▁firtu	-10.5147
étie	-10.5149
▁tel	-10.5158
▁malh	-10.5163
rnde	-10.5163
▁fodo	-10.5169
▁étroit	-10.5175
▁Fan	-10.5175
î	-10.5177
▁cô	-10.5177
arba	-10.5178
▁faggu	-10.5179
vée	-10.5184
▁ɓurn	-10.5192
uura	-10.5194
ajou	-10.5197
▁guide	-10.5202
rtère	-10.5203
▁ané	-10.5214
▁las	-10.522
▁yu	-10.522
rait	-10.5223
abada	-10.5223
ussi	-10.5224
▁eɓɓinda	-10.5224
▁quat	-10.5224
▁yejjiti	-10.5226
rveille	-10.5228
▁jum	-10.523
▁ento	-10.523
▁Ro	-10.5248
oñi	-10.5251
▁meet	-10.5257
▁donn	-10.5265
▁rewa	-10.5275
▁ardu	-10.5278
▁prom	-10.5285
rgule	-10.5288
élé	-10.5296
▁traitr	-10.5298
yi	-10.5306
ouill	-10.5307
rder	-10.5315
▁suna	-10.5316
orta	-10.5322
▁ras	-10.5323
igno	-10.5331
▁muu	-10.5333
▁cana	-10.5336
▁mouv	-10.5338
▁cheveu	-10.5342
▁couvr	-10.5348
welo	-10.535
elles	-10.5353
lis	-10.5361
nger	-10.5362
gondir	-10.5364
nég	-10.5378
erpill	-10.5383
dama	-10.5385
▁wullu	-10.5392
pressi	-10.5404
▁dot	-10.5404
genou	-10.5404
▁gauche	-10.5424
▁boule	-10.5426
▁yaltu	-10.5426
luch	-10.5426
▁all	-10.5433
▁wulu	-10.5439
▁salmina	-10.5445
▁Fi	-10.5445
flamme	-10.5461
aran	-10.5463
suye	-10.5463
acte	-10.5476
habite	-10.5479
len	-10.5498
▁gross	-10.5509
ors	-10.5521
▁év	-10.5523
▁ñann	-10.5525
▁salaa	-10.553
aɗɗu	-10.5536
▁W	-10.5536
ulot	-10.5537
▁tapi	-10.5541
▁pla	-10.5542
▁faut	-10.5567
▁cann	-10.5581
▁ƴi	-10.5583
mere	-10.5598
anche	-10.5598
▁waawa	-10.5606
▁giɗ	-10.5607
araama	-10.5617
▁ƴakk	-10.5622
onnée	-10.5624
horre	-10.5625
▁crav	-10.5627
▁kanu	-10.5636
▁baaru	-10.5637
▁ɓin	-10.5645
fle	-10.5647
▁yurm	-10.566
▁honnu	-10.5663
▁abo	-10.5667
▁fewni	-10.5669
▁sep	-10.567
êt	-10.5678
erno	-10.5683
hée	-10.5687
lution	-10.5701
▁tordr	-10.5714
▁linc	-10.5716
ef	-10.5723
▁sala	-10.5732
▁ittu	-10.5733
car	-10.5739
etere	-10.574
kkan	-10.5742
awo	-10.5769
▁sir	-10.5773
▁paa	-10.5776
yii	-10.5776
▁Pay	-10.578
sive	-10.578
▁garde	-10.5783
va	-10.5793
mit	-10.5797
pproche	-10.5799
ɓɓi	-10.5803
rayon	-10.5805
▁jonni	-10.5816
écha	-10.5817
▁winndu	-10.5818
mbar	-10.5819
pal	-10.5823
oran	-10.5828
maamu	-10.5829
amu	-10.5835
▁naw	-10.5836
amar	-10.5844
▁Je	-10.5853
eeɗu	-10.5855
▁hel	-10.5865
▁tawti	-10.5866
▁adi	-10.5873
iche	-10.5876
▁bora	-10.588
entre	-10.5881
▁kora	-10.5889
amper	-10.5895
uris	-10.5909
pérati	-10.5919
▁souffran	-10.5925
▁sorte	-10.5925
▁donne	-10.5936
▁dens	-10.5942
▁haq	-10.5944
▁To	-10.5949
▁u	-10.5955
ing	-10.5957
▁kis	-10.5958
▁reco	-10.5958
▁fatigu	-10.5989
hy	-10.5997
▁pli	-10.6007
▁boug	-10.6008
vis	-10.601
▁jaam	-10.6011
ssou	-10.6026
kita	-10.6026
▁lig	-10.6029
▁rav	-10.6039
▁cire	-10.604
▁enduran	-10.6043
▁alaa	-10.6044
▁deft	-10.6045
ate	-10.6058
ient	-10.606
▁tinnd	-10.6061
▁bouche	-10.6064
▁gere	-10.6066
verne	-10.6069
▁surt	-10.6075
bili	-10.6077
oli	-10.6082
▁murta	-10.6083
nɗi	-10.6084
ilan	-10.6085
▁hayr	-10.6091
tant	-10.6116
mmbaa	-10.6119
got	-10.6131
▁ew	-10.6133
▁mine	-10.6138
meur	-10.6148
▁ɗonɗ	-10.6157
ardi	-10.6161
▁renta	-10.6167
▁tran	-10.6182
▁jim	-10.6194
agner	-10.6195
nter	-10.6204
trie	-10.6205
aabe	-10.6209
ans	-10.621
chant	-10.6211
▁ɗaɓɓi	-10.6211
aɗa	-10.6212
▁Cet	-10.622
▁cheve	-10.6231
▁dig	-10.6231
▁his	-10.6238
▁kulu	-10.6244
nto	-10.6247
nc	-10.6248
▁mawnd	-10.6251
▁déco	-10.6252
▁ardi	-10.6257
▁Fr	-10.6264
voi	-10.6267
▁colli	-10.6277
▁kili	-10.6281
wndu	-10.6284
▁amb	-10.6287
▁gramm	-10.6291
Bal	-10.6297
nivers	-10.63
charge	-10.63
omprends	-10.6305
ib	-10.6309
▁quel	-10.633
▁lett	-10.6332
yla	-10.6337
▁gend	-10.6338
ecte	-10.6361
▁raf	-10.6362
éro	-10.6366
▁dañu	-10.6366
aranke	-10.6368
▁acca	-10.6374
▁bic	-10.6377
▁ɗum	-10.6384
▁yunngo	-10.6392
▁impé	-10.6396
▁entrev	-10.6401
▁lime	-10.6404
▁Ɗa	-10.6409
gar	-10.6411
▁moustiqu	-10.6414
▁quelqu	-10.6416
▁basa	-10.6421
▁personn	-10.6421
ggit	-10.6424
▁ray	-10.6425
oul	-10.6426
▁capric	-10.6431
▁interv	-10.6435
▁adult	-10.6436
kkun	-10.6446
▁déscendan	-10.6446
arugol	-10.645
▁gargo	-10.6453
mmbit	-10.6454
▁div	-10.6457
▁Na	-10.6464
▁langu	-10.6464
H	-10.6473
aimerai	-10.6477
hoye	-10.6485
▁verse	-10.6485
▁civi	-10.6488
harpe	-10.6491
truc	-10.6492
moi	-10.6495
▁annd	-10.6496
▁arch	-10.6497
lise	-10.65
▁bêt	-10.6502
▁compagn	-10.6512
▁junngo	-10.6515
▁yamir	-10.6516
▁hollu	-10.6536
▁bee	-10.6542
▁galle	-10.6545
iyaak	-10.6546
▁fort	-10.6551
kammb	-10.6551
▁ross	-10.6564
▁têt	-10.6569
▁text	-10.657
wndo	-10.6571
▁convoi	-10.6587
▁mangu	-10.6592
▁fiɗ	-10.6605
luut	-10.6606
uuj	-10.6607
▁lit	-10.6609
quel	-10.6612
▁mid	-10.6612
brouss	-10.6614
nngal	-10.6625
domin	-10.6628
▁feuill	-10.6641
▁ɗay	-10.6651
▁yiin	-10.6653
▁ran	-10.6654
▁national	-10.6659
mine	-10.6662
▁écha	-10.6667
lde	-10.6671
îte	-10.6674
▁ŋat	-10.6674
igne	-10.6678
yaakee	-10.668
▁voil	-10.6695
▁Ah	-10.6697
▁ém	-10.6717
ider	-10.6718
thè	-10.6724
▁cir	-10.6726
▁oog	-10.6727
cit	-10.6731
▁tét	-10.6731
sol	-10.6732
nngo	-10.6737
awna	-10.6742
▁ɓuɓinti	-10.6743
▁accomp	-10.6752
▁yew	-10.6754
▁aide	-10.6755
▁wag	-10.6757
kinii	-10.6767
stique	-10.6783
Toute	-10.6783
▁plaisant	-10.6785
dît	-10.6796
elnir	-10.6809
▁poor	-10.6822
argent	-10.6827
▁biski	-10.6828
▁ges	-10.6831
▁taƴe	-10.6847
▁Alle	-10.6853
▁utili	-10.6856
▁fenn	-10.6857
ffe	-10.6858
aqu	-10.6868
biscu	-10.6878
ɓunde	-10.6878
▁way	-10.6881
oud	-10.6895
▁sod	-10.6895
codi	-10.6899
▁wis	-10.69
▁hiraan	-10.6904
ssim	-10.6915
▁pique	-10.6919
▁conclu	-10.6919
▁nokk	-10.6919
▁capita	-10.6919
ome	-10.6924
jarra	-10.6926
xcuse	-10.6931
▁voeu	-10.6941
A	-10.6943
yama	-10.6944
▁weel	-10.6959
▁crép	-10.6966
▁tant	-10.6968
▁étern	-10.698
▁nomad	-10.6981
ibi	-10.6987
acqui	-10.6991
▁carto	-10.6994
▁appell	-10.7005
▁farl	-10.7008
itation	-10.7016
oya	-10.7024
urner	-10.7027
▁rate	-10.7032
ñu	-10.7032
▁binng	-10.7033
moo	-10.7049
▁Ɓu	-10.7051
ooki	-10.7054
▁aada	-10.7056
taaku	-10.7059
nation	-10.7064
▁aime	-10.7065
▁añ	-10.7073
rais	-10.7083
▁jus	-10.7085
▁fewju	-10.709
nay	-10.7097
laha	-10.7103
▁ɓennd	-10.7107
▁pose	-10.7117
drog	-10.7119
gn	-10.7126
▁publi	-10.713
puis	-10.714
▁comm	-10.7144
ctivit	-10.7146
▁pres	-10.7152
belle	-10.7152
law	-10.7158
▁aba	-10.7167
accou	-10.7172
rrière	-10.7173
▁gall	-10.7175
▁pl	-10.7176
nouvel	-10.7181
▁aille	-10.7195
▁travail	-10.7196
épic	-10.7202
▁accueil	-10.7203
ppit	-10.7208
▁obsc	-10.7208
kkita	-10.721
wna	-10.7216
jud	-10.7217
▁jeeɗi	-10.722
▁corp	-10.7222
▁jun	-10.7223
appro	-10.7224
▁Ker	-10.7226
▁fauc	-10.7228
▁autr	-10.7228
vit	-10.7229
▁perm	-10.723
▁ken	-10.7238
▁déplace	-10.7239
▁sonne	-10.7246
▁amoureu	-10.7247
▁finu	-10.7249
▁barki	-10.7252
▁haar	-10.7253
▁blanc	-10.7254
oogu	-10.7254
aggiti	-10.7255
▁oe	-10.7257
▁tawt	-10.7275
▁harmoni	-10.7278
rg	-10.7284
ding	-10.7287
aseeti	-10.7304
gga	-10.7306
I	-10.7308
ffre	-10.7311
▁Chr	-10.7316
▁ɓeyda	-10.7318
▁tout	-10.7319
▁choi	-10.7326
▁Mad	-10.7331
clop	-10.7335
▁pata	-10.7338
▁fatt	-10.7343
tère	-10.7344
▁itti	-10.7354
édé	-10.7365
▁patien	-10.7365
▁domi	-10.7372
▁mil	-10.7374
▁yeɗ	-10.7375
onolog	-10.7378
dèle	-10.738
colli	-10.7389
▁ɓitt	-10.7389
▁vais	-10.739
ogne	-10.7395
blan	-10.7396
effe	-10.741
▁ndun	-10.7411
▁kali	-10.7413
▁razzi	-10.7417
▁dépla	-10.7421
▁ƴakku	-10.7424
amél	-10.7426
kees	-10.7434
▁hakke	-10.7438
iwe	-10.7438
▁toi	-10.7439
ouven	-10.7439
▁chim	-10.7442
▁pil	-10.7443
omber	-10.7444
ŋal	-10.7449
▁lance	-10.7449
ours	-10.7452
oublie	-10.7455
▁appro	-10.7459
jection	-10.7473
aitre	-10.7478
▁pieu	-10.7482
▁dank	-10.7486
uit	-10.7488
urs	-10.7493
▁yilte	-10.7493
bab	-10.75
ball	-10.7501
plo	-10.7503
▁étrang	-10.7507
▁baɓɓ	-10.7507
femme	-10.7507
avid	-10.7509
filli	-10.751
économi	-10.7512
perdr	-10.7517
condui	-10.7518
▁hitti	-10.7519
sept	-10.7519
moustique	-10.7521
junn	-10.7522
loge	-10.7526
épouse	-10.7527
▁ɓaa	-10.7529
dique	-10.7533
ext	-10.7535
retour	-10.7536
corp	-10.7538
réti	-10.7542
▁fewn	-10.7544
fonngo	-10.7545
crois	-10.7549
▁surp	-10.7549
jatte	-10.755
Alla	-10.7551
homme	-10.7555
Faransi	-10.7558
sorc	-10.7558
proclam	-10.7559
écriv	-10.7559
pluie	-10.756
général	-10.756
propre	-10.7561
chambre	-10.7561
authenti	-10.7561
empêche	-10.7563
applaudi	-10.7563
grave	-10.7563
agricult	-10.7563
insulte	-10.7564
illumin	-10.7565
janngo	-10.7566
Bo	-10.7566
accueill	-10.7567
polite	-10.7568
fruit	-10.7569
apport	-10.7571
règle	-10.7571
crép	-10.7573
instru	-10.7575
quoi	-10.7575
jeûne	-10.7576
▁mbay	-10.7577
▁nat	-10.7577
étrangle	-10.7578
La	-10.7578
libre	-10.7579
casse	-10.7579
existe	-10.758
éléphant	-10.758
falta	-10.7582
asamaa	-10.7582
ña	-10.7583
champ	-10.7583
tien	-10.7586
envoyé	-10.7586
▁forger	-10.7586
▁Ac	-10.7587
killi	-10.7588
honor	-10.7591
1	-10.7592
U	-10.7596
▁ɓal	-10.7598
▁piq	-10.76
èd	-10.76
ɓuro	-10.76
plaisanter	-10.7602
hanki	-10.761
liɓi	-10.7611
Ima	-10.7612
▁gara	-10.7612
décision	-10.7613
abandonne	-10.7615
D	-10.7616
auto	-10.7617
▁arsi	-10.762
▁watti	-10.7623
arrach	-10.7624
▁fess	-10.7626
▁empr	-10.7626
▁désa	-10.7626
petit	-10.7627
▁Legg	-10.7628
Qu	-10.7629
parent	-10.763
affli	-10.7632
fow	-10.7634
justic	-10.7643
▁mélan	-10.7645
▁maîtr	-10.7648
▁wuj	-10.765
▁ɓoy	-10.7653
matur	-10.7654
caw	-10.7655
bâ	-10.7658
mousse	-10.7664
▁migra	-10.7665
islam	-10.7665
▁neu	-10.7666
faami	-10.7668
daali	-10.7669
▁trib	-10.7669
ordu	-10.767
juu	-10.7672
▁sud	-10.7675
boro	-10.7675
▁conjo	-10.7677
cache	-10.7677
▁naafiq	-10.7678
mbours	-10.7679
taan	-10.7685
oorood	-10.7686
libér	-10.7688
▁anngi	-10.7688
foul	-10.7688
hey	-10.769
▁interrogat	-10.7694
admi	-10.7695
attrape	-10.7698
▁aigui	-10.77
enfonc	-10.77
ccupe	-10.7701
leƴƴi	-10.7701
faamu	-10.7702
prier	-10.7703
Il	-10.7706
sé	-10.7706
hiima	-10.7707
▁économi	-10.7707
appli	-10.771
▁bond	-10.7711
▁rempl	-10.7713
▁prie	-10.7717
▁premi	-10.7723
pelli	-10.7725
haanu	-10.7725
▁gros	-10.7725
▁sûr	-10.7726
lamɗo	-10.7731
▁buuse	-10.7736
affaire	-10.7738
st	-10.774
janna	-10.7741
Au	-10.7743
▁cinq	-10.7746
yahu	-10.7749
autoris	-10.7752
▁hik	-10.7752
▁compa	-10.776
aner	-10.776
▁sulu	-10.7762
usc	-10.7764
nner	-10.7766
▁hoɗo	-10.7767
Ga	-10.7769
▁reconn	-10.7776
ntérie	-10.778
hann	-10.7781
exerc	-10.7786
▁hypocri	-10.7789
▁règ	-10.7791
▁Aarab	-10.7791
▁bega	-10.7793
Isra	-10.7796
sci	-10.7796
ener	-10.7798
haala	-10.7799
thme	-10.7801
tête	-10.7801
jala	-10.7801
▁Bunn	-10.7802
▁coq	-10.7806
▁autom	-10.7808
wel	-10.7811
▁denn	-10.7813
souffle	-10.7814
inndi	-10.7815
▁yejj	-10.7816
▁témoi	-10.7818
ommer	-10.7819
préma	-10.7821
▁assom	-10.7822
brode	-10.7826
yumm	-10.7826
ayni	-10.7828
▁convo	-10.7829
échir	-10.7831
révi	-10.7834
▁délég	-10.7836
▁branc	-10.7838
▁ɓuɓɓ	-10.7838
▁jeeg	-10.784
ujourd	-10.784
▁supéri	-10.7841
tiinde	-10.7842
▁distr	-10.7843
ssoci	-10.7843
iscrimin	-10.7844
ibo	-10.7844
▁hésit	-10.7848
▁wela	-10.785
ograph	-10.7856
▁pell	-10.7858
espér	-10.7858
force	-10.7859
colie	-10.786
demande	-10.786
escription	-10.7862
▁mult	-10.7862
▁derni	-10.7863
4	-10.7864
«	-10.7864
»	-10.7864
À	-10.7864
Á	-10.7864
ë	-10.7864
–	-10.7864
“	-10.7864
”	-10.7864
3	-10.7864
▁prescri	-10.7865
omnie	-10.7866
▁franc	-10.7866
ocrite	-10.7867
chèv	-10.7869
▁jonb	-10.7869
ulɓin	-10.7869
obab	-10.787
▁lislaam	-10.7875
dañ	-10.7878
beɗo	-10.788
oeil	-10.788
asaara	-10.7881
▁deleg	-10.7881
ññina	-10.7882
qiijo	-10.7882
chef	-10.7883
▁hawti	-10.7885
ƴindi	-10.7886
dicat	-10.7888
inirta	-10.7891
▁villa	-10.7892
porté	-10.7892
ƴoo	-10.7893
objecti	-10.7893
fût	-10.7894
▁hyp	-10.7895
imè	-10.7896
jinn	-10.7897
daande	-10.7897
mobil	-10.79
▁provis	-10.79
humati	-10.7903
▁matéri	-10.7903
▁céré	-10.7903
▁contin	-10.7904
eleej	-10.7904
gérat	-10.7904
▁doga	-10.7907
▁hald	-10.7909
upér	-10.7909
▁charogn	-10.7911
▁Port	-10.7911
relat	-10.7911
▁taarii	-10.7911
acia	-10.7913
▁suj	-10.7913
évé	-10.7913
meeti	-10.7916
ennu	-10.7921
hakka	-10.7923
varice	-10.7923
▁Quel	-10.7924
▁temp	-10.7924
argot	-10.7929
esqui	-10.793
leuve	-10.793
▁kiik	-10.7935
fita	-10.7937
beille	-10.7938
▁moust	-10.7938
éveil	-10.794
eddo	-10.7941
oléra	-10.7942
rhum	-10.7944
llini	-10.7946
uffle	-10.7947
▁croyan	-10.7948
waar	-10.7948
▁tube	-10.7949
jari	-10.7949
▁fabr	-10.7951
égè	-10.7954
phéri	-10.7957
▁juutu	-10.796
épi	-10.796
vécu	-10.7962
▁Sey	-10.7965
▁dépar	-10.7966
sévér	-10.7966
oliisi	-10.7968
▁ɗuu	-10.7968
rachat	-10.7968
▁passa	-10.7969
▁Dj	-10.7971
▁grande	-10.7972
utt	-10.7973
égrati	-10.7975
dormi	-10.7976
icat	-10.7976
autori	-10.7977
mê	-10.7984
▁kutu	-10.7986
▁feɗ	-10.7987
▁hoɓ	-10.7988
goutte	-10.7988
▁ñamak	-10.7992
butu	-10.7993
arnu	-10.7995
▁yooru	-10.7996
▁glou	-10.7997
oolo	-10.7998
io	-10.8003
▁hajj	-10.8007
racte	-10.8017
▁riche	-10.8018
inq	-10.8019
tresse	-10.8019
▁yej	-10.802
huit	-10.8022
bande	-10.8023
cueill	-10.8023
▁imb	-10.8024
national	-10.8025
unndaar	-10.8026
▁papi	-10.8026
casser	-10.803
onsoli	-10.803
abri	-10.8031
▁futu	-10.8033
gri	-10.8034
him	-10.8035
▁bakk	-10.8037
▁gub	-10.8039
gallo	-10.8039
▁waha	-10.804
allita	-10.8041
tie	-10.8042
▁assis	-10.8042
agge	-10.8044
▁naafiqi	-10.8044
▁bark	-10.8045
amme	-10.8046
ud	-10.805
En	-10.8052
▁kiit	-10.8052
▁balaf	-10.8053
kiloo	-10.8054
▁compagno	-10.8057
luka	-10.8061
▁pé	-10.8063
▁res	-10.8064
jure	-10.8066
Aa	-10.8067
aboo	-10.8069
▁interpr	-10.807
▁réc	-10.8071
▁naf	-10.8073
akkaa	-10.8078
oisson	-10.8081
worɗ	-10.8082
▁maɓ	-10.8083
hara	-10.8085
xite	-10.8086
boodo	-10.8086
▁marie	-10.8092
▁hô	-10.8092
otage	-10.81
arki	-10.81
pé	-10.8101
▁mik	-10.8102
▁dit	-10.8102
▁laaɓ	-10.8105
élanc	-10.8105
▁savan	-10.8107
nard	-10.8108
▁cav	-10.8108
▁payk	-10.8111
▁repr	-10.8113
▁Kis	-10.8114
lot	-10.8116
▁dirt	-10.8117
orma	-10.812
▁vic	-10.8122
auc	-10.8122
ographie	-10.8122
▁gémi	-10.8125
▁vén	-10.8125
▁vend	-10.8127
oƴƴud	-10.8129
dra	-10.8133
inngii	-10.8138
interro	-10.8141
▁leg	-10.8141
▁déman	-10.8144
▁recon	-10.8149
poro	-10.815
ɓɓinda	-10.8154
isanteri	-10.8155
timat	-10.8156
êtement	-10.8157
breuv	-10.8167
compense	-10.8172
▁retour	-10.8175
spér	-10.8176
eƴƴir	-10.8177
▁multi	-10.8178
▁yiltu	-10.818
mbin	-10.8181
▁Pul	-10.8182
tress	-10.8184
ebbo	-10.8185
anko	-10.8185
taake	-10.8189
oodo	-10.8189
▁Baag	-10.8191
entret	-10.8192
ilis	-10.8192
rne	-10.8193
▁manda	-10.8198
ransp	-10.82
edda	-10.8202
ooɗi	-10.8204
ylo	-10.8209
ndant	-10.8211
ignon	-10.8215
ƴa	-10.8215
hip	-10.8223
gnifi	-10.8225
omis	-10.8228
traite	-10.823
ltat	-10.8231
▁cora	-10.8234
yɗi	-10.8236
squ	-10.8241
perme	-10.8245
▁cup	-10.8246
mto	-10.8247
▁gram	-10.825
▁moisi	-10.8253
▁fop	-10.8255
▁bois	-10.8256
▁interp	-10.8259
▁salut	-10.8259
coupe	-10.8261
riété	-10.8278
ligieu	-10.828
eveu	-10.828
ritan	-10.8281
compens	-10.8285
einture	-10.8285
▁court	-10.8286
upp	-10.8289
▁plais	-10.829
▁Bam	-10.8292
anc	-10.8292
▁décou	-10.8298
▁fonn	-10.83
beau	-10.83
abh	-10.8303
lik	-10.8304
▁courtis	-10.8305
envoy	-10.8306
▁tém	-10.8307
▁fawt	-10.8308
▁prob	-10.8311
▁mais	-10.8316
mpéri	-10.8319
ouc	-10.8322
poo	-10.8325
▁inv	-10.8328
voler	-10.8329
ñor	-10.8329
lles	-10.8339
▁aawa	-10.8343
éter	-10.8345
▁conci	-10.8345
urie	-10.8347
▁nod	-10.8351
tum	-10.8352
▁aaw	-10.8355
elsu	-10.8364
▁bap	-10.8365
fidèle	-10.8368
▁mach	-10.8369
▁prév	-10.8377
sujet	-10.8383
ñi	-10.8387
▁mem	-10.8395
aspe	-10.8401
naw	-10.8411
sal	-10.8414
▁bolon	-10.8422
▁prou	-10.8423
évél	-10.8424
hameau	-10.8428
▁grou	-10.843
ntina	-10.8436
▁kil	-10.8436
▁stab	-10.8436
igeon	-10.8437
▁certi	-10.8438
▁Tim	-10.8438
kati	-10.8439
▁aspe	-10.8447
▁hame	-10.8448
▁tora	-10.8452
logis	-10.846
éva	-10.8461
▁tiind	-10.8463
ootu	-10.8472
▁lumm	-10.8478
▁ɓanta	-10.8478
cina	-10.848
▁ret	-10.8482
▁rempla	-10.849
uq	-10.8496
▁hak	-10.8497
▁vomi	-10.8501
▁sorc	-10.8511
ɗum	-10.8513
rroi	-10.8513
ecce	-10.8518
jan	-10.8527
▁blanch	-10.8528
▁pote	-10.853
▁siy	-10.8533
▁finn	-10.8539
aalu	-10.8543
riv	-10.8544
▁admi	-10.8546
▁fonndoo	-10.8547
▁wak	-10.8548
▁aur	-10.8549
pied	-10.8549
iisi	-10.855
baafa	-10.8555
▁sages	-10.8556
▁qa	-10.8564
▁jeeɗiɗ	-10.8568
ñer	-10.8571
direct	-10.8571
ouffre	-10.8572
envers	-10.8578
▁tortu	-10.8584
iro	-10.8589
▁consti	-10.8591
venu	-10.8594
ucher	-10.8597
▁annda	-10.8603
▁saam	-10.8607
▁pott	-10.861
▁méd	-10.8614
âti	-10.8614
▁gué	-10.8618
▁kap	-10.8623
▁nouve	-10.8627
birki	-10.863
rii	-10.8636
▁Mu	-10.8638
misa	-10.8645
lek	-10.8646
▁prédi	-10.8646
uub	-10.8648
▁vale	-10.8652
concili	-10.8656
▁secour	-10.8668
▁sor	-10.8671
odi	-10.8673
uŋa	-10.8675
▁bapp	-10.8688
▁brin	-10.8691
▁pun	-10.8701
▁vaca	-10.8702
▁écr	-10.8708
▁tâ	-10.8709
tax	-10.871
lien	-10.8712
bii	-10.8714
inée	-10.872
iiɓ	-10.8723
▁aig	-10.8726
pporte	-10.8728
occuur	-10.873
ril	-10.8732
fele	-10.8749
laata	-10.8749
faandu	-10.8754
▁chemi	-10.8759
soo	-10.8766
▁pho	-10.8767
jeune	-10.8774
▁léch	-10.8778
maay	-10.8791
▁Ho	-10.8792
▁tous	-10.8792
▁lum	-10.8798
awi	-10.8801
▁crain	-10.8807
évent	-10.8816
igar	-10.8821
attir	-10.8829
ortune	-10.8836
soob	-10.8842
▁parf	-10.8846
▁bot	-10.8849
▁ens	-10.8858
▁boro	-10.8864
uber	-10.8871
het	-10.8875
neu	-10.8876
▁dak	-10.8878
entend	-10.8879
longe	-10.8883
▁riva	-10.8892
▁kilog	-10.8896
vite	-10.8897
ricot	-10.8904
birɗ	-10.8914
▁jeu	-10.8918
▁zu	-10.8934
▁Jal	-10.894
enƴ	-10.8943
unyaa	-10.8948
wen	-10.8949
▁taar	-10.8958
▁corpu	-10.8963
▁soli	-10.8964
▁piya	-10.8967
▁alphab	-10.897
aabilii	-10.8975
▁quar	-10.898
▁bav	-10.8993
péc	-10.9002
flic	-10.9011
voya	-10.9012
iscus	-10.9013
han	-10.9014
▁feeñu	-10.9019
édie	-10.9022
▁Fee	-10.9026
▁utilis	-10.903
▁beso	-10.9039
▁éte	-10.9042
lleeji	-10.9043
iidu	-10.9044
ettu	-10.9059
▁vois	-10.9062
oldu	-10.9068
uel	-10.9068
▁App	-10.9069
strat	-10.9074
kutu	-10.9079
▁tipp	-10.909
▁yon	-10.909
▁lat	-10.91
kil	-10.9116
▁démange	-10.9118
▁sawr	-10.9128
ñaar	-10.9129
jaggu	-10.9129
abl	-10.913
▁joi	-10.9139
▁ñem	-10.9141
imer	-10.9142
asiyon	-10.9153
▁intér	-10.9153
Hé	-10.9158
eɓe	-10.9161
▁partic	-10.9163
▁taba	-10.9164
évita	-10.9173
eɗɗe	-10.9184
iɗi	-10.9185
hare	-10.9186
versati	-10.9189
lanc	-10.9191
binet	-10.9192
▁mboo	-10.9194
dis	-10.9195
▁poi	-10.9199
unke	-10.921
vrai	-10.9218
çonne	-10.9223
▁pant	-10.9228
▁tourna	-10.923
bobine	-10.9233
▁Don	-10.924
▁tis	-10.924
laana	-10.9257
empi	-10.9267
▁Ɓo	-10.9284
coule	-10.9285
vague	-10.9285
tago	-10.9299
▁parad	-10.9306
▁interro	-10.9318
sc	-10.9323
▁dam	-10.933
yt	-10.9333
poison	-10.9335
ñol	-10.9351
aaliba	-10.9352
▁Ru	-10.9355
▁Que	-10.936
née	-10.9361
taari	-10.9372
▁pul	-10.9384
▁ric	-10.9384
anta	-10.9385
▁maag	-10.9392
▁oblig	-10.9395
▁gue	-10.9399
▁dennd	-10.9404
ég	-10.941
▁huuwu	-10.9411
▁tens	-10.9422
▁ndarn	-10.9423
▁épar	-10.9424
▁autori	-10.9428
▁convi	-10.9438
ondi	-10.9449
mater	-10.9464
▁bib	-10.9475
oje	-10.9482
▁feu	-10.949
aakara	-10.9493
érie	-10.9503
change	-10.9503
rédit	-10.9505
▁lar	-10.9506
▁heñ	-10.9507
▁fonda	-10.9507
▁pota	-10.9509
▁doc	-10.9516
uri	-10.9516
bbe	-10.9523
daan	-10.9523
bordi	-10.9524
ggu	-10.9526
oyng	-10.9527
érialis	-10.9529
▁emba	-10.9539
▁divis	-10.9542
pée	-10.9542
▁asse	-10.9549
fer	-10.9549
croiss	-10.9549
umo	-10.9552
▁consol	-10.9552
tê	-10.9554
wu	-10.9563
asis	-10.9564
▁Peu	-10.9567
mand	-10.957
ogramme	-10.9574
▁som	-10.9579
urɗ	-10.9583
▁ché	-10.9589
obéi	-10.96
▁prép	-10.9601
▁sauve	-10.9604
▁chat	-10.9616
cas	-10.9628
▁évi	-10.9636
liis	-10.9637
▁tas	-10.964
élè	-10.9643
▁sép	-10.9648
▁commer	-10.965
▁mbul	-10.9654
uide	-10.9657
▁tuun	-10.9658
▁réa	-10.9661
ɗer	-10.9661
▁tari	-10.9665
▁may	-10.9669
hibo	-10.9672
âble	-10.9678
▁dep	-10.9686
▁bono	-10.9687
mad	-10.9691
▁rip	-10.9692
▁and	-10.9698
▁sen	-10.9703
▁survi	-10.9711
kuɗo	-10.9713
▁Mur	-10.9714
érat	-10.9715
▁lor	-10.9733
▁dele	-10.9734
inter	-10.9747
koor	-10.9763
▁contrai	-10.9777
▁Fu	-10.9777
▁envo	-10.9788
ellal	-10.9789
uy	-10.9804
portée	-10.9813
▁ris	-10.9834
rava	-10.9836
▁obs	-10.9855
▁ɓee	-10.9858
répare	-10.987
▁histo	-10.987
hamm	-10.9885
ço	-10.9886
cri	-10.9898
▁us	-10.9902
▁relat	-10.9909
jom	-10.9919
▁cala	-10.9922
aay	-10.9922
ukku	-10.9928
gme	-10.9934
▁bin	-10.9936
ndez	-10.9937
iisii	-10.9963
év	-10.9971
▁prome	-10.9972
▁sat	-10.9973
pun	-10.9981
▁kes	-10.9982
vers	-10.9995
cimé	-11.0001
▁saf	-11.0006
nkee	-11.0011
siti	-11.0023
ulation	-11.0031
urage	-11.0033
▁servit	-11.0038
corde	-11.004
ére	-11.0045
ères	-11.0047
▁huma	-11.0047
uɗ	-11.0049
▁couv	-11.005
▁aven	-11.0057
▁goot	-11.0068
▁welta	-11.0075
oû	-11.0075
▁buf	-11.0076
▁ave	-11.0076
▁charr	-11.0079
elat	-11.0093
▁daak	-11.0094
▁baas	-11.0096
vol	-11.0104
▁eta	-11.0105
aaɗe	-11.0105
▁dil	-11.011
orgu	-11.0111
▁farlu	-11.0132
dane	-11.0136
▁impu	-11.0136
▁tama	-11.0139
avage	-11.0147
sage	-11.0154
eeri	-11.0155
▁awa	-11.0174
lere	-11.0175
▁conco	-11.0176
rte	-11.0192
ernde	-11.02
▁décha	-11.0202
pareil	-11.0212
▁esse	-11.0215
att	-11.022
▁heur	-11.023
enqu	-11.023
war	-11.0237
ratique	-11.0252
▁Nu	-11.0261
▁soɓɓ	-11.0279
▁idé	-11.0287
immbi	-11.029
▁missi	-11.0316
▁ɓey	-11.0317
sti	-11.0323
▁phono	-11.0331
prime	-11.0335
▁lic	-11.0361
stéri	-11.0368
▁ñor	-11.0388
▁gid	-11.0392
atali	-11.0402
▁appri	-11.0415
ip	-11.0416
▁frai	-11.0417
awla	-11.0428
▁connai	-11.0444
▁pare	-11.0449
▁Aa	-11.0451
culte	-11.0477
ail	-11.0486
ysi	-11.049
ourage	-11.0491
atique	-11.0508
tem	-11.0514
▁discr	-11.0515
irku	-11.0521
iba	-11.0539
nta	-11.0542
▁welt	-11.0547
▁fid	-11.055
hajj	-11.0556
quête	-11.0569
illes	-11.0573
yau	-11.0578
▁masi	-11.0586
▁inte	-11.0591
ngu	-11.0593
ivers	-11.0595
▁temm	-11.0603
▁cheva	-11.0603
▁ñaame	-11.0607
nne	-11.0621
ançon	-11.0634
▁occ	-11.065
kee	-11.0661
▁sau	-11.0668
part	-11.0675
▁bla	-11.0675
▁senndi	-11.0698
iendra	-11.073
dom	-11.0734
oûte	-11.0741
▁épr	-11.0743
tribut	-11.0748
uni	-11.0753
mate	-11.0753
rusta	-11.0757
▁cet	-11.0766
asin	-11.0783
itag	-11.0804
iije	-11.0818
uter	-11.0819
▁révo	-11.0819
nam	-11.0826
sin	-11.0837
▁dén	-11.0845
▁écla	-11.0849
ui	-11.0859
olution	-11.0875
▁sourc	-11.0878
▁hell	-11.0886
andou	-11.0889
ift	-11.0897
pro	-11.0904
otin	-11.0913
ɗaw	-11.0922
▁dum	-11.0925
▁continue	-11.0927
aîne	-11.0928
▁pagaye	-11.0942
arabe	-11.0943
osc	-11.0944
ɓir	-11.0952
ltu	-11.0975
ssé	-11.098
▁coin	-11.098
anku	-11.1028
▁prof	-11.1031
arlu	-11.1049
▁lave	-11.1056
dj	-11.1093
rabe	-11.1109
ƴin	-11.1117
▁yur	-11.1118
same	-11.1127
aga	-11.1128
▁préd	-11.1128
▁lut	-11.1128
ayii	-11.1133
▁blo	-11.1136
▁cano	-11.1151
▁lav	-11.1164
hen	-11.1191
ull	-11.1217
ekere	-11.1218
▁artic	-11.1223
enn	-11.1232
▁ruu	-11.1234
▁sout	-11.1242
oyee	-11.1245
bale	-11.1246
ssa	-11.1251
▁ɓad	-11.1267
enf	-11.1269
▁dunca	-11.1269
▁doua	-11.1282
aale	-11.1284
eesii	-11.1284
▁tinti	-11.1285
illère	-11.1288
onté	-11.129
ajibi	-11.1298
ngere	-11.1324
▁attra	-11.1329
▁vin	-11.1356
eɓɓa	-11.1356
écol	-11.1361
usie	-11.1375
▁tomb	-11.1385
▁teddu	-11.1396
saabu	-11.14
▁savo	-11.1421
▁fee	-11.1422
ntin	-11.1423
eller	-11.1425
▁reme	-11.1435
mulet	-11.1447
hage	-11.1448
ches	-11.1449
▁ñee	-11.1458
▁Bu	-11.1467
▁ƴamu	-11.147
▁gla	-11.1475
git	-11.1484
nnden	-11.1485
▁fâch	-11.1488
▁ty	-11.1501
éma	-11.1503
▁wud	-11.1505
écou	-11.1511
urta	-11.1517
▁kull	-11.153
ngue	-11.1543
tonn	-11.1557
▁ŋaa	-11.1566
jou	-11.1567
ec	-11.1578
▁mue	-11.1584
▁sagar	-11.1593
▁adj	-11.1595
▁compt	-11.1596
▁dess	-11.1597
iɗ	-11.1615
por	-11.1628
▁suli	-11.1629
esp	-11.1657
éte	-11.1662
pétit	-11.1672
▁band	-11.1692
▁hoyt	-11.17
▁vivr	-11.1701
gelee	-11.1708
▁el	-11.1708
▁enco	-11.171
aaju	-11.1716
▁gom	-11.1727
▁call	-11.1732
▁habil	-11.174
▁wir	-11.175
▁aad	-11.1761
▁fru	-11.1774
▁ɓeydo	-11.1775
llar	-11.1781
▁hee	-11.1789
▁impér	-11.181
▁foy	-11.1822
▁reg	-11.1838
endance	-11.1841
onc	-11.1853
élér	-11.1855
▁nja	-11.1866
▁nou	-11.188
isie	-11.1894
tement	-11.1904
otira	-11.1932
onda	-11.1954
▁hawt	-11.1958
mbé	-11.1967
▁pub	-11.1969
termina	-11.2004
▁kasa	-11.2046
mule	-11.2048
sole	-11.2048
yol	-11.2072
capable	-11.2093
▁tent	-11.2095
▁paas	-11.2095
bal	-11.21
lant	-11.2107
issa	-11.2126
incer	-11.2138
abii	-11.214
dire	-11.215
vivre	-11.2159
▁Har	-11.2163
▁ig	-11.2164
oste	-11.2166
nka	-11.2171
▁Ta	-11.2173
mmbug	-11.2178
▁verr	-11.2178
ft	-11.2184
▁bour	-11.2216
strati	-11.2222
andi	-11.227
ket	-11.2272
produire	-11.2298
ingo	-11.2301
érite	-11.2303
▁nodd	-11.2328
▁cein	-11.2332
fta	-11.2341
ɓɓu	-11.2347
haa	-11.2353
ém	-11.236
wti	-11.2375
▁nana	-11.2398
fou	-11.2399
far	-11.2403
▁drape	-11.2408
onndii	-11.2426
rter	-11.2427
ppu	-11.2447
ttol	-11.2456
gre	-11.2457
icule	-11.2479
▁lou	-11.2492
ambu	-11.2498
ttre	-11.2505
ccan	-11.2512
ottan	-11.2522
▁sell	-11.2544
▁ommbi	-11.2563
aynit	-11.2582
eeɓita	-11.26
▁diffic	-11.2602
sini	-11.2611
uran	-11.2634
▁mod	-11.2639
▁empo	-11.267
amuse	-11.2689
œ	-12.1696
Z	-12.1697
.	-12.1698
)	-12.1699
Ɗ	-12.17
V	-12.1701
Y	-12.1702
W	-12.1703
Ɓ	-12.1704
R	-12.1705
Q	-12.1706
ï	-12.1707
J	-12.1708
G	-12.1709
T	-12.171
L	-12.1711
K	-12.1712
P	-12.1713
F	-12.1714
B	-12.1715
M	-12.1716
